<unk>	0
<s>	0
</s>	0
<pad>	0
<blank>	0
▁n	-0
▁m	-1
▁a	-2
▁w	-3
▁me	-4
▁wo	-5
▁s	-6
▁na	-7
▁b	-8
yɛ	-9
aa	-10
▁no	-11
▁k	-12
▁d	-13
▁ɛ	-14
▁h	-15
eɛ	-16
▁sɛ	-17
ye	-18
an	-19
▁ɔ	-20
yi	-21
re	-22
▁yɛ	-23
▁t	-24
▁ne	-25
ra	-26
en	-27
ma	-28
▁o	-29
ka	-30
▁f	-31
rɛ	-32
▁ɛn	-33
▁deɛ	-34
▁p	-35
se	-36
ti	-37
ya	-38
▁ad	-39
▁bi	-40
kɔ	-41
bi	-42
me	-43
sɛ	-44
▁an	-45
so	-46
▁ma	-47
ei	-48
▁yi	-49
wa	-50
ie	-51
te	-52
▁bɛ	-53
▁ab	-54
▁mo	-55
▁wɔ	-56
sa	-57
ri	-58
▁so	-59
▁mu	-60
▁men	-61
▁g	-62
▁e	-63
▁ka	-64
fo	-65
na	-66
▁kɔ	-67
▁ho	-68
▁ye	-69
pa	-70
▁ba	-71
bɛ	-72
▁ak	-73
yerɛ	-74
▁ha	-75
wɛ	-76
im	-77
▁de	-78
or	-79
▁nti	-80
de	-81
mo	-82
▁wa	-83
▁hɔ	-84
▁re	-85
um	-86
ro	-87
▁saa	-88
fa	-89
▁,	-90
wo	-91
in	-92
ba	-93
sɛm	-94
hu	-95
ua	-96
ara	-97
▁da	-98
▁se	-99
▁won	-100
▁maa	-101
▁nn	-102
wɔ	-103
deɛ	-104
ko	-105
si	-106
wu	-107
▁wei	-108
▁y	-109
ɛn	-110
▁kor	-111
foɔ	-112
umi	-113
▁te	-114
▁pa	-115
▁koraa	-116
da	-117
▁be	-118
▁fa	-119
no	-120
▁mɛ	-121
▁hwɛ	-122
▁ɛyɛ	-123
▁nya	-124
we	-125
▁si	-126
di	-127
▁fie	-128
om	-129
▁en	-130
▁ah	-131
yin	-132
ia	-133
on	-134
▁maame	-135
▁bɔ	-136
▁baa	-137
ena	-138
▁ni	-139
▁ku	-140
▁kyerɛ	-141
▁to	-142
▁obi	-143
wan	-144
▁ɔmo	-145
▁nan	-146
iri	-147
to	-148
▁ase	-149
ne	-150
▁nso	-151
baa	-152
▁ag	-153
..	-154
▁ama	-155
pɛ	-156
▁pɛ	-157
▁oo	-158
ene	-159
▁as	-160
bɔ	-161
▁asɛm	-162
▁adeɛ	-163
▁yɛn	-164
▁nk	-165
tumi	-166
▁ɛnyɛ	-167
yinaa	-168
▁ɛna	-169
▁he	-170
▁sei	-171
ho	-172
▁nyame	-173
▁anaa	-174
▁nyinaa	-175
▁mm	-176
▁af	-177
he	-178
▁i	-179
▁bo	-180
ani	-181
kye	-182
▁ɛwɔ	-183
ha	-184
▁ara	-185
be	-186
▁aba	-187
▁yo	-188
▁ɛnn	-189
uo	-190
▁paa	-191
ane	-192
▁anka	-193
hwɛ	-194
▁hu	-195
▁l	-196
▁akɔ	-197
▁di	-198
▁nea	-199
mma	-200
daa	-201
▁nka	-202
mu	-203
▁sika	-204
▁mma	-205
▁gye	-206
▁enti	-207
▁yie	-208
▁ko	-209
▁nkɔ	-210
▁kak	-211
▁adɛn	-212
nu	-213
sei	-214
▁ɔbaa	-215
▁abɛ	-216
▁biri	-217
▁mp	-218
gye	-219
▁kuro	-220
▁at	-221
▁sɔ	-222
▁sɛn	-223
▁biribi	-224
ate	-225
▁ei	-226
ll	-227
▁you	-228
▁ayɛ	-229
ru	-230
▁nana	-231
wene	-232
▁deɛn	-233
▁biara	-234
yae	-235
▁ɔno	-236
us	-237
▁kyɛ	-238
▁nim	-239
▁ɛno	-240
▁nipa	-241
ta	-242
▁akwa	-243
ku	-244
▁ɛbɛ	-245
ɔn	-246
ad	-247
▁ɔn	-248
mm	-249
wuma	-250
le	-251
hyɛ	-252
▁ya	-253
▁wobɛ	-254
▁ns	-255
▁papa	-256
bo	-257
man	-258
▁aka	-259
ayɛ	-260
kyɛ	-261
▁ɔbɛ	-262
▁abo	-263
▁nt	-264
▁daa	-265
anin	-266
kyi	-267
▁bu	-268
wura	-269
as	-270
yina	-271
▁bɛn	-272
kyerɛ	-273
ahu	-274
▁kakra	-275
rima	-276
▁bɔne	-277
▁kwan	-278
▁bra	-279
▁firi	-280
fi	-281
▁on	-282
▁yen	-283
▁woyɛ	-284
▁hwe	-285
▁akyerɛ	-286
▁su	-287
firi	-288
▁ɔde	-289
▁tena	-290
▁adwuma	-291
ware	-292
▁fo	-293
▁aso	-294
tu	-295
ano	-296
▁ny	-297
han	-298
▁nyɛ	-299
ue	-300
ase	-301
▁dɛn	-302
mi	-303
▁?	-304
mmo	-305
▁wai	-306
dam	-307
anim	-308
▁adu	-309
▁kye	-310
er	-311
ol	-312
▁do	-313
▁aseɛ	-314
▁sesei	-315
▁wonim	-316
▁li	-317
▁ti	-318
▁hyɛ	-319
▁nni	-320
▁mede	-321
▁kasa	-322
▁tumi	-323
▁kwa	-324
▁wan	-325
biara	-326
la	-327
ing	-328
▁daabi	-329
fie	-330
▁ɛne	-331
yia	-332
▁aw	-333
deɛn	-334
srɛ	-335
anom	-336
gya	-337
▁gu	-338
▁asem	-339
▁gyae	-340
▁dan	-341
▁mpa	-342
▁ɔse	-343
▁hwee	-344
▁kyɛw	-345
aba	-346
▁frɛ	-347
▁the	-348
▁nsa	-349
▁ɛye	-350
▁neɛ	-351
▁wode	-352
▁awura	-353
tɔ	-354
▁nfa	-355
▁meka	-356
ɔre	-357
akɔ	-358
▁srɛ	-359
▁sofo	-360
dɔ	-361
hi	-362
aka	-363
frɛ	-364
▁ade	-365
▁nnyɛ	-366
▁wɔfa	-367
eii	-368
▁nko	-369
▁ɛnnɛ	-370
▁baabi	-371
▁nanso	-372
▁barima	-373
ni	-374
▁aa	-375
▁adi	-376
▁akyi	-377
▁nyan	-378
▁reka	-379
▁mi	-380
asɛm	-381
wen	-382
▁fi	-383
▁nkwa	-384
▁nsuo	-385
▁wodeɛ	-386
▁ɛnnyɛ	-387
ke	-388
▁we	-389
▁gyina	-390
▁akwadaa	-391
hɔ	-392
maa	-393
du	-394
▁mon	-395
▁nto	-396
ar	-397
brɛ	-398
tena	-399
▁nua	-400
▁ɛdeɛn	-401
▁abɔ	-402
▁panin	-403
▁akon	-404
▁mesrɛ	-405
▁obiara	-406
bu	-407
rɔ	-408
▁dɔ	-409
▁oh	-410
▁nom	-411
▁reyɛ	-412
▁sɔre	-413
▁baako	-414
▁awurade	-415
▁nananom	-416
un	-417
yaa	-418
▁mpo	-419
▁ɔwɔ	-420
▁meyɛ	-421
...	-422
▁ani	-423
▁woho	-424
den	-425
hie	-426
reɛ	-427
waa	-428
▁ke	-429
▁mese	-430
▁tɔ	-431
yere	-432
▁but	-433
▁din	-434
▁man	-435
fu	-436
oo	-437
▁sa	-438
▁ɔyɛ	-439
▁hwan	-440
pe	-441
▁fɛ	-442
▁menim	-443
su	-444
▁boa	-445
▁nsɛm	-446
▁yere	-447
▁asi	-448
▁agye	-449
ree	-450
twa	-451
iase	-452
▁agya	-453
▁anim	-454
▁rekɔ	-455
gu	-456
wi	-457
▁am	-458
▁wu	-459
akyi	-460
▁nhu	-461
▁nie	-462
orɔ	-463
use	-464
▁kaa	-465
▁ɛkɔ	-466
▁den	-467
▁wahu	-468
th	-469
▁gi	-470
kyew	-471
▁kɔm	-472
▁yaa	-473
▁kunu	-474
▁woka	-475
▁wote	-476
ɛm	-477
ako	-478
wie	-479
▁kɛ	-480
▁asore	-481
st	-482
ble	-483
hat	-484
▁wi	-485
▁kos	-486
▁nnɛ	-487
▁ɔre	-488
▁biaa	-489
▁wɔmmo	-490
kwa	-491
pɔn	-492
seɛ	-493
twe	-494
yimi	-495
▁ɛre	-496
▁bebi	-497
boa	-498
fra	-499
kay	-500
raa	-501
som	-502
▁ɔkɔ	-503
▁brɛ	-504
▁gya	-505
▁sɔfo	-506
▁menua	-507
ag	-508
ee	-509
▁nte	-510
▁nnim	-511
▁okay	-512
▁wose	-513
▁ɛmma	-514
▁biribiara	-515
do	-516
▁du	-517
anya	-518
▁aho	-519
▁nam	-520
▁afei	-521
▁eeii	-522
▁aduane	-523
▁koshie	-524
ten	-525
▁asɛ	-526
▁ebi	-527
▁tie	-528
▁ɛba	-529
▁ɛde	-530
▁adwo	-531
▁ɛwɔsɛ	-532
enu	-533
paa	-534
usua	-535
▁ano	-536
▁mepa	-537
▁akonwa	-538
mɔ	-539
ɛɛ	-540
san	-541
wɛn	-542
▁aha	-543
▁awa	-544
▁kra	-545
▁ɛnɛ	-546
ter	-547
▁hey	-548
ama	-549
▁ako	-550
▁bio	-551
▁dea	-552
▁mem	-553
▁kete	-554
▁meba	-555
▁mekɔ	-556
▁akwala	-557
ty	-558
kan	-559
▁her	-560
▁bisa	-561
ah	-562
abɛ	-563
saa	-564
▁is	-565
▁ato	-566
▁nen	-567
▁twe	-568
▁ɛsɛ	-569
akoma	-570
fe	-571
rl	-572
die	-573
sia	-574
▁tu	-575
▁lina	-576
▁reba	-577
sɔ	-578
kra	-579
taa	-580
▁ɔdɔ	-581
▁aane	-582
▁mene	-583
▁wate	-584
▁ankasa	-585
▁nyanko	-586
am	-587
ran	-588
▁and	-589
▁akyire	-590
nam	-591
nyɛ	-592
▁of	-593
ause	-594
▁agu	-595
▁for	-596
gh	-597
▁.	-598
bɛn	-599
teɛ	-600
▁ap	-601
▁go	-602
aase	-603
hana	-604
▁ɛda	-605
▁akyɛ	-606
▁mpae	-607
▁time	-608
▁wokɔ	-609
▁asɔre	-610
papa	-611
▁are	-612
▁ate	-613
▁mpɛ	-614
▁ɔpɛ	-615
daase	-616
▁adom	-617
▁mepɛ	-618
▁mmra	-619
▁rebɛ	-620
▁kyerɛsɛ	-621
▁it	-622
aseɛ	-623
▁ayi	-624
▁fri	-625
▁mmo	-626
▁ɔte	-627
▁ansa	-628
▁nneɛ	-629
▁saaa	-630
adwene	-631
▁efiri	-632
▁mpanin	-633
▁nkyerɛ	-634
▁ru	-635
▁asa	-636
▁ɛte	-637
▁aman	-638
▁girl	-639
ii	-640
ban	-641
the	-642
kasa	-643
kyɛw	-644
▁afa	-645
▁eno	-646
▁nok	-647
▁aden	-648
▁ɛhyɛ	-649
▁ɛnneɛ	-650
▁seisei	-651
es	-652
ks	-653
ng	-654
adi	-655
kaa	-656
sie	-657
gyae	-658
yira	-659
▁kɔɔ	-660
▁pue	-661
▁yɛɛ	-662
▁bibi	-663
▁biom	-664
▁ɛnna	-665
▁kakyerɛ	-666
▁medaase	-667
soɔ	-668
▁po	-669
▁dwa	-670
▁num	-671
kyire	-672
▁abro	-673
▁wopɛ	-674
▁ɔmmo	-675
▁ɛneɛ	-676
▁adwoa	-677
▁nanka	-678
▁ntoma	-679
▁abusua	-680
ur	-681
ine	-682
▁my	-683
▁nh	-684
merɛ	-685
▁mmɔ	-686
▁she	-687
▁yoo	-688
▁aboa	-689
▁akua	-690
▁wone	-691
▁menhu	-692
▁menkɔ	-693
li	-694
his	-695
sɛn	-696
▁ow	-697
duru	-698
▁twa	-699
▁yɛde	-700
▁madam	-701
ast	-702
▁bl	-703
▁ta	-704
▁ntɔ	-705
▁abre	-706
▁ware	-707
▁nkɔmɔ	-708
▁obiaa	-709
▁nokware	-710
▁mpaninfoɔ	-711
bra	-712
kɔɔ	-713
tie	-714
▁beb	-715
▁bre	-716
▁ɔye	-717
kyere	-718
▁hyia	-719
▁kama	-720
▁nkyɛ	-721
▁wonso	-722
▁nyankopɔn	-723
fɛ	-724
aso	-725
dol	-726
dwo	-727
hwe	-728
nea	-729
oro	-730
tia	-731
▁dɛ	-732
▁fu	-733
adam	-734
timi	-735
▁atɔ	-736
▁efi	-737
▁huu	-738
▁ken	-739
▁mer	-740
▁mmɛ	-741
▁san	-742
▁ɛma	-743
dwene	-744
▁mate	-745
▁this	-746
▁menso	-747
▁rudol	-748
▁nkwadaa	-749
id	-750
bisa	-751
ther	-752
▁ada	-753
▁aye	-754
▁sɛm	-755
▁wae	-756
▁woa	-757
▁ɔba	-758
▁ahyɛ	-759
▁mame	-760
▁bible	-761
▁menyɛ	-762
▁woara	-763
ɔm	-764
ber	-765
lla	-766
tua	-767
adeɛ	-768
inks	-769
kwan	-770
▁awo	-771
▁gol	-772
▁kru	-773
▁paw	-774
▁mentumi	-775
mmɛ	-776
sem	-777
yie	-778
▁ee	-779
▁in	-780
hyia	-781
kunu	-782
▁dua	-783
▁naa	-784
▁one	-785
▁mmaa	-786
adamfo	-787
▁afiri	-788
▁kurom	-789
▁mensa	-790
▁mienu	-791
▁wiase	-792
▁asaase	-793
▁blinks	-794
▁nyansa	-795
ght	-796
rma	-797
▁sp	-798
▁ɛd	-799
▁aku	-800
▁pro	-801
▁tua	-802
▁wie	-803
▁afia	-804
▁hene	-805
▁that	-806
▁whan	-807
▁kruom	-808
at	-809
abɔ	-810
bea	-811
rom	-812
sua	-813
▁ek	-814
ster	-815
yame	-816
▁nno	-817
▁nsi	-818
▁ɔbɔ	-819
▁ɛha	-820
▁awie	-821
▁efie	-822
▁woba	-823
▁ɛnam	-824
▁agorɔ	-825
▁dwene	-826
▁ketewa	-827
▁number	-828
▁th	-829
mfoɔ	-830
tion	-831
▁ban	-832
▁don	-833
▁foɔ	-834
▁nna	-835
▁nwo	-836
▁ɛka	-837
▁awia	-838
▁dabi	-839
▁herh	-840
▁mete	-841
▁nawo	-842
▁obaa	-843
▁efisɛ	-844
▁ghana	-845
▁menfa	-846
ld	-847
ly	-848
hia	-849
hye	-850
ina	-851
▁afu	-852
▁edi	-853
▁teɛ	-854
▁anyɛ	-855
▁asew	-856
▁kente	-857
▁menka	-858
▁menya	-859
▁suban	-860
▁meyere	-861
▁dabiara	-862
kɛ	-863
nim	-864
tan	-865
yeɛ	-866
▁amma	-867
▁hunu	-868
▁meho	-869
▁mehu	-870
▁pamo	-871
▁sɛbe	-872
wokyew	-873
▁golia	-874
▁kɛseɛ	-875
▁awareɛ	-876
▁abrokyire	-877
now	-878
usu	-879
▁bro	-880
▁hia	-881
▁mmi	-882
▁ple	-883
gyina	-884
waaba	-885
▁bɛyɛ	-886
▁ella	-887
▁know	-888
▁mayɛ	-889
▁wura	-890
▁mente	-891
▁mepaa	-892
▁adwene	-893
▁bebree	-894
▁please	-895
▁sister	-896
▁u	-897
tor	-898
ɔma	-899
▁le	-900
▁asɔ	-901
▁bon	-902
▁emo	-903
▁fam	-904
▁hye	-905
▁mea	-906
▁moa	-907
▁not	-908
▁ɔda	-909
▁ɔka	-910
anyin	-911
maame	-912
▁dodo	-913
▁kora	-914
▁what	-915
▁wowɔ	-916
agyimi	-917
▁kwame	-918
▁ntumi	-919
▁sɛdeɛ	-920
▁ɛbɛyɛ	-921
▁nneɛma	-922
nk	-923
err	-924
fuo	-925
kor	-926
trɛ	-927
tuo	-928
ust	-929
ansa	-930
▁ahu	-931
▁esi	-932
▁fɔm	-933
▁guy	-934
▁sum	-935
yifoɔ	-936
▁baeɛ	-937
▁didi	-938
▁kumi	-939
▁nhwɛ	-940
▁aduro	-941
▁sɛnea	-942
▁abosom	-943
▁ntɔkwa	-944
em	-945
po	-946
afa	-947
tee	-948
ɛyɛ	-949
▁faa	-950
kyena	-951
▁akye	-952
▁berɛ	-953
▁mebɛ	-954
▁ntɛm	-955
▁your	-956
▁yɛbɛ	-957
▁ɛnfa	-958
▁mempɛ	-959
▁wonsa	-960
▁wonua	-961
▁metumi	-962
▁nnoɔma	-963
▁tenase	-964
rr	-965
dan	-966
hom	-967
kuo	-968
▁lo	-969
agye	-970
sɔre	-971
▁abu	-972
▁awu	-973
▁hmm	-974
▁kan	-975
▁oni	-976
▁kyea	-977
▁mere	-978
▁onim	-979
▁wohu	-980
▁wɔhɔ	-981
▁ɛsɛsɛ	-982
▁amaneɛ	-983
▁akwaaba	-984
▁goliath	-985
▁wontumi	-986
ss	-987
sam	-988
▁ew	-989
kyɛn	-990
twɛn	-991
▁boy	-992
▁ebe	-993
▁noa	-994
▁odi	-995
▁ɔne	-996
▁abra	-997
▁abrɛ	-998
▁ante	-999
▁eerr	-1000
▁mewɔ	-1001
▁name	-1002
▁sore	-1003
▁sɛbi	-1004
▁wona	-1005
hwehwɛ	-1006
▁atena	-1007
▁berma	-1008
▁kyere	-1009
▁medeɛ	-1010
▁mogya	-1011
▁abotrɛ	-1012
ge	-1013
adu	-1014
pem	-1015
tus	-1016
▁pi	-1017
▁atu	-1018
▁egu	-1019
▁sen	-1020
▁sho	-1021
▁wɔn	-1022
▁yaw	-1023
▁abaa	-1024
▁ahwɛ	-1025
▁kyɛn	-1026
▁pena	-1027
▁twɛn	-1028
▁will	-1029
▁ɛyaa	-1030
▁baayɛ	-1031
▁bɔkɔɔ	-1032
▁ɛnkyɛ	-1033
▁ɛrekɔ	-1034
▁kɔmfoɔ	-1035
▁bayifoɔ	-1036
▁mepaakyɛw	-1037
▁mepawokyew	-1038
oh	-1039
ph	-1040
are	-1041
awu	-1042
bre	-1043
din	-1044
nom	-1045
nya	-1046
▁..	-1047
▁ɔd	-1048
mang	-1049
some	-1050
yare	-1051
▁afi	-1052
▁bia	-1053
▁bɔɔ	-1054
▁dam	-1055
▁han	-1056
▁kae	-1057
▁too	-1058
▁abɔn	-1059
▁mena	-1060
▁mmrɛ	-1061
▁nyaa	-1062
▁sure	-1063
▁twen	-1064
▁wobe	-1065
▁wofa	-1066
inatus	-1067
▁mpena	-1068
▁neama	-1069
▁paapa	-1070
▁yareɛ	-1071
▁kyerɛɛ	-1072
by	-1073
ww	-1074
ada	-1075
ent	-1076
fri	-1077
rst	-1078
rane	-1079
sɔfo	-1080
▁abe	-1081
▁bue	-1082
▁mee	-1083
▁ɛhɔ	-1084
▁ampa	-1085
▁dane	-1086
▁mire	-1087
▁wore	-1088
▁yare	-1089
▁ɔnfa	-1090
▁ɛnka	-1091
▁abran	-1092
▁mmerɛ	-1093
▁nkoaa	-1094
▁ɛkwan	-1095
▁mpaebɔ	-1096
▁onyame	-1097
▁ɔkyena	-1098
▁bebiree	-1099
▁bibiara	-1100
ab	-1101
pp	-1102
pɔ	-1103
tɛ	-1104
awo	-1105
nso	-1106
sen	-1107
tin	-1108
yam	-1109
ɛma	-1110
▁fe	-1111
▁wh	-1112
▁ɛh	-1113
blem	-1114
hool	-1115
▁nsɔ	-1116
▁pre	-1117
▁sre	-1118
adwen	-1119
▁mɛba	-1120
▁mɛkɔ	-1121
▁mɛyɛ	-1122
▁nkra	-1123
▁nnya	-1124
▁redi	-1125
▁soro	-1126
▁spen	-1127
▁waye	-1128
▁wobɔ	-1129
▁woni	-1130
▁yesu	-1131
▁ɛnni	-1132
▁adwen	-1133
▁dabɛn	-1134
▁eeeii	-1135
▁menni	-1136
▁womma	-1137
▁ɛhyɛn	-1138
▁mireku	-1139
▁ɔkyerɛ	-1140
▁abɔnten	-1141
▁mmarima	-1142
ita	-1143
mmɔ	-1144
ood	-1145
wra	-1146
amma	-1147
rink	-1148
▁anɔ	-1149
▁awɔ	-1150
▁bye	-1151
▁emu	-1152
▁kon	-1153
▁mia	-1154
▁sɛɛ	-1155
▁twi	-1156
▁yem	-1157
▁yɛa	-1158
ansah	-1159
atumi	-1160
panin	-1161
▁baby	-1162
▁medɔ	-1163
▁nkro	-1164
▁sesa	-1165
▁tesɛ	-1166
▁wodi	-1167
uansah	-1168
▁ababa	-1169
▁aware	-1170
▁mpaeɛ	-1171
▁nkasa	-1172
▁suman	-1173
▁abrabɔ	-1174
▁dabiaa	-1175
▁koraaa	-1176
▁mmienu	-1177
▁nkwase	-1178
▁rudolph	-1179
lo	-1180
dua	-1181
ini	-1182
one	-1183
pon	-1184
suo	-1185
wum	-1186
▁ɔm	-1187
▁ɛm	-1188
abrɛ	-1189
ante	-1190
hene	-1191
mmra	-1192
till	-1193
▁ana	-1194
▁baf	-1195
▁fre	-1196
▁hɛɛ	-1197
▁see	-1198
▁two	-1199
▁ɔha	-1200
▁ɛfa	-1201
▁ɛto	-1202
▁kofi	-1203
▁mama	-1204
▁meda	-1205
▁mema	-1206
▁ngye	-1207
▁tiri	-1208
▁yeah	-1209
▁year	-1210
▁ɛdeɛ	-1211
▁ɛdɛn	-1212
▁ahoma	-1213
▁bebia	-1214
▁dibrɛ	-1215
▁ntena	-1216
▁yɛnkɔ	-1217
▁anaasɛ	-1218
▁awadeɛ	-1219
▁ewiase	-1220
▁problem	-1221
ga	-1222
ati	-1223
atu	-1224
fty	-1225
iah	-1226
men	-1227
nti	-1228
twi	-1229
▁mɔ	-1230
berɛ	-1231
duro	-1232
sesa	-1233
wane	-1234
▁afe	-1235
▁app	-1236
▁asu	-1237
▁kri	-1238
▁ooh	-1239
▁sta	-1240
▁sua	-1241
▁wia	-1242
▁ɛbɔ	-1243
ɛɛfoɔ	-1244
▁atwa	-1245
▁babi	-1246
▁duru	-1247
▁kɔkɔ	-1248
▁last	-1249
▁meme	-1250
▁nwom	-1251
▁yɛse	-1252
▁ɔhyɛ	-1253
▁ɔnkɔ	-1254
▁akwra	-1255
▁anɔpa	-1256
▁baaye	-1257
▁bɛɛma	-1258
▁dwuma	-1259
▁gyena	-1260
▁mehwɛ	-1261
▁still	-1262
▁abofra	-1263
▁bosome	-1264
▁wokunu	-1265
▁akɔmfoɔ	-1266
▁penamang	-1267
nn	-1268
yɔ	-1269
ayi	-1270
bue	-1271
ery	-1272
faa	-1273
kro	-1274
pan	-1275
wei	-1276
yim	-1277
ɔso	-1278
▁nu	-1279
adwo	-1280
hyeɛ	-1281
pamo	-1282
▁afo	-1283
▁dwo	-1284
▁god	-1285
▁taa	-1286
ahunu	-1287
onyam	-1288
▁bedi	-1289
▁fine	-1290
▁good	-1291
▁gyaa	-1292
▁kɛkɛ	-1293
▁meso	-1294
▁mmom	-1295
▁paaa	-1296
▁sere	-1297
▁wora	-1298
▁emomu	-1299
▁gyimi	-1300
▁kafra	-1301
▁paara	-1302
▁ɛnniɛ	-1303
▁appiah	-1304
▁kwasia	-1305
▁kyerɛw	-1306
▁rudolf	-1307
▁wotumi	-1308
al	-1309
ade	-1310
kum	-1311
kuu	-1312
lly	-1313
oni	-1314
pre	-1315
pue	-1316
tii	-1317
▁al	-1318
▁pɔ	-1319
▁up	-1320
anyɛ	-1321
essi	-1322
fuor	-1323
sion	-1324
ting	-1325
tiri	-1326
▁ame	-1327
▁guu	-1328
▁how	-1329
▁nku	-1330
▁nsu	-1331
▁nta	-1332
▁som	-1333
▁tia	-1334
▁woo	-1335
▁ɛhe	-1336
astro	-1337
koraa	-1338
▁adwa	-1339
▁kura	-1340
▁lily	-1341
▁maba	-1342
▁medi	-1343
▁rebɔ	-1344
▁sɛme	-1345
▁than	-1346
▁yooo	-1347
▁ɛbaa	-1348
▁abena	-1349
▁akasa	-1350
▁first	-1351
▁meboa	-1352
▁menko	-1353
▁neɛma	-1354
▁nkyɛn	-1355
▁ababaa	-1356
▁abrefi	-1357
▁afrane	-1358
▁awiase	-1359
▁bonsam	-1360
▁kakraa	-1361
▁neɛmma	-1362
▁nhyira	-1363
▁baffuor	-1364
▁ɔdɛɛfoɔ	-1365
ana	-1366
dwe	-1367
ieɛ	-1368
▁ro	-1369
▁un	-1370
agya	-1371
ahwɛ	-1372
keka	-1373
pene	-1374
unim	-1375
urse	-1376
woro	-1377
yewa	-1378
▁any	-1379
▁boɔ	-1380
▁day	-1381
▁fee	-1382
▁kro	-1383
▁nfi	-1384
▁nwu	-1385
▁pen	-1386
▁wom	-1387
▁ɛmm	-1388
gyimi	-1389
kakra	-1390
▁adan	-1391
▁adwu	-1392
▁ahoɔ	-1393
▁ataa	-1394
▁bɛkɔ	-1395
▁dede	-1396
▁some	-1397
▁susu	-1398
▁tete	-1399
▁waba	-1400
▁want	-1401
▁wawo	-1402
▁ɛteɛ	-1403
yinsɛn	-1404
▁anopa	-1405
▁kyena	-1406
▁megye	-1407
▁nansa	-1408
▁wobaa	-1409
▁wonhu	-1410
▁ɔhene	-1411
▁ɛkɔso	-1412
▁anadwo	-1413
▁berima	-1414
▁hwehwɛ	-1415
▁menhwɛ	-1416
▁mother	-1417
▁nkoara	-1418
▁abranteɛ	-1419
▁mepakyew	-1420
▁nkwaseasɛm	-1421
dd	-1422
lk	-1423
lt	-1424
ut	-1425
and	-1426
llo	-1427
nwa	-1428
ome	-1429
tɔɔ	-1430
▁pe	-1431
akye	-1432
atɛm	-1433
awie	-1434
bɔne	-1435
pena	-1436
terɛ	-1437
tire	-1438
▁aaa	-1439
▁aah	-1440
▁age	-1441
▁awe	-1442
▁die	-1443
▁hei	-1444
▁kum	-1445
▁kɔn	-1446
▁mom	-1447
▁mrɛ	-1448
▁nda	-1449
▁pii	-1450
▁ten	-1451
▁waa	-1452
▁wor	-1453
▁ɔso	-1454
▁ɔwo	-1455
▁ɛho	-1456
aniso	-1457
kurom	-1458
▁ahen	-1459
▁anya	-1460
▁bɛfa	-1461
▁dada	-1462
▁feli	-1463
▁hwie	-1464
▁keka	-1465
▁kuma	-1466
▁makɔ	-1467
▁tell	-1468
▁werɛ	-1469
▁woso	-1470
▁yiee	-1471
▁ɔmma	-1472
woroma	-1473
▁drink	-1474
▁girls	-1475
▁konti	-1476
▁mefrɛ	-1477
▁memma	-1478
▁naano	-1479
▁ofiri	-1480
▁there	-1481
▁yenkɔ	-1482
▁young	-1483
▁ɔsɔfo	-1484
▁ɛreba	-1485
ateaseɛ	-1486
▁akosua	-1487
▁daakye	-1488
▁deɛbɛn	-1489
▁panyin	-1490
▁retwɛn	-1491
▁mentimi	-1492
dɛ	-1493
oa	-1494
wn	-1495
abu	-1496
aha	-1497
asi	-1498
ben	-1499
dwa	-1500
pɛɛ	-1501
sea	-1502
sto	-1503
way	-1504
wuo	-1505
yan	-1506
▁eh	-1507
▁ɔt	-1508
abra	-1509
ensa	-1510
kama	-1511
rebe	-1512
tene	-1513
ying	-1514
▁adɔ	-1515
▁amo	-1516
▁mɛn	-1517
▁nyi	-1518
▁obe	-1519
▁shi	-1520
▁sie	-1521
▁tan	-1522
▁was	-1523
▁wow	-1524
▁wuo	-1525
▁yɛm	-1526
▁ɔdi	-1527
▁ɛtɔ	-1528
adidi	-1529
▁afie	-1530
▁akɔm	-1531
▁ebia	-1532
▁etwa	-1533
▁life	-1534
▁mɛka	-1535
▁sane	-1536
▁tire	-1537
▁with	-1538
▁wobo	-1539
▁wowo	-1540
uonyam	-1541
▁basaa	-1542
▁ennyɛ	-1543
▁gifty	-1544
▁sukuu	-1545
▁yɛnka	-1546
▁bankye	-1547
▁kristo	-1548
▁nkunim	-1549
▁ɛkyerɛ	-1550
▁ababawa	-1551
▁aboterɛ	-1552
▁efirisɛ	-1553
▁ababaawa	-1554
ak	-1555
hɛ	-1556
ry	-1557
afe	-1558
asy	-1559
der	-1560
hoɔ	-1561
ley	-1562
mon	-1563
ney	-1564
ort	-1565
too	-1566
wee	-1567
ɔmo	-1568
▁ri	-1569
▁st	-1570
amɔn	-1571
anka	-1572
kete	-1573
ɔnko	-1574
▁agi	-1575
▁ahe	-1576
▁brɔ	-1577
▁dii	-1578
▁eii	-1579
▁fof	-1580
▁foo	-1581
▁haw	-1582
▁hon	-1583
▁koo	-1584
▁let	-1585
▁mmm	-1586
▁mua	-1587
▁nha	-1588
▁osi	-1589
▁sii	-1590
▁sin	-1591
▁tuo	-1592
▁wre	-1593
▁ɛsi	-1594
▁ɛso	-1595
awura	-1596
▁ahwe	-1597
▁bɛka	-1598
▁from	-1599
▁hyɛn	-1600
▁like	-1601
▁mɔbɔ	-1602
▁nfie	-1603
▁oooh	-1604
▁wayɛ	-1605
▁yɛyɛ	-1606
▁ɔden	-1607
▁ɔnyɛ	-1608
▁ɛnkɔ	-1609
▁ɛnoa	-1610
▁ɛnte	-1611
▁ɛsan	-1612
▁ɛyɛɛ	-1613
abɔdam	-1614
barima	-1615
▁akwan	-1616
▁anwum	-1617
▁daase	-1618
▁fufuo	-1619
▁hemaa	-1620
▁nyira	-1621
▁wanyɛ	-1622
▁wogye	-1623
▁wohwɛ	-1624
▁yɛnfa	-1625
▁adwubi	-1626
▁bɛtumi	-1627
▁pakyew	-1628
▁rekasa	-1629
▁woyere	-1630
▁papapapa	-1631
▁wobɛtumi	-1632
pi	-1633
ame	-1634
bia	-1635
bro	-1636
dɛn	-1637
eno	-1638
fom	-1639
fre	-1640
mpa	-1641
tom	-1642
ugh	-1643
unt	-1644
wia	-1645
ɛna	-1646
▁ok	-1647
▁or	-1648
afrɛ	-1649
ahwe	-1650
anfa	-1651
bobɔ	-1652
hwan	-1653
kura	-1654
mere	-1655
mhom	-1656
sane	-1657
▁ahh	-1658
▁apa	-1659
▁apo	-1660
▁ehu	-1661
▁huh	-1662
▁par	-1663
▁soa	-1664
▁sra	-1665
▁tea	-1666
▁tee	-1667
▁tɔn	-1668
▁way	-1669
▁whe	-1670
▁yii	-1671
daada	-1672
stoni	-1673
uadeɛ	-1674
wanwa	-1675
wɔtwe	-1676
▁abon	-1677
▁akor	-1678
▁asan	-1679
▁esan	-1680
▁fofo	-1681
▁here	-1682
▁korɔ	-1683
▁kyen	-1684
▁kɔfa	-1685
▁lati	-1686
▁mesi	-1687
▁metu	-1688
▁more	-1689
▁nano	-1690
▁neho	-1691
▁nhuu	-1692
▁nnam	-1693
▁nono	-1694
▁pono	-1695
▁tene	-1696
▁they	-1697
▁ɔman	-1698
▁ɔmmɛ	-1699
▁ɔmpɛ	-1700
manfoɔ	-1701
▁aduru	-1702
▁akura	-1703
▁hello	-1704
▁house	-1705
▁nensa	-1706
▁nkwan	-1707
▁nsɔre	-1708
▁pagya	-1709
▁sisie	-1710
▁wokaa	-1711
▁wonya	-1712
▁agyerɛ	-1713
▁anamɔn	-1714
▁betumi	-1715
▁bibiaa	-1716
▁dehyeɛ	-1717
▁homhom	-1718
▁mennim	-1719
▁mpaboa	-1720
▁tirimu	-1721
▁wofiri	-1722
▁wopapa	-1723
▁agyeman	-1724
▁kyeresɛ	-1725
▁menkoaa	-1726
▁mentena	-1727
▁nteaseɛ	-1728
▁pension	-1729
▁rehwehwɛ	-1730
gi	-1731
go	-1732
ir	-1733
apa	-1734
asɛ	-1735
atɔ	-1736
mmy	-1737
oli	-1738
ren	-1739
sre	-1740
toɔ	-1741
tɛm	-1742
umu	-1743
ɛwɔ	-1744
▁hɛ	-1745
▁if	-1746
▁nɛ	-1747
▁ph	-1748
ankɔ	-1749
asom	-1750
busa	-1751
didi	-1752
homa	-1753
hunu	-1754
kora	-1755
ning	-1756
pong	-1757
suro	-1758
ɔbaa	-1759
▁bag	-1760
▁bie	-1761
▁eei	-1762
▁hyi	-1763
▁mam	-1764
▁mre	-1765
▁nne	-1766
▁now	-1767
▁ooo	-1768
▁tho	-1769
▁toa	-1770
▁why	-1771
▁yes	-1772
▁ɔbe	-1773
▁ɔfa	-1774
▁ɛya	-1775
dding	-1776
dware	-1777
ghana	-1778
gyena	-1779
gyerɛ	-1780
korso	-1781
pɛɛpɛ	-1782
thing	-1783
▁aban	-1784
▁adua	-1785
▁amen	-1786
▁anom	-1787
▁basa	-1788
▁besi	-1789
▁bill	-1790
▁braa	-1791
▁down	-1792
▁easy	-1793
▁egya	-1794
▁kasɛ	-1795
▁line	-1796
▁make	-1797
▁mmre	-1798
▁mobɛ	-1799
▁mpem	-1800
▁nfrɛ	-1801
▁nkoa	-1802
▁nkrɔ	-1803
▁nsem	-1804
▁nsia	-1805
▁osei	-1806
▁sisi	-1807
▁soma	-1808
▁sɛwo	-1809
▁take	-1810
▁wabɛ	-1811
▁wada	-1812
▁wama	-1813
▁yɛno	-1814
▁ɛnti	-1815
abrabɔ	-1816
adwuma	-1817
hyehyɛ	-1818
▁akoma	-1819
▁ayare	-1820
▁eduru	-1821
▁fakyɛ	-1822
▁fitaa	-1823
▁gyerɛ	-1824
▁hɔnom	-1825
▁kɔkɔɔ	-1826
▁light	-1827
▁manim	-1828
▁mebaa	-1829
▁meeba	-1830
▁menpɛ	-1831
▁mɛsrɛ	-1832
▁nenka	-1833
▁nurse	-1834
▁party	-1835
▁phone	-1836
▁rehwɛ	-1837
▁tebea	-1838
▁tilly	-1839
▁woman	-1840
▁wonkɔ	-1841
▁wonte	-1842
▁yɛfrɛ	-1843
▁ɔhyɛn	-1844
▁abɔfra	-1845
▁akwamu	-1846
▁bebiaa	-1847
▁kyeame	-1848
▁nkwasi	-1849
▁wobɛkɔ	-1850
▁wokasa	-1851
▁brother	-1852
▁menkyɛn	-1853
▁nkrabea	-1854
▁nkrofoɔ	-1855
▁pɛpɛɛpɛ	-1856
▁wedding	-1857
▁kamakama	-1858
ed	-1859
ek	-1860
et	-1861
gn	-1862
hm	-1863
sh	-1864
ato	-1865
fii	-1866
naa	-1867
ruo	-1868
son	-1869
und	-1870
eiti	-1871
funu	-1872
fuom	-1873
hwie	-1874
kono	-1875
kuro	-1876
kyea	-1877
mmoa	-1878
ture	-1879
yire	-1880
▁all	-1881
▁bɛs	-1882
▁dre	-1883
▁edu	-1884
▁eni	-1885
▁fii	-1886
▁mra	-1887
▁nsɛ	-1888
▁oww	-1889
▁pae	-1890
▁soɔ	-1891
▁sto	-1892
▁wɔm	-1893
▁yei	-1894
▁yia	-1895
▁ɔbo	-1896
▁ɛko	-1897
▁ɛmo	-1898
aduru	-1899
akasa	-1900
asesa	-1901
atena	-1902
aware	-1903
baako	-1904
bɔdam	-1905
hanti	-1906
irika	-1907
rning	-1908
saana	-1909
▁ahye	-1910
▁ankɔ	-1911
▁asom	-1912
▁atwe	-1913
▁bere	-1914
▁borɔ	-1915
▁dinn	-1916
▁enni	-1917
▁frɛɛ	-1918
▁gyee	-1919
▁hmmm	-1920
▁kata	-1921
▁koko	-1922
▁kɔeɛ	-1923
▁kɔtɔ	-1924
▁kɛsɛ	-1925
▁mebɔ	-1926
▁mesɛ	-1927
▁milk	-1928
▁mmoa	-1929
▁mode	-1930
▁moyɛ	-1931
▁nasɛ	-1932
▁nsan	-1933
▁ntia	-1934
▁pɛsɛ	-1935
▁repɛ	-1936
▁serɛ	-1937
▁side	-1938
▁star	-1939
▁suro	-1940
▁wawu	-1941
▁wild	-1942
▁wosɛ	-1943
▁wɔyɛ	-1944
▁yɛkɔ	-1945
▁yɛte	-1946
▁ɔbɔɔ	-1947
▁ɔnim	-1948
buadeɛ	-1949
▁abɛfa	-1950
▁ahyia	-1951
▁asukɔ	-1952
▁atumi	-1953
▁bosom	-1954
▁broni	-1955
▁dɔɔso	-1956
▁ewura	-1957
▁fofro	-1958
▁honam	-1959
▁kɔmfo	-1960
▁kɔpem	-1961
▁menye	-1962
▁monfa	-1963
▁monim	-1964
▁mummy	-1965
▁noara	-1966
▁nsoso	-1967
▁right	-1968
▁sisia	-1969
▁sɛneɛ	-1970
▁tease	-1971
▁thank	-1972
▁twerɛ	-1973
▁wanim	-1974
▁wonyɛ	-1975
▁years	-1976
▁yiara	-1977
▁yɛnso	-1978
▁ɔmmra	-1979
▁ɛberɛ	-1980
▁abrewa	-1981
▁abufuo	-1982
▁afutuo	-1983
▁agyina	-1984
▁kumasi	-1985
▁latino	-1986
▁maadwo	-1987
▁maakuo	-1988
▁megyae	-1989
▁mekunu	-1990
▁opanin	-1991
▁wanwan	-1992
▁ɛkorso	-1993
▁ɛtesɛn	-1994
▁ashanti	-1995
▁nkrɔfoɔ	-1996
▁nyinsɛn	-1997
▁wobɛgye	-1998
▁womaame	-1999
▁gyimifoɔ	-2000
▁abosomfoɔ	-2001
dy	-2002
el	-2003
ep	-2004
mp	-2005
mɛ	-2006
afu	-2007
apɔ	-2008
ata	-2009
end	-2010
ful	-2011
gua	-2012
kya	-2013
nka	-2014
nkɔ	-2015
obi	-2016
ohm	-2017
omu	-2018
our	-2019
pra	-2020
pri	-2021
rio	-2022
rry	-2023
shi	-2024
toa	-2025
uro	-2026
wom	-2027
won	-2028
yii	-2029
▁ay	-2030
▁er	-2031
▁ra	-2032
▁wɛ	-2033
▁yɔ	-2034
▁ɛt	-2035
adom	-2036
ahyɛ	-2037
anum	-2038
asan	-2039
atwa	-2040
dwoe	-2041
eɛma	-2042
king	-2043
korɔ	-2044
onso	-2045
pepe	-2046
roma	-2047
sana	-2048
tare	-2049
ueen	-2050
ways	-2051
wder	-2052
werɛ	-2053
ɔneɛ	-2054
▁aga	-2055
▁did	-2056
▁ebu	-2057
▁ede	-2058
▁fas	-2059
▁gyi	-2060
▁its	-2061
▁mfa	-2062
▁min	-2063
▁naw	-2064
▁nfu	-2065
▁ngu	-2066
▁ntu	-2067
▁pra	-2068
▁pɛn	-2069
▁sur	-2070
▁sɔɔ	-2071
▁ɛwo	-2072
anhwɛ	-2073
fofoɔ	-2074
frama	-2075
hyira	-2076
intin	-2077
sabea	-2078
todwe	-2079
wareɛ	-2080
yiamu	-2081
▁afri	-2082
▁afrɛ	-2083
▁agoo	-2084
▁akoa	-2085
▁bɛba	-2086
▁bɛdi	-2087
▁bɛto	-2088
▁deda	-2089
▁duro	-2090
▁hyɛɛ	-2091
▁maka	-2092
▁mebo	-2093
▁meni	-2094
▁nhia	-2095
▁noma	-2096
▁ntie	-2097
▁rema	-2098
▁retu	-2099
▁stop	-2100
▁waka	-2101
▁wɔha	-2102
▁yɛka	-2103
▁ɔhwɛ	-2104
▁ɔnni	-2105
▁ɔnoa	-2106
▁ɛmaa	-2107
▁ɛnha	-2108
▁ɛnne	-2109
▁ɛnso	-2110
antumi	-2111
▁after	-2112
▁akokɔ	-2113
▁akuku	-2114
▁akyɛw	-2115
▁aseda	-2116
▁asoma	-2117
▁bayie	-2118
▁bɔdam	-2119
▁dware	-2120
▁gyesɛ	-2121
▁hweee	-2122
▁kaasɛ	-2123
▁kwaku	-2124
▁manka	-2125
▁mefie	-2126
▁memfa	-2127
▁momma	-2128
▁monyɛ	-2129
▁nasem	-2130
▁nfiri	-2131
▁nkron	-2132
▁npene	-2133
▁owura	-2134
▁twene	-2135
▁where	-2136
▁wonka	-2137
▁yɛɛka	-2138
▁ɔbɛba	-2139
▁ɔnnyɛ	-2140
▁ɛbɛba	-2141
▁ɛfiri	-2142
▁ɛmmrɛ	-2143
ahwehwɛ	-2144
bibiara	-2145
▁adɛnna	-2146
▁anidie	-2147
▁anigye	-2148
▁antumi	-2149
▁asɔfoɔ	-2150
▁bɛtena	-2151
▁edikan	-2152
▁honhom	-2153
▁hyehyɛ	-2154
▁krakye	-2155
▁mepɛsɛ	-2156
▁powder	-2157
▁rebisa	-2158
▁teaseɛ	-2159
▁wonnim	-2160
▁abɛtena	-2161
▁adwaman	-2162
▁animgua	-2163
▁ansaana	-2164
▁borɔdeɛ	-2165
▁dadaada	-2166
▁fasting	-2167
▁kakyere	-2168
▁madwene	-2169
▁medwene	-2170
▁wantumi	-2171
▁wogyina	-2172
▁ɛrekɔso	-2173
adaworoma	-2174
▁abaayewa	-2175
▁animuonyam	-2176
▁ayaresabea	-2177
af	-2178
aw	-2179
lu	-2180
rd	-2181
sp	-2182
buo	-2183
edi	-2184
eka	-2185
huu	-2186
ies	-2187
ink	-2188
int	-2189
krɔ	-2190
mer	-2191
mia	-2192
nie	-2193
pie	-2194
pɛn	-2195
www	-2196
ɛnɛ	-2197
▁mr	-2198
▁od	-2199
▁pu	-2200
▁ɔp	-2201
anso	-2202
anye	-2203
asem	-2204
basa	-2205
bedi	-2206
biri	-2207
dane	-2208
dwen	-2209
enam	-2210
esus	-2211
ital	-2212
kopɛ	-2213
korɛ	-2214
kran	-2215
kyen	-2216
port	-2217
rmal	-2218
seia	-2219
side	-2220
yini	-2221
ɛnyɛ	-2222
▁bɔn	-2223
▁dɛm	-2224
▁fom	-2225
▁fon	-2226
▁get	-2227
▁gra	-2228
▁haa	-2229
▁mmu	-2230
▁nfo	-2231
▁out	-2232
▁pam	-2233
▁pem	-2234
▁prɛ	-2235
▁ren	-2236
▁sle	-2237
▁tom	-2238
▁uhm	-2239
▁wen	-2240
▁woɔ	-2241
▁yea	-2242
▁ɔko	-2243
▁ɛbe	-2244
▁ɛdi	-2245
▁ɛni	-2246
afere	-2247
agyae	-2248
daabi	-2249
haley	-2250
hemaa	-2251
nyame	-2252
omfoɔ	-2253
rebee	-2254
rious	-2255
tinka	-2256
yanko	-2257
ɔnfoɔ	-2258
▁adam	-2259
▁ahin	-2260
▁anan	-2261
▁atɛm	-2262
▁awoɔ	-2263
▁ayie	-2264
▁baye	-2265
▁been	-2266
▁boys	-2267
▁busa	-2268
▁ehia	-2269
▁enfa	-2270
▁ensi	-2271
▁four	-2272
▁funu	-2273
▁fɛre	-2274
▁hold	-2275
▁hosp	-2276
▁krom	-2277
▁mapa	-2278
▁masa	-2279
▁mawo	-2280
▁mefa	-2281
▁mɛbɔ	-2282
▁nayɛ	-2283
▁nhyɛ	-2284
▁nome	-2285
▁nson	-2286
▁okri	-2287
▁owuo	-2288
▁poli	-2289
▁poma	-2290
▁refa	-2291
▁shia	-2292
▁swee	-2293
▁week	-2294
▁when	-2295
▁wife	-2296
▁woda	-2297
▁wɔhe	-2298
▁wɔkɔ	-2299
▁yiaa	-2300
▁ɔkaa	-2301
▁ɛdan	-2302
▁ɛden	-2303
▁ɛkaa	-2304
▁ɛmmɛ	-2305
▁ɛnno	-2306
▁ɛnsɛ	-2307
abusua	-2308
ankasa	-2309
awareɛ	-2310
raasen	-2311
▁abɛto	-2312
▁adane	-2313
▁adɔyɛ	-2314
▁asafo	-2315
▁asesa	-2316
▁awɔse	-2317
▁bibia	-2318
▁ebesi	-2319
▁enniɛ	-2320
▁etumi	-2321
▁feeli	-2322
▁going	-2323
▁hyiaa	-2324
▁kumaa	-2325
▁menie	-2326
▁metua	-2327
▁month	-2328
▁nante	-2329
▁nenam	-2330
▁nnyae	-2331
▁ntobo	-2332
▁nyina	-2333
▁otumi	-2334
▁refrɛ	-2335
▁regye	-2336
▁saana	-2337
▁sekan	-2338
▁three	-2339
▁tiawa	-2340
▁wakyi	-2341
▁wanya	-2342
▁wohyɛ	-2343
▁wonfa	-2344
▁wotwe	-2345
▁wɔfie	-2346
▁ɛreka	-2347
animfoɔ	-2348
▁abɔten	-2349
▁ahoɔfɛ	-2350
▁always	-2351
▁denden	-2352
▁eeeiii	-2353
▁firisɛ	-2354
▁foforɔ	-2355
▁kankan	-2356
▁mengye	-2357
▁metimi	-2358
▁mewura	-2359
▁mframa	-2360
▁miensa	-2361
▁mirika	-2362
▁mɛtumi	-2363
▁nkonwa	-2364
▁nkɔmmɔ	-2365
▁normal	-2366
▁nsɔhwɛ	-2367
▁seseia	-2368
▁tenten	-2369
▁ɛneama	-2370
▁ɛnkasa	-2371
▁ɛnoara	-2372
kyekyere	-2373
▁abonten	-2374
▁abotare	-2375
▁ahenfie	-2376
▁amanfoɔ	-2377
▁ankyerɛ	-2378
▁ketewaa	-2379
▁kyerɛwo	-2380
▁serious	-2381
krankakra	-2382
▁hospital	-2383
▁ketekete	-2384
▁kuraasen	-2385
▁kyekyere	-2386
▁ɔkakyerɛ	-2387
▁kyerɛwsɛm	-2388
▁animguaseɛ	-2389
▁nkwasiasɛm	-2390
ap	-2391
lɛ	-2392
rt	-2393
ady	-2394
alm	-2395
apɛ	-2396
art	-2397
bio	-2398
day	-2399
har	-2400
ist	-2401
ker	-2402
mfo	-2403
mrɛ	-2404
oma	-2405
ong	-2406
ron	-2407
sum	-2408
sɛɛ	-2409
ted	-2410
tre	-2411
tɔn	-2412
ult	-2413
wae	-2414
wre	-2415
wrɛ	-2416
yɛn	-2417
ɔbɛ	-2418
ɔno	-2419
ɔse	-2420
ɛbɛ	-2421
ɛka	-2422
ɛno	-2423
▁by	-2424
▁ki	-2425
▁ɛɛ	-2426
anhu	-2427
areɛ	-2428
ataa	-2429
ater	-2430
biaa	-2431
dent	-2432
enti	-2433
esse	-2434
gyeɛ	-2435
harl	-2436
hild	-2437
ings	-2438
kuta	-2439
mmrɛ	-2440
neyɛ	-2441
ount	-2442
pany	-2443
ream	-2444
rite	-2445
sena	-2446
siaa	-2447
sɛbi	-2448
unds	-2449
wase	-2450
ɛnsa	-2451
ɛɛlɛ	-2452
▁...	-2453
▁ago	-2454
▁ape	-2455
▁ati	-2456
▁aun	-2457
▁bea	-2458
▁bel	-2459
▁bir	-2460
▁eee	-2461
▁ete	-2462
▁eyi	-2463
▁kab	-2464
▁kim	-2465
▁nde	-2466
▁nse	-2467
▁obɛ	-2468
▁ohu	-2469
▁pan	-2470
▁pie	-2471
▁pri	-2472
▁seɛ	-2473
▁sha	-2474
▁sɛw	-2475
▁tɔɔ	-2476
▁ɔma	-2477
▁ɔpa	-2478
▁ɔsɛ	-2479
▁ɛse	-2480
abati	-2481
akɔfa	-2482
apamo	-2483
danfo	-2484
derst	-2485
etumi	-2486
faase	-2487
kyera	-2488
ontom	-2489
pping	-2490
prise	-2491
sofoɔ	-2492
usand	-2493
▁adaa	-2494
▁aduo	-2495
▁adwe	-2496
▁anfa	-2497
▁apue	-2498
▁awre	-2499
▁bɛda	-2500
▁bɛte	-2501
▁dwen	-2502
▁dwom	-2503
▁eiii	-2504
▁emom	-2505
▁enka	-2506
▁enyɛ	-2507
▁gate	-2508
▁hand	-2509
▁kosi	-2510
▁kruo	-2511
▁kwae	-2512
▁kyin	-2513
▁mane	-2514
▁mani	-2515
▁maye	-2516
▁mfie	-2517
▁mmua	-2518
▁moka	-2519
▁mokɔ	-2520
▁nani	-2521
▁need	-2522
▁nfaa	-2523
▁nkye	-2524
▁nnye	-2525
▁nona	-2526
▁noyɛ	-2527
▁ntem	-2528
▁ntro	-2529
▁obia	-2530
▁odii	-2531
▁onya	-2532
▁resu	-2533
▁shop	-2534
▁sini	-2535
▁stay	-2536
▁thro	-2537
▁tutu	-2538
▁wafa	-2539
▁waha	-2540
▁wani	-2541
▁wɔde	-2542
▁wɔse	-2543
▁yɛda	-2544
▁yɛwɔ	-2545
▁ɔhye	-2546
▁ɔmmu	-2547
▁ɔtaa	-2548
▁ɔtwe	-2549
▁ɛkɔm	-2550
aduwaa	-2551
akyire	-2552
harlie	-2553
lation	-2554
ompany	-2555
ranteɛ	-2556
theart	-2557
▁abɛbɔ	-2558
▁abɛka	-2559
▁adaka	-2560
▁adeɛn	-2561
▁adidi	-2562
▁agyae	-2563
▁akɔfa	-2564
▁annyɛ	-2565
▁asala	-2566
▁asɔfo	-2567
▁atutu	-2568
▁brɔfo	-2569
▁busua	-2570
▁dodoɔ	-2571
▁ekura	-2572
▁gramo	-2573
▁gyama	-2574
▁hanom	-2575
▁honey	-2576
▁medie	-2577
▁memmɛ	-2578
▁menin	-2579
▁menoa	-2580
▁menti	-2581
▁mmere	-2582
▁mmɔbɔ	-2583
▁money	-2584
▁monkɔ	-2585
▁mɛhwɛ	-2586
▁nenkɔ	-2587
▁nisuo	-2588
▁nware	-2589
▁nwura	-2590
▁onipa	-2591
▁point	-2592
▁ready	-2593
▁rebrɛ	-2594
▁saara	-2595
▁sleep	-2596
▁somaa	-2597
▁sɛmpa	-2598
▁think	-2599
▁wasem	-2600
▁whana	-2601
▁wodin	-2602
▁wonko	-2603
▁wotee	-2604
▁yieee	-2605
▁yɛden	-2606
▁yɛnyɛ	-2607
▁ɔreka	-2608
▁ɔsoro	-2609
▁ɔyare	-2610
▁ɛfuom	-2611
▁ɛndeɛ	-2612
▁ɛnwom	-2613
▁ɛtwen	-2614
awurade	-2615
▁abɔsoɔ	-2616
▁aduasa	-2617
▁akuraa	-2618
▁anibre	-2619
▁ansana	-2620
▁atareɛ	-2621
▁atinka	-2622
▁awieyɛ	-2623
▁bermah	-2624
▁dɔkono	-2625
▁inside	-2626
▁kraman	-2627
▁mennyɛ	-2628
▁mensɛm	-2629
▁mepawo	-2630
▁mereka	-2631
▁rebɛdi	-2632
▁saying	-2633
▁siesie	-2634
▁wobehu	-2635
▁wobɛte	-2636
▁wopɛsɛ	-2637
▁ɔnonso	-2638
▁ɔtɛɛlɛ	-2639
derstand	-2640
wanwasɛm	-2641
▁adanseɛ	-2642
▁ahoɔden	-2643
▁ahyɛnso	-2644
▁asetena	-2645
▁babiara	-2646
▁kuromha	-2647
▁megyedi	-2648
▁mekyerɛ	-2649
▁ntontom	-2650
▁wabɔdam	-2651
▁warning	-2652
▁yarefoɔ	-2653
▁ɛdeɛbɛn	-2654
▁abrantie	-2655
▁akwahyia	-2656
▁baabiara	-2657
▁boaduwaa	-2658
▁ghanafoɔ	-2659
▁naawɔtwe	-2660
▁shopping	-2661
▁surprise	-2662
▁thousand	-2663
▁yɛnyinaa	-2664
▁ɔrekyerɛ	-2665
▁akorɔnfoɔ	-2666
▁akukuduro	-2667
▁anwummerɛ	-2668
▁kuraaseni	-2669
▁okristoni	-2670
▁wonbuadeɛ	-2671
▁sweetheart	-2672
▁understand	-2673
lf	-2674
ms	-2675
nɛ	-2676
boo	-2677
dea	-2678
dom	-2679
dra	-2680
fee	-2681
fɛɛ	-2682
ham	-2683
hut	-2684
imu	-2685
ket	-2686
lan	-2687
mpo	-2688
ook	-2689
pae	-2690
ram	-2691
red	-2692
see	-2693
swe	-2694
sɔɔ	-2695
tle	-2696
uld	-2697
urs	-2698
woo	-2699
wor	-2700
ɛfo	-2701
▁ed	-2702
▁es	-2703
▁et	-2704
▁la	-2705
▁op	-2706
▁sh	-2707
adɛn	-2708
agor	-2709
aman	-2710
anaa	-2711
ayie	-2712
bena	-2713
boro	-2714
gorɔ	-2715
haha	-2716
hawo	-2717
illa	-2718
koma	-2719
koro	-2720
mete	-2721
ruwa	-2722
sani	-2723
sore	-2724
wire	-2725
wiri	-2726
▁abi	-2727
▁beg	-2728
▁bem	-2729
▁ben	-2730
▁bor	-2731
▁bus	-2732
▁dom	-2733
▁dum	-2734
▁dun	-2735
▁esu	-2736
▁ewɔ	-2737
▁hoɔ	-2738
▁hɔa	-2739
▁ndi	-2740
▁nii	-2741
▁non	-2742
▁nwa	-2743
▁owu	-2744
▁pun	-2745
▁rea	-2746
▁say	-2747
▁stu	-2748
▁tuu	-2749
▁use	-2750
▁who	-2751
▁yam	-2752
▁yee	-2753
▁ɔni	-2754
▁ɔyɔ	-2755
▁ɛpo	-2756
abisa	-2757
ahyia	-2758
drink	-2759
ident	-2760
lomon	-2761
mesrɛ	-2762
moden	-2763
sefoɔ	-2764
sesei	-2765
sifoɔ	-2766
ssing	-2767
tɔkwa	-2768
wodeɛ	-2769
yehyɛ	-2770
▁abrɔ	-2771
▁adea	-2772
▁ahon	-2773
▁akum	-2774
▁anha	-2775
▁ansi	-2776
▁anto	-2777
▁apem	-2778
▁asie	-2779
▁atua	-2780
▁atwi	-2781
▁baba	-2782
▁behu	-2783
▁biem	-2784
▁body	-2785
▁bɛtɔ	-2786
▁daeɛ	-2787
▁days	-2788
▁dire	-2789
▁enso	-2790
▁ewia	-2791
▁happ	-2792
▁hwɛɛ	-2793
▁kane	-2794
▁kita	-2795
▁kraa	-2796
▁lets	-2797
▁mahu	-2798
▁mbra	-2799
▁mebu	-2800
▁mesa	-2801
▁mmue	-2802
▁modi	-2803
▁mono	-2804
▁mpre	-2805
▁mɛfa	-2806
▁mɛpɛ	-2807
▁neme	-2808
▁newo	-2809
▁nkɔm	-2810
▁nnom	-2811
▁nowo	-2812
▁ntwa	-2813
▁nyae	-2814
▁ohia	-2815
▁onni	-2816
▁otwa	-2817
▁pina	-2818
▁rede	-2819
▁resi	-2820
▁rete	-2821
▁shit	-2822
▁show	-2823
▁shut	-2824
▁sima	-2825
▁talk	-2826
▁tare	-2827
▁tetɛ	-2828
▁then	-2829
▁wabu	-2830
▁wakɔ	-2831
▁wato	-2832
▁wayi	-2833
▁wehe	-2834
▁were	-2835
▁wobu	-2836
▁womu	-2837
▁work	-2838
▁worɔ	-2839
▁woti	-2840
▁wotu	-2841
▁wɔwɔ	-2842
▁yamu	-2843
▁yera	-2844
▁yɛeɛ	-2845
▁yɛne	-2846
▁ɔmoa	-2847
▁ɔnya	-2848
▁ɔsan	-2849
▁ɔsom	-2850
▁ɛhwɛ	-2851
▁ɛhye	-2852
▁ɛkyɛ	-2853
▁ɛmme	-2854
▁ɛnya	-2855
akyerɛ	-2856
amaneɛ	-2857
areful	-2858
asefoɔ	-2859
fomsoɔ	-2860
harley	-2861
krofoɔ	-2862
tenase	-2863
▁aanye	-2864
▁afira	-2865
▁afono	-2866
▁agoro	-2867
▁ahunu	-2868
▁akata	-2869
▁akɔdi	-2870
▁amass	-2871
▁anhwɛ	-2872
▁anyaa	-2873
▁asofo	-2874
▁awerɛ	-2875
▁belie	-2876
▁bills	-2877
▁birth	-2878
▁bɛgye	-2879
▁bɛhwɛ	-2880
▁dwane	-2881
▁eduro	-2882
▁fieha	-2883
▁fifty	-2884
▁firii	-2885
▁fɛfɛɛ	-2886
▁hwene	-2887
▁hyira	-2888
▁kabum	-2889
▁makyi	-2890
▁mamen	-2891
▁mante	-2892
▁manya	-2893
▁medin	-2894
▁mehyɛ	-2895
▁mekɔɔ	-2896
▁menda	-2897
▁menma	-2898
▁menwu	-2899
▁meyɛɛ	-2900
▁monka	-2901
▁muayɛ	-2902
▁nanim	-2903
▁nkɔso	-2904
▁ntina	-2905
▁ntorɔ	-2906
▁ntwɛn	-2907
▁nyane	-2908
▁oooww	-2909
▁payin	-2910
▁rekum	-2911
▁sesie	-2912
▁tagor	-2913
▁wanfa	-2914
▁water	-2915
▁watia	-2916
▁woboa	-2917
▁wodea	-2918
▁wofrɛ	-2919
▁wohia	-2920
▁wohuu	-2921
▁wokyɛ	-2922
▁wokɔɔ	-2923
▁wonan	-2924
▁yadeɛ	-2925
▁yenfa	-2926
▁yɛama	-2927
▁yɛbaa	-2928
▁yɛnho	-2929
▁yɛɛyɛ	-2930
▁ɔpepe	-2931
▁ɔppɔn	-2932
▁ɔreyɛ	-2933
▁ɔtumi	-2934
▁ɔyere	-2935
▁ɛnoaa	-2936
▁ɛyɛme	-2937
intinto	-2938
▁abɛɛfo	-2939
▁agyimi	-2940
▁ahaban	-2941
▁akonya	-2942
▁akyere	-2943
▁amamrɛ	-2944
▁anante	-2945
▁ankame	-2946
▁ashawo	-2947
▁atwene	-2948
▁bremen	-2949
▁bɛkasa	-2950
▁bɛsene	-2951
▁father	-2952
▁komfoɔ	-2953
▁kuromu	-2954
▁mebɔne	-2955
▁mebɛdi	-2956
▁mekasa	-2957
▁menhuu	-2958
▁mennya	-2959
▁mentwa	-2960
▁menyae	-2961
▁mesɔre	-2962
▁metwɛn	-2963
▁months	-2964
▁nansei	-2965
▁neyere	-2966
▁nfasoɔ	-2967
▁nimdeɛ	-2968
▁nkakra	-2969
▁nokorɛ	-2970
▁nsakra	-2971
▁nwanwa	-2972
▁report	-2973
▁rounds	-2974
▁sandra	-2975
▁tantan	-2976
▁twenty	-2977
▁twitwa	-2978
▁waniso	-2979
▁weideɛ	-2980
▁wobɛfa	-2981
▁wobɛyɛ	-2982
▁wosɔre	-2983
▁yefunu	-2984
▁ɔmaame	-2985
▁ɛkyena	-2986
▁ɛsansɛ	-2987
paninfoɔ	-2988
yankopɔn	-2989
ɔnkogorɔ	-2990
▁abeduru	-2991
▁akontaa	-2992
▁akurase	-2993
▁akyerɛw	-2994
▁asukɔno	-2995
▁atutura	-2996
▁bɔmoden	-2997
▁kakraka	-2998
▁madanfo	-2999
▁mɛkyerɛ	-3000
▁nhyiamu	-3001
▁nkwasea	-3002
▁nkwasia	-3003
▁sakyera	-3004
▁solomon	-3005
▁wadwene	-3006
▁yɛntumi	-3007
▁ɔbaatan	-3008
▁ɔbɛsesa	-3009
▁ɔkomfoɔ	-3010
▁ababawaa	-3011
▁ahomakye	-3012
▁anything	-3013
▁asomdwoe	-3014
▁basabasa	-3015
▁dressing	-3016
▁kristoni	-3017
▁medawase	-3018
▁mentease	-3019
▁nkotodwe	-3020
▁sleeping	-3021
▁tenetene	-3022
▁tintinto	-3023
▁wadaroma	-3024
▁abusuafoɔ	-3025
▁dendenden	-3026
▁nnamfofoɔ	-3027
▁ntoboaseɛ	-3028
▁anwanwasɛm	-3029
dm	-3030
hh	-3031
hw	-3032
il	-3033
nd	-3034
rs	-3035
uu	-3036
abe	-3037
age	-3038
ago	-3039
aho	-3040
all	-3041
anu	-3042
asɔ	-3043
bag	-3044
bon	-3045
boɔ	-3046
brɔ	-3047
bɔɔ	-3048
ddy	-3049
fam	-3050
fan	-3051
fɔm	-3052
get	-3053
gyi	-3054
hmm	-3055
ibi	-3056
ire	-3057
kae	-3058
ken	-3059
las	-3060
lli	-3061
moa	-3062
ond	-3063
onu	-3064
pen	-3065
pro	-3066
ses	-3067
ssa	-3068
tem	-3069
weɛ	-3070
whɛ	-3071
ybe	-3072
yɛɛ	-3073
ɔdɔ	-3074
ɛre	-3075
▁fɔ	-3076
▁ga	-3077
▁gy	-3078
▁im	-3079
▁ly	-3080
▁tɛ	-3081
▁uk	-3082
▁us	-3083
▁ɔg	-3084
abaa	-3085
abro	-3086
abrɔ	-3087
afia	-3088
afom	-3089
akra	-3090
aste	-3091
asua	-3092
bɛto	-3093
dmum	-3094
enka	-3095
fini	-3096
guso	-3097
hine	-3098
hwee	-3099
iwaa	-3100
kraa	-3101
kumi	-3102
kyie	-3103
mekɔ	-3104
noon	-3105
onko	-3106
pɛsɛ	-3107
rael	-3108
ring	-3109
room	-3110
self	-3111
ship	-3112
sisi	-3113
tely	-3114
teng	-3115
toto	-3116
ttle	-3117
uros	-3118
usuu	-3119
wife	-3120
worɔ	-3121
ɛyaa	-3122
▁ado	-3123
▁afɔ	-3124
▁aky	-3125
▁amm	-3126
▁apɔ	-3127
▁ata	-3128
▁aya	-3129
▁bed	-3130
▁bom	-3131
▁dee	-3132
▁dif	-3133
▁dɔm	-3134
▁enn	-3135
▁err	-3136
▁eti	-3137
▁ewu	-3138
▁gyɛ	-3139
▁hai	-3140
▁has	-3141
▁hwa	-3142
▁hwi	-3143
▁kin	-3144
▁krɔ	-3145
▁kuu	-3146
▁kyi	-3147
▁lad	-3148
▁lea	-3149
▁lor	-3150
▁lot	-3151
▁mar	-3152
▁mme	-3153
▁muk	-3154
▁nae	-3155
▁new	-3156
▁noɔ	-3157
▁nye	-3158
▁oso	-3159
▁pim	-3160
▁pɔn	-3161
▁res	-3162
▁spe	-3163
▁tum	-3164
▁whi	-3165
▁woy	-3166
▁wrɛ	-3167
▁wun	-3168
▁wuu	-3169
▁ɔfɛ	-3170
▁ɔhu	-3171
▁ɔya	-3172
▁ɛdɛ	-3173
▁ɛfɛ	-3174
▁ɛyi	-3175
abobɔ	-3176
afiri	-3177
asene	-3178
depɔn	-3179
gware	-3180
gyere	-3181
gyire	-3182
hange	-3183
ision	-3184
kaben	-3185
kɛseɛ	-3186
mpaso	-3187
nanso	-3188
ndred	-3189
neɛma	-3190
olour	-3191
onsor	-3192
paapa	-3193
ranee	-3194
range	-3195
riker	-3196
rying	-3197
tenaa	-3198
tidua	-3199
untum	-3200
wieyɛ	-3201
wkyɛw	-3202
ɛdeɛn	-3203
▁aaah	-3204
▁abia	-3205
▁abue	-3206
▁agua	-3207
▁ahaa	-3208
▁ahia	-3209
▁ahya	-3210
▁akɔn	-3211
▁ammɛ	-3212
▁ania	-3213
▁anni	-3214
▁anyi	-3215
▁area	-3216
▁asei	-3217
▁atum	-3218
▁bank	-3219
▁bebe	-3220
▁born	-3221
▁bɔmɔ	-3222
▁bɔtɔ	-3223
▁bɛbɔ	-3224
▁bɛso	-3225
▁bɛye	-3226
▁dekɛ	-3227
▁deɛa	-3228
▁dwam	-3229
▁endi	-3230
▁etuo	-3231
▁fano	-3232
▁fast	-3233
▁fata	-3234
▁fufu	-3235
▁ghan	-3236
▁gold	-3237
▁gran	-3238
▁gyei	-3239
▁gyim	-3240
▁hard	-3241
▁huri	-3242
▁kaeɛ	-3243
▁kame	-3244
▁kudi	-3245
▁kyem	-3246
▁kyew	-3247
▁kɔsi	-3248
▁kɔso	-3249
▁look	-3250
▁many	-3251
▁mase	-3252
▁mean	-3253
▁meye	-3254
▁meyi	-3255
▁mieɛ	-3256
▁mmmm	-3257
▁moma	-3258
▁mpan	-3259
▁mpoa	-3260
▁mpue	-3261
▁mpɔn	-3262
▁mumu	-3263
▁musi	-3264
▁neno	-3265
▁nine	-3266
▁niso	-3267
▁nnaa	-3268
▁ntaa	-3269
▁ntam	-3270
▁nten	-3271
▁nufu	-3272
▁nwie	-3273
▁nyim	-3274
▁nyin	-3275
▁obuo	-3276
▁offi	-3277
▁otua	-3278
▁pawo	-3279
▁plan	-3280
▁room	-3281
▁sene	-3282
▁sign	-3283
▁sokɔ	-3284
▁soso	-3285
▁toto	-3286
▁wata	-3287
▁wehu	-3288
▁went	-3289
▁wofo	-3290
▁wofɛ	-3291
▁woma	-3292
▁wono	-3293
▁woye	-3294
▁woyi	-3295
▁wɔmo	-3296
▁wɔno	-3297
▁yeee	-3298
▁yetu	-3299
▁ɔhaw	-3300
▁ɔnbɛ	-3301
▁ɛbrɛ	-3302
▁ɛnde	-3303
▁ɛnsɔ	-3304
▁ɛtoa	-3305
aduane	-3306
akonwa	-3307
ansesa	-3308
anyini	-3309
asɛdeɛ	-3310
atemaa	-3311
biribi	-3312
tirimu	-3313
twitwa	-3314
usuani	-3315
▁about	-3316
▁adamu	-3317
▁again	-3318
▁ahoho	-3319
▁akɔsi	-3320
▁akɔyɛ	-3321
▁ameri	-3322
▁awieɛ	-3323
▁ayere	-3324
▁baaeɛ	-3325
▁bisaa	-3326
▁bosaa	-3327
▁brabɔ	-3328
▁bɔfoɔ	-3329
▁bɔhyɛ	-3330
▁bɛsen	-3331
▁bɛsin	-3332
▁daddy	-3333
▁deɛme	-3334
▁dibre	-3335
▁dikan	-3336
▁doing	-3337
▁ebiaa	-3338
▁edeɛn	-3339
▁egume	-3340
▁fight	-3341
▁gyata	-3342
▁gyidi	-3343
▁hyɛda	-3344
▁kosua	-3345
▁kusie	-3346
▁least	-3347
▁lybia	-3348
▁mabrɛ	-3349
▁matɛm	-3350
▁maybe	-3351
▁megya	-3352
▁mehuu	-3353
▁menam	-3354
▁mendi	-3355
▁menwo	-3356
▁mesre	-3357
▁metwa	-3358
▁mewrɛ	-3359
▁moani	-3360
▁monso	-3361
▁musuo	-3362
▁mɛsan	-3363
▁nakyi	-3364
▁naɔre	-3365
▁naɛyɛ	-3366
▁nfofo	-3367
▁nhunu	-3368
▁night	-3369
▁nkokɔ	-3370
▁nkura	-3371
▁nnepa	-3372
▁ntete	-3373
▁nwene	-3374
▁nwoma	-3375
▁okunu	-3376
▁pitii	-3377
▁rehyɛ	-3378
▁repre	-3379
▁retwa	-3380
▁saman	-3381
▁taste	-3382
▁tesɛn	-3383
▁toaso	-3384
▁wagya	-3385
▁wamma	-3386
▁wenim	-3387
▁wompɛ	-3388
▁wonam	-3389
▁wonni	-3390
▁wonti	-3391
▁woyɛm	-3392
▁woyɛɛ	-3393
▁yɛgye	-3394
▁yɛnim	-3395
▁ɔbɛka	-3396
▁ɔbɛyɛ	-3397
▁ɔfiri	-3398
▁ɔnkɔm	-3399
▁ɔpapa	-3400
▁ɔrebɛ	-3401
▁ɔrekɔ	-3402
▁ɛbɛkɔ	-3403
▁ɛduru	-3404
▁ɛhefa	-3405
▁ɛnhyɛ	-3406
▁ɛpono	-3407
▁ɛtɔso	-3408
▁ɛwɔhɔ	-3409
hildren	-3410
▁abaawa	-3411
▁abahyɛ	-3412
▁adapaa	-3413
▁aduonu	-3414
▁adwane	-3415
▁adwobi	-3416
▁ahinta	-3417
▁akonta	-3418
▁akoraa	-3419
▁amanfo	-3420
▁anyway	-3421
▁apagya	-3422
▁asɔneɛ	-3423
▁atadeɛ	-3424
▁atwamu	-3425
▁awuraa	-3426
▁berɛwo	-3427
▁brɔdeɛ	-3428
▁defini	-3429
▁esansɛ	-3430
▁foforo	-3431
▁krɔkrɔ	-3432
▁kwasea	-3433
▁ladies	-3434
▁mebisa	-3435
▁meduru	-3436
▁mefiri	-3437
▁menfrɛ	-3438
▁menhyɛ	-3439
▁mmonaa	-3440
▁mmuayɛ	-3441
▁mmɔden	-3442
▁mmɔfra	-3443
▁nensɛm	-3444
▁panpan	-3445
▁rekeka	-3446
▁sesiaa	-3447
▁taataa	-3448
▁teetee	-3449
▁tuntum	-3450
▁wanhwɛ	-3451
▁wannya	-3452
▁watumi	-3453
▁wobedi	-3454
▁wobisa	-3455
▁wobɛhu	-3456
▁wokɔfa	-3457
▁wontie	-3458
▁wonyaa	-3459
▁yɛhwan	-3460
▁ɔhemaa	-3461
▁ɔnoara	-3462
▁ɔntumi	-3463
▁ɛbɛyaa	-3464
▁ɛkyire	-3465
▁ɛmmerɛ	-3466
▁ɛnnora	-3467
▁ɛnonso	-3468
▁ɛnɛdeɛ	-3469
apampaso	-3470
▁abayewa	-3471
▁adaagye	-3472
▁aduoson	-3473
▁ahomete	-3474
▁ahonhom	-3475
▁akɔtena	-3476
▁anwumrɛ	-3477
▁anyaado	-3478
▁barimah	-3479
▁biribia	-3480
▁bɔnefoɔ	-3481
▁ewuraba	-3482
▁fɛfɛɛfɛ	-3483
▁hundred	-3484
▁kwabena	-3485
▁maadwoa	-3486
▁menhunu	-3487
▁mensuro	-3488
▁mpanyin	-3489
▁mukaase	-3490
▁nawotwe	-3491
▁nkyerɛw	-3492
▁nsɛmsɛm	-3493
▁nyinaaa	-3494
▁prɛkopɛ	-3495
▁rekyerɛ	-3496
▁sponsor	-3497
▁telling	-3498
▁theresa	-3499
▁through	-3500
▁wagyimi	-3501
▁wokaasɛ	-3502
▁wokyerɛ	-3503
▁wɔfaase	-3504
▁wɔghana	-3505
abrokyire	-3506
▁akyerɛwo	-3507
▁bebrebee	-3508
▁boatemaa	-3509
▁grandmum	-3510
▁hwanhwan	-3511
▁katakyie	-3512
▁korakora	-3513
▁kwasiada	-3514
▁mapakyew	-3515
▁menkyerɛ	-3516
▁nkyerɛmu	-3517
▁sintidua	-3518
▁wonkoara	-3519
▁yourself	-3520
▁ɔbedepɔn	-3521
▁adaworoma	-3522
▁afternoon	-3523
▁animonyam	-3524
▁dwamanfoɔ	-3525
▁mpanimfoɔ	-3526
▁nsiakyire	-3527
▁nyankopon	-3528
▁pensioner	-3529
▁rekakyerɛ	-3530
▁atuturasɛm	-3531
▁definitely	-3532
▁mepawokyɛw	-3533
▁papapapapapa	-3534
?,	-3535
is	-3536
it	-3537
oe	-3538
ot	-3539
pu	-3540
rm	-3541
wg	-3542
yy	-3543
▁'	-3544
aaa	-3545
agu	-3546
aku	-3547
amu	-3548
ant	-3549
awe	-3550
boy	-3551
but	-3552
dii	-3553
doɔ	-3554
due	-3555
eee	-3556
eeɛ	-3557
egu	-3558
eni	-3559
ete	-3560
fia	-3561
foo	-3562
fun	-3563
gen	-3564
gga	-3565
haa	-3566
hen	-3567
hon	-3568
hri	-3569
hwi	-3570
hyi	-3571
ide	-3572
idi	-3573
ill	-3574
ins	-3575
ise	-3576
laa	-3577
lim	-3578
lot	-3579
lub	-3580
lum	-3581
mam	-3582
mie	-3583
mmi	-3584
mom	-3585
new	-3586
num	-3587
nye	-3588
omi	-3589
ons	-3590
ool	-3591
ooo	-3592
phe	-3593
por	-3594
ppo	-3595
prɔ	-3596
rbi	-3597
ret	-3598
rɔw	-3599
soa	-3600
spi	-3601
sse	-3602
ssi	-3603
sue	-3604
suu	-3605
tal	-3606
tho	-3607
tro	-3608
uda	-3609
ues	-3610
uri	-3611
uth	-3612
woɔ	-3613
wɔn	-3614
yɔn	-3615
ɔde	-3616
ɔte	-3617
ɛfa	-3618
ɛkɔ	-3619
▁ar	-3620
▁ng	-3621
▁ob	-3622
▁ɔɔ	-3623
....	-3624
aboa	-3625
adaa	-3626
adwa	-3627
ague	-3628
agyi	-3629
ahwi	-3630
akoa	-3631
akum	-3632
akyɛ	-3633
apue	-3634
ason	-3635
asɛe	-3636
atia	-3637
atwe	-3638
awia	-3639
band	-3640
bɛfa	-3641
bɛyɛ	-3642
diya	-3643
dome	-3644
dowɔ	-3645
dwom	-3646
dwoɔ	-3647
eiii	-3648
eing	-3649
feed	-3650
four	-3651
frɛɛ	-3652
gyai	-3653
gyie	-3654
hale	-3655
hing	-3656
kani	-3657
kano	-3658
kosɛ	-3659
koto	-3660
kume	-3661
kwaa	-3662
lass	-3663
mall	-3664
mase	-3665
mily	-3666
mpae	-3667
mpoa	-3668
mpɔn	-3669
nadu	-3670
nkɛn	-3671
nsum	-3672
ondi	-3673
onna	-3674
onta	-3675
onti	-3676
oraa	-3677
paid	-3678
pano	-3679
peat	-3680
pepa	-3681
pere	-3682
ppor	-3683
rana	-3684
reka	-3685
ress	-3686
reyɛ	-3687
ribe	-3688
rika	-3689
rong	-3690
rrrr	-3691
sika	-3692
sima	-3693
simu	-3694
sini	-3695
teen	-3696
tere	-3697
tete	-3698
time	-3699
tors	-3700
tory	-3701
tter	-3702
tual	-3703
tumu	-3704
twem	-3705
ught	-3706
usto	-3707
woso	-3708
yɔko	-3709
ɔden	-3710
ɛmma	-3711
ɛnkɔ	-3712
▁adw	-3713
▁adɛ	-3714
▁ahi	-3715
▁air	-3716
▁akɛ	-3717
▁ala	-3718
▁ank	-3719
▁anu	-3720
▁api	-3721
▁aɛn	-3722
▁bae	-3723
▁bla	-3724
▁drɔ	-3725
▁duu	-3726
▁eeh	-3727
▁efa	-3728
▁ehe	-3729
▁ena	-3730
▁erh	-3731
▁fed	-3732
▁gee	-3733
▁hus	-3734
▁kai	-3735
▁kur	-3736
▁mab	-3737
▁mfe	-3738
▁ngo	-3739
▁noi	-3740
▁nyɔ	-3741
▁nɔn	-3742
▁off	-3743
▁ono	-3744
▁ote	-3745
▁own	-3746
▁oye	-3747
▁pia	-3748
▁pla	-3749
▁poo	-3750
▁sim	-3751
▁soo	-3752
▁sɛe	-3753
▁tam	-3754
▁toe	-3755
▁tou	-3756
▁toɔ	-3757
▁tra	-3758
▁tro	-3759
▁try	-3760
▁twɛ	-3761
▁wat	-3762
▁wha	-3763
▁yew	-3764
▁yim	-3765
▁ɔto	-3766
▁ɔwe	-3767
▁ɛdɔ	-3768
▁ɛme	-3769
▁ɛsa	-3770
abubu	-3771
abɛfa	-3772
adeɛn	-3773
akwan	-3774
asoma	-3775
asore	-3776
asɔre	-3777
benya	-3778
brabɔ	-3779
dasoɔ	-3780
difoɔ	-3781
fitaa	-3782
gnant	-3783
hishi	-3784
hodie	-3785
hwere	-3786
hyire	-3787
hyɛmu	-3788
kafoɔ	-3789
kwasi	-3790
kyina	-3791
llion	-3792
masɛm	-3793
memma	-3794
mofoɔ	-3795
mpong	-3796
oming	-3797
pagya	-3798
phone	-3799
ppoin	-3800
rimaa	-3801
rital	-3802
sɛnea	-3803
teiti	-3804
thout	-3805
tirew	-3806
tiriw	-3807
uafoɔ	-3808
urity	-3809
▁aahh	-3810
▁aaye	-3811
▁agyi	-3812
▁ahma	-3813
▁ahna	-3814
▁alha	-3815
▁andi	-3816
▁anso	-3817
▁anye	-3818
▁asua	-3819
▁asuo	-3820
▁asɔm	-3821
▁asɛw	-3822
▁atie	-3823
▁away	-3824
▁awuo	-3825
▁aɔmo	-3826
▁aɛbɛ	-3827
▁aɛwɔ	-3828
▁beau	-3829
▁beer	-3830
▁begu	-3831
▁bobɔ	-3832
▁bone	-3833
▁boro	-3834
▁buew	-3835
▁bɛdɔ	-3836
▁bɛhu	-3837
▁bɛma	-3838
▁bɛsi	-3839
▁daye	-3840
▁dear	-3841
▁debɛ	-3842
▁dene	-3843
▁didn	-3844
▁disa	-3845
▁dɔfo	-3846
▁dɔno	-3847
▁edin	-3848
▁edum	-3849
▁emer	-3850
▁eneɛ	-3851
▁enim	-3852
▁enkɔ	-3853
▁ente	-3854
▁etua	-3855
▁fawo	-3856
▁fira	-3857
▁fiti	-3858
▁fosu	-3859
▁free	-3860
▁game	-3861
▁guso	-3862
▁guys	-3863
▁hann	-3864
▁head	-3865
▁home	-3866
▁huhu	-3867
▁husɛ	-3868
▁hyee	-3869
▁hyeɛ	-3870
▁knew	-3871
▁kohw	-3872
▁koro	-3873
▁kosɛ	-3874
▁koto	-3875
▁kwam	-3876
▁kɔpɛ	-3877
▁kɛtɛ	-3878
▁lala	-3879
▁lord	-3880
▁mada	-3881
▁maga	-3882
▁mako	-3883
▁mano	-3884
▁manu	-3885
▁meaa	-3886
▁mefi	-3887
▁meku	-3888
▁meno	-3889
▁mens	-3890
▁menu	-3891
▁mewu	-3892
▁mind	-3893
▁mobe	-3894
▁moho	-3895
▁mona	-3896
▁mote	-3897
▁mowɔ	-3898
▁nakɔ	-3899
▁nase	-3900
▁nboa	-3901
▁nene	-3902
▁nesɛ	-3903
▁nfii	-3904
▁nifa	-3905
▁nkae	-3906
▁nkon	-3907
▁nosɛ	-3908
▁nsie	-3909
▁nsii	-3910
▁nsɛe	-3911
▁ntrɔ	-3912
▁ntua	-3913
▁nyɛɛ	-3914
▁ogya	-3915
▁onua	-3916
▁osua	-3917
▁oyii	-3918
▁past	-3919
▁pata	-3920
▁pene	-3921
▁piii	-3922
▁pres	-3923
▁pris	-3924
▁rebu	-3925
▁regu	-3926
▁rehu	-3927
▁rela	-3928
▁reto	-3929
▁safo	-3930
▁said	-3931
▁sena	-3932
▁shes	-3933
▁slim	-3934
▁sono	-3935
▁supp	-3936
▁sɛyɛ	-3937
▁taku	-3938
▁teeɛ	-3939
▁tuwo	-3940
▁twee	-3941
▁tɔeɛ	-3942
▁wabo	-3943
▁wabɔ	-3944
▁wake	-3945
▁watu	-3946
▁weni	-3947
▁woak	-3948
▁wohɔ	-3949
▁woto	-3950
▁woya	-3951
▁wɔhu	-3952
▁wɔso	-3953
▁wɔte	-3954
▁yakɔ	-3955
▁yani	-3956
▁yede	-3957
▁yedi	-3958
▁yimu	-3959
▁yɛbe	-3960
▁yɛbo	-3961
▁yɛnn	-3962
▁yɛtu	-3963
▁yɛwo	-3964
▁ɔboa	-3965
▁ɔbrɛ	-3966
▁ɔfaa	-3967
▁ɔgye	-3968
▁ɔkɔɔ	-3969
▁ɔmaa	-3970
▁ɔnam	-3971
▁ɔnka	-3972
▁ɔnwe	-3973
▁ɔnwu	-3974
▁ɔteɛ	-3975
▁ɔwoo	-3976
▁ɛbɔɔ	-3977
▁ɛfri	-3978
▁ɛhɔa	-3979
▁ɛkam	-3980
▁ɛkɔɔ	-3981
▁ɛmom	-3982
▁ɛnra	-3983
▁ɛtoo	-3984
▁ɛtoɔ	-3985
▁ɛtwa	-3986
akodeɛ	-3987
anaasɛ	-3988
anigye	-3989
asɔneɛ	-3990
bonsam	-3991
damfoɔ	-3992
dwafoɔ	-3993
frakyɛ	-3994
gyimii	-3995
kuruwa	-3996
kwasea	-3997
kyekyɛ	-3998
mmienu	-3999
pɔnkye	-4000
seasɛm	-4001
siesie	-4002
tomire	-4003
waadaa	-4004
▁abedi	-4005
▁aberɛ	-4006
▁abisa	-4007
▁abobɔ	-4008
▁aburo	-4009
▁adeko	-4010
▁adeɛa	-4011
▁agyaa	-4012
▁ahana	-4013
▁ahyɛn	-4014
▁akora	-4015
▁akyea	-4016
▁akyrɛ	-4017
▁amane	-4018
▁amono	-4019
▁ampaa	-4020
▁answe	-4021
▁antie	-4022
▁asaso	-4023
▁atete	-4024
▁atopa	-4025
▁aunte	-4026
▁aunty	-4027
▁ayera	-4028
▁being	-4029
▁biaaa	-4030
▁biibi	-4031
▁break	-4032
▁brɛme	-4033
▁bɛmma	-4034
▁bɛnya	-4035
▁bɛtoo	-4036
▁dabia	-4037
▁damfo	-4038
▁didie	-4039
▁diffi	-4040
▁dɛnna	-4041
▁ekita	-4042
▁ekuro	-4043
▁euros	-4044
▁fakye	-4045
▁fasoɔ	-4046
▁fault	-4047
▁fofrɔ	-4048
▁forty	-4049
▁gonna	-4050
▁gware	-4051
▁happy	-4052
▁hohoɔ	-4053
▁issue	-4054
▁kaawo	-4055
▁korom	-4056
▁kyina	-4057
▁kɔgye	-4058
▁madeɛ	-4059
▁mahwɛ	-4060
▁mamba	-4061
▁manfa	-4062
▁mankɔ	-4063
▁manom	-4064
▁manyɛ	-4065
▁marry	-4066
▁mayɛn	-4067
▁means	-4068
▁meara	-4069
▁meeka	-4070
▁meekɔ	-4071
▁mehia	-4072
▁mekae	-4073
▁mekye	-4074
▁mekyɛ	-4075
▁membɛ	-4076
▁menna	-4077
▁mensi	-4078
▁mento	-4079
▁mesua	-4080
▁metaa	-4081
▁metia	-4082
▁metɔɔ	-4083
▁mmisa	-4084
▁moaba	-4085
▁moabɛ	-4086
▁moahu	-4087
▁moaka	-4088
▁moara	-4089
▁mofri	-4090
▁monte	-4091
▁motia	-4092
▁mpaso	-4093
▁mɔden	-4094
▁mɛmma	-4095
▁mɛnyɛ	-4096
▁nagya	-4097
▁nanaa	-4098
▁naomi	-4099
▁natem	-4100
▁nduru	-4101
▁nebag	-4102
▁nente	-4103
▁nhoma	-4104
▁nkola	-4105
▁nnipa	-4106
▁nnyɛɛ	-4107
▁nokwa	-4108
▁nonso	-4109
▁nsesa	-4110
▁nsuro	-4111
▁nsɔkɔ	-4112
▁ntiwo	-4113
▁nufoɔ	-4114
▁nwuma	-4115
▁nwunu	-4116
▁obebu	-4117
▁odwan	-4118
▁osofo	-4119
▁other	-4120
▁promi	-4121
▁prɛko	-4122
▁purse	-4123
▁pusuu	-4124
▁pɔtɔɔ	-4125
▁rekaa	-4126
▁rekan	-4127
▁renam	-4128
▁renom	-4129
▁renyɛ	-4130
▁retie	-4131
▁rough	-4132
▁seneɛ	-4133
▁sesia	-4134
▁short	-4135
▁situa	-4136
▁small	-4137
▁sofoɔ	-4138
▁spiri	-4139
▁story	-4140
▁sumie	-4141
▁sɛsɛn	-4142
▁takyi	-4143
▁tetee	-4144
▁these	-4145
▁thing	-4146
▁twere	-4147
▁wanhu	-4148
▁wanka	-4149
▁wanwu	-4150
▁wanyi	-4151
▁waree	-4152
▁wareɛ	-4153
▁wawie	-4154
▁wobɛn	-4155
▁wofie	-4156
▁wonsi	-4157
▁worek	-4158
▁worry	-4159
▁wotwa	-4160
▁wotwi	-4161
▁wuieɛ	-4162
▁wɔmma	-4163
▁wɔnyɛ	-4164
▁yegyi	-4165
▁yenso	-4166
▁yiwan	-4167
▁yɔnko	-4168
▁yɛnam	-4169
▁yɛnoa	-4170
▁yɛntu	-4171
▁yɛnya	-4172
▁yɛɛbɛ	-4173
▁ɔbɛfa	-4174
▁ɔgyɔn	-4175
▁ɔkwan	-4176
▁ɔnnim	-4177
▁ɔnyim	-4178
▁ɔreba	-4179
▁ɔsore	-4180
▁ɔsɔre	-4181
▁ɔtena	-4182
▁ɔware	-4183
▁ɛbɛka	-4184
▁ɛbɛma	-4185
▁ɛbɛsi	-4186
▁ɛbɛtɔ	-4187
▁ɛkyɛn	-4188
▁ɛmawo	-4189
▁ɛmmaa	-4190
▁ɛmmoa	-4191
▁ɛmmre	-4192
▁ɛnhwɛ	-4193
▁ɛnora	-4194
▁ɛntwa	-4195
▁ɛtete	-4196
abɛtena	-4197
adamfoɔ	-4198
ahyehyɛ	-4199
ataadeɛ	-4200
paakyɛw	-4201
uestion	-4202
ustomer	-4203
▁abatoɔ	-4204
▁abotre	-4205
▁abroso	-4206
▁abrɛwo	-4207
▁abɛgye	-4208
▁adanko	-4209
▁adwabɔ	-4210
▁adwere	-4211
▁afotuo	-4212
▁afɔreɛ	-4213
▁agyesɛ	-4214
▁ahenfo	-4215
▁akatua	-4216
▁akwada	-4217
▁akwara	-4218
▁ampara	-4219
▁asante	-4220
▁asobra	-4221
▁asɛmbi	-4222
▁ataade	-4223
▁baatan	-4224
▁bayerɛ	-4225
▁boaboa	-4226
▁brodeɛ	-4227
▁dakoro	-4228
▁dwodwo	-4229
▁ebewie	-4230
▁emoohm	-4231
▁entiwo	-4232
▁family	-4233
▁firime	-4234
▁fomsoɔ	-4235
▁forget	-4236
▁friend	-4237
▁gramoo	-4238
▁gyegye	-4239
▁handle	-4240
▁hyɛbrɛ	-4241
▁kaekae	-4242
▁kenten	-4243
▁konadu	-4244
▁koonti	-4245
▁kurase	-4246
▁kwadwo	-4247
▁kwamoa	-4248
▁kwanso	-4249
▁kɔfakɔ	-4250
▁league	-4251
▁maadeɛ	-4252
▁maafia	-4253
▁maakye	-4254
▁magyae	-4255
▁medase	-4256
▁mehunu	-4257
▁mekɔfa	-4258
▁memmra	-4259
▁mempie	-4260
▁menfre	-4261
▁menkae	-4262
▁menkoa	-4263
▁mensan	-4264
▁mentie	-4265
▁merekɔ	-4266
▁meserɛ	-4267
▁mesesa	-4268
▁mesika	-4269
▁mesrɛw	-4270
▁meɛnsa	-4271
▁miamia	-4272
▁mieɛsa	-4273
▁mifiri	-4274
▁moanim	-4275
▁moankɔ	-4276
▁mommra	-4277
▁mosɔre	-4278
▁naemom	-4279
▁nanteɛ	-4280
▁nhyɛda	-4281
▁nkoaaa	-4282
▁nkyere	-4283
▁nsekuo	-4284
▁nsɛmpa	-4285
▁ntakra	-4286
▁option	-4287
▁pintin	-4288
▁prophe	-4289
▁really	-4290
▁reason	-4291
▁repeat	-4292
▁sempoa	-4293
▁should	-4294
▁sprite	-4295
▁sunsum	-4296
▁things	-4297
▁twitwi	-4298
▁twɛdeɛ	-4299
▁waduru	-4300
▁wasɔre	-4301
▁wayere	-4302
▁within	-4303
▁wobɛba	-4304
▁wobɛda	-4305
▁wogyae	-4306
▁wohunu	-4307
▁wokeka	-4308
▁wonkwa	-4309
▁wopamo	-4310
▁wotumu	-4311
▁yɛbisa	-4312
▁ɔbaayi	-4313
▁ɔbaayɛ	-4314
▁ɔbɛgye	-4315
▁ɔkaayɛ	-4316
▁ɔntena	-4317
▁ɔpagya	-4318
▁ɔteiti	-4319
▁ɛbɛboa	-4320
▁ɛmmema	-4321
▁ɛmoohm	-4322
▁ɛnenam	-4323
▁ɛnfata	-4324
▁ɛnfiri	-4325
▁ɛntumi	-4326
▁ɛnyɛsɛ	-4327
▁ɛwɔsɛɛ	-4328
ahwiensa	-4329
akakyerɛ	-4330
kabensɛm	-4331
ondition	-4332
▁abosome	-4333
▁ahyaseɛ	-4334
▁ahyehyɛ	-4335
▁akwakwa	-4336
▁anigyeɛ	-4337
▁asoneyɛ	-4338
▁asɔneyɛ	-4339
▁ataadeɛ	-4340
▁bayefoɔ	-4341
▁beberee	-4342
▁bebrebe	-4343
▁bonwire	-4344
▁bɔmɔden	-4345
▁bɛkyerɛ	-4346
▁dedaada	-4347
▁drinkno	-4348
▁emergen	-4349
▁ewurade	-4350
▁goliate	-4351
▁husband	-4352
▁kagyerɛ	-4353
▁koraana	-4354
▁kotodwe	-4355
▁kyeiwaa	-4356
▁makyerɛ	-4357
▁manenka	-4358
▁marital	-4359
▁mekoraa	-4360
▁memaame	-4361
▁mempɛsɛ	-4362
▁mengyae	-4363
▁mensono	-4364
▁million	-4365
▁mmiɛnsa	-4366
▁nenpena	-4367
▁nfomsoɔ	-4368
▁nkranee	-4369
▁nneɛmma	-4370
▁nnimdeɛ	-4371
▁nsɔadeɛ	-4372
▁ntentan	-4373
▁payinmu	-4374
▁penaman	-4375
▁pinaman	-4376
▁prekopɛ	-4377
▁prepaid	-4378
▁sikasɛm	-4379
▁strange	-4380
▁without	-4381
▁wobɛfrɛ	-4382
▁wobɛnya	-4383
▁wodwene	-4384
▁wɔkurom	-4385
▁yaaagya	-4386
▁yɛntena	-4387
▁ɔbɛtumi	-4388
▁ɔnkyerɛ	-4389
▁ɔpepepe	-4390
▁ɛfirisɛ	-4391
▁ɛyɛasɛm	-4392
abusuafoɔ	-4393
dwamanfoɔ	-4394
▁ahmadiya	-4395
▁akwantuo	-4396
▁atitirew	-4397
▁awuraden	-4398
▁baakofoɔ	-4399
▁biribira	-4400
▁birthday	-4401
▁bɔdamfoɔ	-4402
▁drinkbɛn	-4403
▁efiewura	-4404
▁gyaegyae	-4405
▁kosɛkosɛ	-4406
▁kyerɛsɛm	-4407
▁mepakyɛw	-4408
▁nyankopɔ	-4409
▁pregnant	-4410
▁regyegye	-4411
▁wobetumi	-4412
▁wohwehwɛ	-4413
▁woteaseɛ	-4414
▁akwanhyia	-4415
▁asukɔnoma	-4416
▁bebirebee	-4417
▁disappoin	-4418
▁kontomire	-4419
▁kwaseasɛm	-4420
▁menkrofoɔ	-4421
▁mepaakyew	-4422
▁mepawkyɛw	-4423
▁nyameadom	-4424
▁situation	-4425
▁spiritual	-4426
▁sɔfomaame	-4427
▁sɛbibiara	-4428
▁woakwaaba	-4429
▁ababaawayi	-4430
▁akwadaawei	-4431
▁akwankyerɛ	-4432
▁ayɔnkogorɔ	-4433
▁daabidaabi	-4434
▁kakrakakra	-4435
▁mapawokyew	-4436
▁nkwasiasem	-4437
▁onyankopɔn	-4438
nkakrankakra	-4439
▁kamakamakama	-4440
▁keteketekete	-4441
bl	-4442
oi	-4443
afo	-4444
awɔ	-4445
bli	-4446
dɛɛ	-4447
eor	-4448
esi	-4449
ess	-4450
fem	-4451
foa	-4452
fuɔ	-4453
gin	-4454
her	-4455
ial	-4456
iii	-4457
ino	-4458
koa	-4459
mpt	-4460
nan	-4461
noa	-4462
ona	-4463
oom	-4464
poa	-4465
prɛ	-4466
she	-4467
shu	-4468
sis	-4469
sop	-4470
try	-4471
tum	-4472
twɛ	-4473
tɛn	-4474
uni	-4475
ute	-4476
wmu	-4477
wna	-4478
ɛde	-4479
ɛni	-4480
▁eg	-4481
abue	-4482
akan	-4483
amen	-4484
amfa	-4485
ammɛ	-4486
anhɛ	-4487
ania	-4488
anna	-4489
anwo	-4490
atam	-4491
atra	-4492
atua	-4493
bber	-4494
book	-4495
bran	-4496
deam	-4497
deɛe	-4498
dier	-4499
ay	-4500
hn	-4501
bom	-4502
eyi	-4503
hɔɔ	-4504
mea	-4505
til	-4506
woa	-4507
yea	-4508
▁aɔ	-4509
▁hm	-4510
▁sr	-4511
atae	-4512
dini	-4513
easy	-4514
efie	-4515
enim	-4516
ford	-4517
forɔ	-4518
gail	-4519
gigi	-4520
gine	-4521
gyei	-4522
heap	-4523
iayɛ	-4524
inii	-4525
life	-4526
lion	-4527
ment	-4528
more	-4529
mɔna	-4530
napp	-4531
nkum	-4532
nyam	-4533
nyin	-4534
oadi	-4535
oins	-4536
omaa	-4537
omte	-4538
oshu	-4539
pera	-4540
pete	-4541
posa	-4542
prae	-4543
pter	-4544
rial	-4545
ries	-4546
riwa	-4547
rown	-4548
sein	-4549
shed	-4550
shit	-4551
siaw	-4552
sɔɔɔ	-4553
sɛwo	-4554
taan	-4555
tase	-4556
tetɛ	-4557
thew	-4558
tyle	-4559
umaa	-4560
wers	-4561
wiee	-4562
wuro	-4563
ɔbrɔ	-4564
ɔnkɔ	-4565
ɛneɛ	-4566
ɛnfa	-4567
ɛntɛ	-4568
▁bas	-4569
▁big	-4570
▁blo	-4571
▁bɛb	-4572
▁bɛm	-4573
▁dem	-4574
▁dey	-4575
▁dou	-4576
▁dra	-4577
▁due	-4578
▁eat	-4579
▁erm	-4580
▁eye	-4581
▁fen	-4582
▁ham	-4583
▁hoa	-4584
▁hoo	-4585
▁hot	-4586
▁hwɔ	-4587
▁hɛh	-4588
▁law	-4589
▁mid	-4590
▁muf	-4591
▁nai	-4592
▁naɛ	-4593
▁nnu	-4594
▁noh	-4595
▁npo	-4596
▁nɛa	-4597
▁old	-4598
▁omo	-4599
ig	-4600
lp	-4601
ou	-4602
ɔw	-4603
ahe	-4604
ept	-4605
ffe	-4606
fou	-4607
hoo	-4608
osi	-4609
pid	-4610
▁ae	-4611
▁ai	-4612
▁nw	-4613
▁ot	-4614
▁ɛg	-4615
ahan	-4616
biom	-4617
biti	-4618
bree	-4619
dana	-4620
horo	-4621
redi	-4622
tuom	-4623
wahu	-4624
yeyɛ	-4625
ɔfoɔ	-4626
▁buo	-4627
▁dis	-4628
▁dwɛ	-4629
▁fif	-4630
▁ose	-4631
▁oyi	-4632
▁pap	-4633
▁pas	-4634
▁pon	-4635
▁pud	-4636
▁rek	-4637
▁ser	-4638
▁sir	-4639
▁tre	-4640
▁tri	-4641
▁wag	-4642
▁ɔdɛ	-4643
▁ɔfo	-4644
▁ɔmɔ	-4645
▁ɔsi	-4646
▁ɔwu	-4647
▁ɛpa	-4648
aapae	-4649
abedi	-4650
abɛdu	-4651
abɛyɛ	-4652
adome	-4653
afuru	-4654
agyeɛ	-4655
aking	-4656
akuma	-4657
akyea	-4658
akyin	-4659
amale	-4660
asuro	-4661
asɛma	-4662
ateng	-4663
atete	-4664
atifi	-4665
ating	-4666
atoto	-4667
atutu	-4668
bible	-4669
birim	-4670
bodam	-4671
busua	-4672
didea	-4673
duako	-4674
dwane	-4675
dwesɛ	-4676
ebook	-4677
ement	-4678
eorge	-4679
fasoɔ	-4680
feren	-4681
frisɛ	-4682
funum	-4683
honam	-4684
hyehɛ	-4685
hyɛda	-4686
igare	-4687
kanii	-4688
kyibɔ	-4689
ldier	-4690
luman	-4691
massa	-4692
menua	-4693
mpson	-4694
nnwon	-4695
olish	-4696
ongra	-4697
onipa	-4698
onsti	-4699
ki	-4700
ts	-4701
yo	-4702
ehi	-4703
frɔ	-4704
kɔm	-4705
led	-4706
muo	-4707
neɛ	-4708
rɛn	-4709
sra	-4710
yee	-4711
ɛbi	-4712
akae	-4713
anan	-4714
aneɛ	-4715
hina	-4716
kuku	-4717
meso	-4718
misa	-4719
ntia	-4720
yɛse	-4721
yɛyɛ	-4722
▁aro	-4723
▁eda	-4724
▁mep	-4725
▁nia	-4726
abusa	-4727
aning	-4728
hnapp	-4729
irtuo	-4730
oowww	-4731
oshua	-4732
ourse	-4733
padeɛ	-4734
padua	-4735
payin	-4736
pekya	-4737
prede	-4738
pɔnda	-4739
redit	-4740
right	-4741
senii	-4742
spite	-4743
sɛdeɛ	-4744
tabli	-4745
tiful	-4746
tinto	-4747
trɛma	-4748
ttime	-4749
tures	-4750
wadeɛ	-4751
wanta	-4752
wonim	-4753
wuman	-4754
yadeɛ	-4755
yakya	-4756
yɔnko	-4757
yɛfoɔ	-4758
ɛrekɔ	-4759
▁aaaa	-4760
▁abom	-4761
▁abua	-4762
▁abɛn	-4763
▁afan	-4764
▁afoo	-4765
▁agwa	-4766
▁ahyi	-4767
▁akaa	-4768
▁akam	-4769
▁akan	-4770
▁aksa	-4771
▁ansɛ	-4772
▁apaa	-4773
▁apaw	-4774
▁apro	-4775
▁arye	-4776
▁asaa	-4777
▁asɛn	-4778
▁atia	-4779
▁atuu	-4780
▁awan	-4781
▁awoa	-4782
▁bana	-4783
▁beat	-4784
▁belt	-4785
▁beri	-4786
▁bina	-4787
▁boss	-4788
▁bɛtu	-4789
▁daso	-4790
▁date	-4791
▁dawg	-4792
▁dema	-4793
▁deɛɛ	-4794
▁does	-4795
▁duku	-4796
▁dɔba	-4797
▁edwa	-4798
▁ehen	-4799
fei	-4800
iel	-4801
ked	-4802
koo	-4803
ste	-4804
tte	-4805
wam	-4806
wui	-4807
anfo	-4808
erse	-4809
meka	-4810
okay	-4811
onne	-4812
▁dia	-4813
▁ehi	-4814
▁fai	-4815
▁mpe	-4816
▁owɔ	-4817
▁sad	-4818
▁wad	-4819
▁whɛ	-4820
▁ɛbi	-4821
▁ɛfi	-4822
pesie	-4823
▁aben	-4824
▁atoa	-4825
▁aɛyɛ	-4826
▁dare	-4827
▁duty	-4828
▁ehuu	-4829
▁enam	-4830
▁engu	-4831
▁enie	-4832
▁enoa	-4833
▁esua	-4834
▁fakɔ	-4835
▁fayɛ	-4836
▁feed	-4837
▁feel	-4838
▁fiaa	-4839
▁fing	-4840
▁fono	-4841
▁food	-4842
▁frid	-4843
▁gent	-4844
▁goli	-4845
▁gyai	-4846
▁hame	-4847
▁hana	-4848
▁hell	-4849
▁holy	-4850
▁horo	-4851
▁hurt	-4852
▁hwɛa	-4853
▁idea	-4854
▁kawa	-4855
▁keke	-4856
▁kill	-4857
▁kind	-4858
▁kusi	-4859
▁kutu	-4860
▁kyɛm	-4861
▁kɔka	-4862
▁kɔma	-4863
▁kɔna	-4864
▁kɔyɛ	-4865
▁late	-4866
▁loan	-4867
▁long	-4868
▁lost	-4869
▁mabɔ	-4870
▁mafe	-4871
▁malt	-4872
▁maso	-4873
▁mayi	-4874
▁mefe	-4875
▁mehɔ	-4876
▁memu	-4877
▁menn	-4878
▁meti	-4879
▁meto	-4880
▁mobi	-4881
▁mofa	-4882
▁muna	-4883
▁mɛhu	-4884
▁mɛma	-4885
▁mɛwe	-4886
▁mɛye	-4887
▁naba	-4888
▁nasi	-4889
▁nawu	-4890
▁nent	-4891
▁neye	-4892
▁nhwe	-4893
▁nhye	-4894
▁niee	-4895
▁nika	-4896
▁niye	-4897
▁nkaa	-4898
▁nnan	-4899
haw	-4900
kle	-4901
nsa	-4902
pun	-4903
rue	-4904
tam	-4905
whe	-4906
▁ao	-4907
anto	-4908
asoɔ	-4909
dada	-4910
dene	-4911
hama	-4912
mman	-4913
nkye	-4914
wieɛ	-4915
▁apɛ	-4916
▁hee	-4917
▁ima	-4918
▁kuf	-4919
▁kuo	-4920
▁mbɔ	-4921
▁tɛm	-4922
▁ɛpɛ	-4923
agede	-4924
anieɛ	-4925
broni	-4926
imfoɔ	-4927
irgin	-4928
twere	-4929
where	-4930
▁agyɛ	-4931
▁atra	-4932
▁bɛne	-4933
▁dwan	-4934
▁hefa	-4935
▁hehe	-4936
▁kaho	-4937
▁kuna	-4938
▁kwaa	-4939
▁mawu	-4940
▁mprɔ	-4941
▁nena	-4942
▁nnua	-4943
▁nnyi	-4944
▁nobi	-4945
▁noho	-4946
▁noɛɛ	-4947
▁nsɛn	-4948
▁ntɔɔ	-4949
▁nurs	-4950
▁nwre	-4951
▁nwum	-4952
▁nyam	-4953
▁nyii	-4954
▁obue	-4955
▁okum	-4956
▁only	-4957
▁oome	-4958
▁ooww	-4959
▁otia	-4960
▁pepa	-4961
▁pira	-4962
▁piti	-4963
▁plot	-4964
▁real	-4965
▁regi	-4966
▁reko	-4967
▁resa	-4968
▁resɛ	-4969
▁rewa	-4970
▁rewu	-4971
▁rush	-4972
▁same	-4973
▁sell	-4974
▁seyɛ	-4975
▁site	-4976
▁sona	-4977
▁sowo	-4978
▁stri	-4979
▁sɛsɛ	-4980
▁tale	-4981
▁told	-4982
▁towo	-4983
▁true	-4984
▁twan	-4985
▁tɔnn	-4986
▁wano	-4987
▁wasi	-4988
▁wiam	-4989
▁wobi	-4990
▁wodɛ	-4991
▁wont	-4992
▁word	-4993
▁wosɔ	-4994
▁wotɔ	-4995
▁wɔbɛ	-4996
▁wɔda	-4997
▁wɔre	-4998
▁yesi	-4999
ash	-5000
fon	-5001
kua	-5002
mmu	-5003
anee	-5004
asei	-5005
ball	-5006
fono	-5007
hill	-5008
tary	-5009
▁fuo	-5010
▁lie	-5011
▁ɔpi	-5012
▁ɛmu	-5013
huuhu	-5014
mufoɔ	-5015
tween	-5016
▁ayoo	-5017
▁bɔmu	-5018
▁bɛbi	-5019
▁dayɛ	-5020
▁gyen	-5021
▁koma	-5022
▁kron	-5023
▁mabe	-5024
▁mmam	-5025
▁nbrɛ	-5026
▁nomu	-5027
▁nyra	-5028
▁sɛne	-5029
▁yeyɛ	-5030
▁yiɛɛ	-5031
▁yɛba	-5032
▁yɛfa	-5033
▁yɛpɛ	-5034
▁yɛre	-5035
▁yɛso	-5036
▁yɛɛn	-5037
▁ɔboo	-5038
▁ɔbra	-5039
▁ɔdii	-5040
▁ɔkɔa	-5041
▁ɔmon	-5042
▁ɔnom	-5043
▁ɔtea	-5044
▁ɔtoo	-5045
▁ɔtwa	-5046
▁ɛboɔ	-5047
▁ɛbre	-5048
▁ɛbro	-5049
▁ɛbɔn	-5050
▁ɛgro	-5051
▁ɛgye	-5052
▁ɛhaa	-5053
▁ɛhen	-5054
▁ɛkye	-5055
▁ɛmba	-5056
▁ɛnaa	-5057
▁ɛnbɛ	-5058
▁ɛnda	-5059
▁ɛnto	-5060
▁ɛnɛn	-5061
▁ɛyii	-5062
▁ɛyɛn	-5063
▁ɛɛfɛ	-5064
abufuo	-5065
abɛhyɛ	-5066
adaama	-5067
adwane	-5068
adware	-5069
agyeyɛ	-5070
agyina	-5071
ahyɛda	-5072
akatua	-5073
akumaa	-5074
anamon	-5075
andome	-5076
angyae	-5077
apɛdeɛ	-5078
atamfo	-5079
awiase	-5080
awodeɛ	-5081
ayɛade	-5082
baatan	-5083
bebree	-5084
enesis	-5085
hapter	-5086
hinese	-5087
hwewhɛ	-5088
hyiraa	-5089
illage	-5090
kakraa	-5091
kansɛm	-5092
krakye	-5093
kwaasa	-5094
kyekye	-5095
kyerɛɛ	-5096
llshit	-5097
monyam	-5098
mpaebɔ	-5099
ui	-5100
abo	-5101
asu	-5102
let	-5103
tra	-5104
ɔne	-5105
asie	-5106
asum	-5107
kata	-5108
kota	-5109
kyia	-5110
kyɛm	-5111
onku	-5112
wote	-5113
▁hah	-5114
▁kun	-5115
▁ntɛ	-5116
▁osu	-5117
▁sni	-5118
▁sus	-5119
adane	-5120
kyeku	-5121
kyiri	-5122
▁akae	-5123
▁anwu	-5124
▁asɛi	-5125
▁bayɛ	-5126
▁beku	-5127
▁deli	-5128
▁ewie	-5129
▁hano	-5130
▁kuta	-5131
▁kyɛɛ	-5132
▁mark	-5133
▁nsen	-5134
▁nteɛ	-5135
▁onwu	-5136
▁tumu	-5137
▁wɔmm	-5138
▁yabɔ	-5139
▁yaye	-5140
▁ɔbɛn	-5141
▁ɔnpɛ	-5142
▁ɔnte	-5143
▁ɔɔfɛ	-5144
▁ɛnma	-5145
friend	-5146
homaso	-5147
nkyibɔ	-5148
nneɛma	-5149
ontain	-5150
ortion	-5151
ourite	-5152
penses	-5153
pporti	-5154
rapera	-5155
resane	-5156
retary	-5157
samfoɔ	-5158
teetee	-5159
tetɛwu	-5160
twedua	-5161
wopɛsɛ	-5162
yɔkofa	-5163
▁abakɔ	-5164
▁abaso	-5165
▁abufu	-5166
▁abusu	-5167
▁abɔde	-5168
▁abɔso	-5169
▁abɛha	-5170
▁abɛpa	-5171
▁abɛyɛ	-5172
▁adede	-5173
▁adepa	-5174
▁adeɛw	-5175
▁adowa	-5176
▁afena	-5177
▁afiaa	-5178
▁afuom	-5179
▁afuru	-5180
▁aguso	-5181
▁ahayi	-5182
▁ahotɔ	-5183
▁ahusɛ	-5184
▁akama	-5185
▁akeka	-5186
▁akɔbɔ	-5187
▁akɔka	-5188
▁akɔnɔ	-5189
▁akɔtɔ	-5190
▁amano	-5191
▁amawo	-5192
▁amena	-5193
▁ammoa	-5194
▁ammrɛ	-5195
▁anfan	-5196
▁animo	-5197
▁ankan	-5198
▁anksa	-5199
anoa	-5200
atea	-5201
body	-5202
lina	-5203
onal	-5204
onfi	-5205
sult	-5206
▁gue	-5207
▁kit	-5208
▁mfi	-5209
▁ner	-5210
▁otu	-5211
▁ɔtɔ	-5212
abamu	-5213
anoyi	-5214
antoa	-5215
ayɛno	-5216
mmerɛ	-5217
srɛwo	-5218
▁afim	-5219
▁akol	-5220
▁asoa	-5221
▁bano	-5222
▁doso	-5223
▁edɛn	-5224
▁guru	-5225
▁kraw	-5226
▁mamo	-5227
▁memo	-5228
▁nsam	-5229
▁nyeɛ	-5230
▁onsi	-5231
▁them	-5232
▁tina	-5233
▁wala	-5234
▁wɔne	-5235
▁ɔkye	-5236
▁ɛntɔ	-5237
▁ɛyea	-5238
hishiɛ	-5239
mpadeɛ	-5240
obiara	-5241
▁abɛti	-5242
▁akɔso	-5243
▁ankyɛ	-5244
▁anyam	-5245
▁apamo	-5246
▁apɔmu	-5247
▁arana	-5248
▁arawo	-5249
▁asɔwo	-5250
▁atare	-5251
▁atene	-5252
▁atetɛ	-5253
▁atoto	-5254
▁awahu	-5255
▁ayɛfɛ	-5256
▁ayɛms	-5257
▁aɛntɔ	-5258
▁bafan	-5259
▁bebre	-5260
▁bedii	-5261
▁berbi	-5262
▁besia	-5263
▁blood	-5264
▁boase	-5265
▁bribe	-5266
▁browo	-5267
▁bɔmmɔ	-5268
▁bɛbia	-5269
▁bɛfaa	-5270
▁bɛhyɛ	-5271
▁bɛkye	-5272
▁bɛkyɛ	-5273
▁bɛnna	-5274
▁bɛtua	-5275
▁daada	-5276
▁dadaa	-5277
▁dadeɛ	-5278
▁dakro	-5279
▁deasi	-5280
▁deɛma	-5281
▁deɛwo	-5282
▁dompe	-5283
▁dunum	-5284
▁ebedi	-5285
▁ebubu	-5286
▁ebunu	-5287
▁eeiii	-5288
▁ehiaa	-5289
▁eight	-5290
▁ekruo	-5291
▁endeɛ	-5292
▁enhwɛ	-5293
▁enkyɛ	-5294
▁entia	-5295
▁etimi	-5296
▁faako	-5297
▁fansa	-5298
▁fitii	-5299
ake	-5300
ard	-5301
eks	-5302
loo	-5303
nni	-5304
yer	-5305
yoo	-5306
akɔm	-5307
kɛse	-5308
roni	-5309
wewe	-5310
wiyɛ	-5311
▁goo	-5312
▁nwɔ	-5313
▁ɔbu	-5314
akaka	-5315
akɔtɔ	-5316
muwaa	-5317
pause	-5318
seɛbɔ	-5319
yonko	-5320
▁adum	-5321
▁amaa	-5322
▁ansu	-5323
▁biar	-5324
▁dɔkɔ	-5325
▁hear	-5326
▁kɔɔɔ	-5327
▁mesu	-5328
▁nehɔ	-5329
▁twaa	-5330
▁well	-5331
▁wogu	-5332
▁wosu	-5333
▁ɔnhu	-5334
▁ɛfrɛ	-5335
▁ɛndi	-5336
▁ɛsre	-5337
agyena	-5338
anibrɛ	-5339
antena	-5340
brɛbrɛ	-5341
orɔfoɔ	-5342
seisei	-5343
▁abɔme	-5344
▁abɛdi	-5345
▁adeda	-5346
▁agyaw	-5347
▁agyei	-5348
▁akwaa	-5349
▁akyim	-5350
▁anipa	-5351
▁awreɛ	-5352
▁debrɛ	-5353
▁dream	-5354
▁etwaa	-5355
▁faith	-5356
▁fofie	-5357
▁fotoɔ	-5358
▁frɛeɛ	-5359
▁fufou	-5360
▁gyedi	-5361
▁gyeeɛ	-5362
▁gying	-5363
▁hmmmm	-5364
▁hours	-5365
▁huieɛ	-5366
▁hwana	-5367
▁hwere	-5368
▁hwɛwo	-5369
▁hɔhoɔ	-5370
▁hɛɛlo	-5371
▁impro	-5372
▁kaayy	-5373
▁kaprɛ	-5374
▁kataa	-5375
▁katwi	-5376
▁kenya	-5377
▁keseɛ	-5378
▁ketee	-5379
▁kings	-5380
▁knows	-5381
▁kokro	-5382
▁kokua	-5383
▁kooma	-5384
▁krado	-5385
▁kruga	-5386
▁kukum	-5387
▁kunsu	-5388
▁kusuu	-5389
▁kwadu	-5390
▁kwamɔ	-5391
▁kwasi	-5392
▁kwerɛ	-5393
▁kyene	-5394
▁kyiri	-5395
▁kɔhwɛ	-5396
▁kɔmma	-5397
▁kɛtii	-5398
▁mafrɛ	-5399
nnwo	-5400
▁mek	-5401
atwɛn	-5402
eyere	-5403
hatte	-5404
kwala	-5405
▁best	-5406
▁brɛɛ	-5407
▁list	-5408
▁ɔkwa	-5409
▁ɛboa	-5410
mekɔte	-5411
▁ankwa	-5412
▁antwa	-5413
▁entie	-5414
▁kaaeɛ	-5415
▁kokra	-5416
▁kosie	-5417
▁masem	-5418
▁massa	-5419
▁mebio	-5420
▁meboɔ	-5421
▁mebrɛ	-5422
▁mebue	-5423
▁medaa	-5424
▁mefri	-5425
▁mekaa	-5426
▁memmɔ	-5427
▁mempa	-5428
▁memrɛ	-5429
▁menom	-5430
▁mensu	-5431
▁mentɔ	-5432
▁mesee	-5433
▁metee	-5434
▁meyie	-5435
▁meyii	-5436
▁meyɛm	-5437
▁mmaeɛ	-5438
▁mmame	-5439
▁mmano	-5440
▁mmien	-5441
▁moada	-5442
▁moakɔ	-5443
▁moano	-5444
▁moase	-5445
▁moayɛ	-5446
▁modeɛ	-5447
▁mogye	-5448
▁mokaa	-5449
▁mommɔ	-5450
▁monam	-5451
▁monmɛ	-5452
▁monya	-5453
▁monye	-5454
▁moohm	-5455
▁mosei	-5456
▁moses	-5457
▁motuo	-5458
▁motwa	-5459
▁mouth	-5460
▁mufti	-5461
▁mɛboa	-5462
▁mɛfrɛ	-5463
▁mɛgye	-5464
▁mɛhyɛ	-5465
▁mɛtɔn	-5466
▁naana	-5467
▁nadeɛ	-5468
▁nagye	-5469
▁nasɛm	-5470
▁naɔmo	-5471
▁naɔno	-5472
▁ndidi	-5473
▁nenti	-5474
▁neɛsɛ	-5475
▁nhuwo	-5476
▁nhyia	-5477
▁nigga	-5478
▁nimsɛ	-5479
▁nkasɛ	-5480
▁nkeka	-5481
▁nkwra	-5482
▁nkyɛw	-5483
▁nkɔko	-5484
▁nkɔsi	-5485
▁nkɔtɔ	-5486
▁nnora	-5487
▁nnwan	-5488
▁nnwui	-5489
▁nnyaa	-5490
▁nobra	-5491
▁nomee	-5492
▁nosaa	-5493
▁noyie	-5494
▁ntamu	-5495
▁ntino	-5496
▁ntoto	-5497
▁ntwaa	-5498
▁nyerɛ	-5499
▁nyiaa	-5500
▁nyɔko	-5501
▁obedi	-5502
▁oboni	-5503
▁odidi	-5504
▁oguso	-5505
▁okita	-5506
▁onyaa	-5507
▁onyae	-5508
▁oprae	-5509
▁order	-5510
▁osɔfo	-5511
▁otimi	-5512
▁paano	-5513
▁paebɔ	-5514
▁papaa	-5515
▁pegya	-5516
▁petee	-5517
▁petre	-5518
▁poole	-5519
▁puduo	-5520
▁redan	-5521
▁redue	-5522
▁renda	-5523
▁resom	-5524
▁resua	-5525
▁reweɛ	-5526
▁ruled	-5527
▁saano	-5528
▁shake	-5529
▁shame	-5530
▁sikan	-5531
▁sisei	-5532
▁sodeɛ	-5533
▁sorry	-5534
▁start	-5535
▁style	-5536
▁suffe	-5537
▁sɔfoɔ	-5538
▁sɛnka	-5539
▁sɛsaa	-5540
▁sɛsɛɛ	-5541
▁table	-5542
▁teiti	-5543
▁tenka	-5544
▁throw	-5545
▁tipɛn	-5546
▁tired	-5547
▁tiwaa	-5548
▁today	-5549
▁twamu	-5550
▁twaso	-5551
▁until	-5552
▁wadeɛ	-5553
▁wafri	-5554
▁wagye	-5555
▁wandi	-5556
▁wante	-5557
▁wasɛm	-5558
▁wawuo	-5559
▁weeks	-5560
▁weina	-5561
▁whate	-5562
▁whats	-5563
▁whene	-5564
▁white	-5565
▁woaba	-5566
▁woboɔ	-5567
▁wodaa	-5568
▁wofaa	-5569
▁wokan	-5570
▁wommu	-5571
▁wompo	-5572
▁wonie	-5573
▁wonne	-5574
▁wonom	-5575
▁wopre	-5576
▁worse	-5577
▁wosaa	-5578
▁wosan	-5579
▁wosua	-5580
▁woteɛ	-5581
▁wotɔɔ	-5582
▁would	-5583
▁wrong	-5584
▁wunim	-5585
▁wunya	-5586
▁wɔnka	-5587
▁wɔnkɔ	-5588
▁wɔtee	-5589
▁wɔyɛɛ	-5590
▁yenhu	-5591
▁yenim	-5592
▁yenni	-5593
▁yenua	-5594
▁yonko	-5595
▁yɛhwɛ	-5596
▁yɛhyɛ	-5597
▁yɛkaa	-5598
▁yɛmma	-5599
▁yɛmmɛ	-5600
▁yɛnhu	-5601
▁yɛnko	-5602
▁yɛnna	-5603
▁yɛnni	-5604
▁yɛpɛn	-5605
▁yɛtea	-5606
▁yɛtin	-5607
▁yɛtwa	-5608
▁yɛɛba	-5609
▁yɛɛkɔ	-5610
▁yɛɛpɛ	-5611
▁ɔbaye	-5612
▁ɔbɔdɔ	-5613
▁ɔbɛbɔ	-5614
▁ɔbɛda	-5615
▁ɔdeno	-5616
▁ɔdidi	-5617
▁ɔfrɛɛ	-5618
▁ɔhata	-5619
▁ɔkata	-5620
▁ɔkyɛn	-5621
▁ɔmmae	-5622
▁ɔmmrɛ	-5623
▁ɔmode	-5624
▁ɔndeɛ	-5625
▁ɔnfrɛ	-5626
▁ɔnhwɛ	-5627
▁ɔnoaa	-5628
▁ɔnono	-5629
▁ɔntie	-5630
▁ɔpamo	-5631
▁ɔpɛsɛ	-5632
▁ɔrewu	-5633
▁ɔsere	-5634
▁ɔsoma	-5635
▁ɔtehɔ	-5636
▁ɔtete	-5637
▁ɔtoso	-5638
▁ɔtwee	-5639
▁ɛbɛsɔ	-5640
▁ɛbɛwo	-5641
▁ɛkasa	-5642
▁ɛkɔsi	-5643
▁ɛmerɛ	-5644
▁ɛmesɛ	-5645
▁ɛnawo	-5646
▁ɛnera	-5647
▁ɛnfie	-5648
▁ɛnnra	-5649
▁ɛnnye	-5650
▁ɛnoso	-5651
▁ɛreyɛ	-5652
▁ɛsane	-5653
▁ɛtumi	-5654
▁ɛware	-5655
▁ɛwɔse	-5656
aapaemu	-5657
abatiri	-5658
abrafoɔ	-5659
agedemu	-5660
ahandan	-5661
akomamu	-5662
anhyɛda	-5663
anneɛma	-5664
apɔnkye	-5665
asetena	-5666
atɔabrɛ	-5667
bransɛm	-5668
dabiara	-5669
elation	-5670
iayɛsɛm	-5671
irtuous	-5672
kyereni	-5673
lations	-5674
ongratu	-5675
onstitu	-5676
oomlion	-5677
problem	-5678
striker	-5679
sweater	-5680
wantawa	-5681
woakyew	-5682
wontumi	-5683
working	-5684
yinasoɔ	-5685
▁aagyei	-5686
▁abayaa	-5687
▁abrɔfo	-5688
▁abɛfrɛ	-5689
▁abɛhwɛ	-5690
▁abɛhyɛ	-5691
▁abɛpue	-5692
▁adadaa	-5693
▁adamfo	-5694
▁adekro	-5695
▁adekye	-5696
▁adeɛma	-5697
▁adidie	-5698
▁adikan	-5699
▁adware	-5700
▁adɔfoɔ	-5701
▁adɔɔso	-5702
▁afodeɛ	-5703
▁agudie	-5704
▁agware	-5705
▁agyame	-5706
▁agyeei	-5707
▁ahodoɔ	-5708
▁ahohoɔ	-5709
▁ahwere	-5710
▁ahyira	-5711
▁ahyɛda	-5712
▁akatii	-5713
▁akumaa	-5714
▁akɔfie	-5715
▁akɔkra	-5716
▁akɔkyɛ	-5717
▁akɔlaa	-5718
▁akɔpem	-5719
▁akɛseɛ	-5720
▁amotia	-5721
▁ananmu	-5722
▁aniamo	-5723
▁anibrɛ	-5724
▁answer	-5725
▁anyini	-5726
▁around	-5727
▁asɛmpa	-5728
▁ataare	-5729
▁ateete	-5730
▁atufoɔ	-5731
▁awadaa	-5732
▁awofoɔ	-5733
▁awreho	-5734
▁babies	-5735
▁babira	-5736
▁bankum	-5737
▁befiri	-5738
▁better	-5739
▁boafoɔ	-5740
▁boakye	-5741
▁bonyin	-5742
▁breast	-5743
▁brewww	-5744
▁bɔatra	-5745
▁bɛbiaa	-5746
▁bɛgyae	-5747
▁bɛsane	-5748
▁daadaa	-5749
▁dabira	-5750
▁daniel	-5751
▁dankyi	-5752
▁dawuro	-5753
▁dedede	-5754
▁dokota	-5755
▁drɔɔso	-5756
▁ebiara	-5757
▁eduane	-5758
▁eerrnn	-5759
▁enfiri	-5760
▁enkasɛ	-5761
▁esrael	-5762
▁fafiri	-5763
▁fenfam	-5764
▁finger	-5765
▁firihɔ	-5766
▁fofroɔ	-5767
▁fridge	-5768
▁gentle	-5769
▁george	-5770
▁gyeadi	-5771
▁gyedie	-5772
▁gyemie	-5773
▁gyidie	-5774
▁gyimie	-5775
▁gyinaa	-5776
▁gyware	-5777
▁heater	-5778
▁hofiri	-5779
▁honhon	-5780
▁hwammɔ	-5781
▁hwanna	-5782
▁hwɛdeɛ	-5783
▁hwɛhwɛ	-5784
▁hyiaeɛ	-5785
▁hyiame	-5786
▁hyɛɛda	-5787
▁iphone	-5788
▁israel	-5789
▁kantii	-5790
▁kekere	-5791
▁koromu	-5792
▁kosisɛ	-5793
▁krataa	-5794
▁kunkum	-5795
▁kuruwa	-5796
▁kyekyɛ	-5797
▁kyensi	-5798
▁kyerɔw	-5799
▁kɔbisa	-5800
▁kɔhwie	-5801
▁mafuom	-5802
▁mahama	-5803
▁market	-5804
▁mathew	-5805
▁mebusa	-5806
▁mebɛfa	-5807
▁mebɛyɛ	-5808
▁medidi	-5809
▁mehuru	-5810
▁mekura	-5811
▁mekuta	-5812
▁mekyɛn	-5813
▁melife	-5814
▁meneno	-5815
▁menewo	-5816
▁menhia	-5817
▁mensam	-5818
▁mensre	-5819
▁mensuo	-5820
▁mentee	-5821
▁menyim	-5822
▁menyɛɛ	-5823
▁mereba	-5824
▁mesisi	-5825
▁mesoma	-5826
▁mesore	-5827
▁mesuro	-5828
▁metehɔ	-5829
▁metete	-5830
▁metiri	-5831
▁minute	-5832
▁mmuaeɛ	-5833
▁moasɛm	-5834
▁moawia	-5835
▁mobisa	-5836
▁mobɛka	-5837
▁mofiri	-5838
▁mpadeɛ	-5839
▁mufiri	-5840
▁mɛsesa	-5841
▁mɛyɛdɛ	-5842
▁nanano	-5843
▁nanɛna	-5844
▁nekunu	-5845
▁nenkwa	-5846
▁nentɛm	-5847
▁ngyina	-5848
▁nkonim	-5849
▁nkukuo	-5850
▁nnahɔɔ	-5851
▁nnyina	-5852
▁nokwrɛ	-5853
▁npanin	-5854
▁nsaase	-5855
▁nsakuo	-5856
▁nsaman	-5857
▁nsuwae	-5858
▁ntasuo	-5859
▁ntwene	-5860
▁ntɛntɛ	-5861
▁nuabaa	-5862
▁nubɔne	-5863
▁nwuram	-5864
▁nwusie	-5865
▁nyamen	-5866
▁nyiamu	-5867
▁obiaaa	-5868
▁obroni	-5869
▁odikan	-5870
▁odwane	-5871
▁odware	-5872
▁oluman	-5873
▁onhunu	-5874
▁ontumi	-5875
▁onyina	-5876
▁ooowww	-5877
▁pastor	-5878
▁penten	-5879
▁poster	-5880
▁prapra	-5881
▁pɔtɔɔɔ	-5882
▁rebɛsi	-5883
▁redidi	-5884
▁rehyia	-5885
▁result	-5886
▁resɔre	-5887
▁reworɔ	-5888
▁reyɛma	-5889
▁rubber	-5890
▁rudolp	-5891
▁saasaa	-5892
▁sapete	-5893
▁settle	-5894
▁sharon	-5895
▁simpie	-5896
▁soɛnyɛ	-5897
▁srɔnko	-5898
▁stupid	-5899
▁supply	-5900
▁sɛanka	-5901
▁tamale	-5902
▁thanks	-5903
▁though	-5904
▁towobo	-5905
▁trokaa	-5906
▁tɔadeɛ	-5907
▁waahwɛ	-5908
▁wagyae	-5909
▁wahuri	-5910
▁wahyia	-5911
▁wakoma	-5912
▁wanted	-5913
▁watena	-5914
▁watimi	-5915
▁werefi	-5916
▁wobusa	-5917
▁wobɛbɔ	-5918
▁wobɛdi	-5919
▁wobɛka	-5920
▁wobɛto	-5921
▁wohyia	-5922
▁wokwan	-5923
▁wokyew	-5924
▁wokyɛw	-5925
▁woneno	-5926
▁wonfii	-5927
▁wongye	-5928
▁wonhwɛ	-5929
▁wonkra	-5930
▁wonnya	-5931
▁wonnyɛ	-5932
▁wonsɛm	-5933
▁woreka	-5934
▁woresu	-5935
▁wosika	-5936
▁wosimu	-5937
▁wososo	-5938
▁wotiri	-5939
▁wowura	-5940
▁wɔnono	-5941
▁wɔsesa	-5942
▁yafunu	-5943
▁yawdie	-5944
▁yoowei	-5945
▁yɛdene	-5946
▁yɛkasa	-5947
▁yɛmmra	-5948
▁yɛnhuu	-5949
▁yɛsore	-5950
▁yɛtena	-5951
▁yɛtete	-5952
▁yɛtwɛn	-5953
▁ɔbaano	-5954
▁ɔbɛwoo	-5955
▁ɔgyina	-5956
▁ɔhyɛda	-5957
▁ɔkɔmfo	-5958
▁ɔnpene	-5959
▁ɔnware	-5960
▁ɔpanin	-5961
▁ɔrefrɛ	-5962
▁ɔtetwi	-5963
▁ɛdwene	-5964
▁ɛkɔpem	-5965
▁ɛkɔyie	-5966
▁ɛnaɛma	-5967
▁ɛndera	-5968
▁ɛnhoma	-5969
▁ɛnkasɛ	-5970
▁ɛnkyɛɛ	-5971
▁ɛnnera	-5972
▁ɛntete	-5973
▁ɛretwe	-5974
▁ɛwieyɛ	-5975
▁ɛyaana	-5976
asanhwie	-5977
deampong	-5978
igarette	-5979
ontainer	-5980
ountries	-5981
papapapa	-5982
penamang	-5983
supporti	-5984
yankopon	-5985
▁abaatan	-5986
▁abonsam	-5987
▁abrokyi	-5988
▁abɛwura	-5989
▁adanfoɔ	-5990
▁adansie	-5991
▁adekode	-5992
▁adekorɔ	-5993
▁adeɛwei	-5994
▁adwoama	-5995
▁adwuane	-5996
▁adwuman	-5997
▁afanfri	-5998
▁against	-5999
▁agyeeii	-6000
▁ahennie	-6001
▁ahinfie	-6002
▁ahoɔyaa	-6003
▁ahwease	-6004
▁ahwehwɛ	-6005
▁ahwɛyie	-6006
▁ahyehye	-6007
▁airport	-6008
▁akansie	-6009
▁akonkwa	-6010
▁akonwna	-6011
▁akyɛdeɛ	-6012
▁akɔdane	-6013
▁akɔduro	-6014
▁akɔhyia	-6015
▁akɔkasa	-6016
▁akɔkora	-6017
▁alright	-6018
▁ampesie	-6019
▁anamɔna	-6020
▁andwene	-6021
▁aniberɛ	-6022
▁anigyie	-6023
▁anuafoɔ	-6024
▁anymore	-6025
▁asomasi	-6026
▁asomdwe	-6027
▁asotire	-6028
▁atasiaw	-6029
▁atwetwe	-6030
▁awuduro	-6031
▁awuraba	-6032
▁ayeforɔ	-6033
▁ayɔkofa	-6034
▁ayɛadom	-6035
▁ayɛmmoa	-6036
▁barimaa	-6037
▁bedroom	-6038
▁beduako	-6039
▁between	-6040
▁biblese	-6041
▁bɛbiara	-6042
▁dapɔnda	-6043
▁despite	-6044
▁deɛgyae	-6045
▁dwatire	-6046
▁dɔhwere	-6047
▁ebeduru	-6048
▁ebetumi	-6049
▁establi	-6050
▁etwatoɔ	-6051
▁etwitwa	-6052
▁fifteen	-6053
▁foolish	-6054
▁gyimini	-6055
▁huhuuhu	-6056
▁hyiaobi	-6057
▁imagine	-6058
▁kahyire	-6059
▁koraame	-6060
▁koraasɛ	-6061
▁korabea	-6062
▁kotokuo	-6063
▁kronfoɔ	-6064
▁kurodua	-6065
▁kuromma	-6066
▁kyenkye	-6067
▁kyerɛme	-6068
▁kɔkurom	-6069
▁kɔɔdwoɔ	-6070
▁mabodam	-6071
▁mabɔdam	-6072
▁mamemma	-6073
▁mamenfa	-6074
▁manibre	-6075
▁manigye	-6076
▁mankasɛ	-6077
▁masrɛwo	-6078
▁meaning	-6079
▁mebɛgye	-6080
▁medware	-6081
▁mekɔɔyɛ	-6082
▁mempena	-6083
▁menfiri	-6084
▁menhyia	-6085
▁menimsɛ	-6086
▁menkasa	-6087
▁menkasɛ	-6088
▁menware	-6089
▁menwene	-6090
▁metease	-6091
▁meyɛɛyɛ	-6092
▁mfomsoɔ	-6093
▁midwife	-6094
▁mmiensa	-6095
▁moabobɔ	-6096
▁moatumi	-6097
▁mogyina	-6098
▁morning	-6099
▁mranteɛ	-6100
▁mukoraa	-6101
▁mɛteiti	-6102
▁nabrabɔ	-6103
▁nakyerɛ	-6104
▁nankasa	-6105
▁nansein	-6106
▁nawodeɛ	-6107
▁nboadeɛ	-6108
▁nepadua	-6109
▁nfitaan	-6110
▁nhyehyɛ	-6111
▁nkyerɛɛ	-6112
▁nokwarɛ	-6113
▁nothing	-6114
▁ntaafoɔ	-6115
▁ntetemu	-6116
▁ntomago	-6117
▁nursing	-6118
▁nwasena	-6119
▁nwonnwo	-6120
▁nwuramu	-6121
▁nyinara	-6122
▁oooowww	-6123
▁otwedua	-6124
▁papaapa	-6125
▁promise	-6126
▁sampson	-6127
▁soldier	-6128
▁striker	-6129
▁sɔɔsɔɔɔ	-6130
▁talking	-6131
▁tetefie	-6132
▁thought	-6133
▁titiriw	-6134
▁waniwuo	-6135
▁washing	-6136
▁wayadeɛ	-6137
▁wobɛhwɛ	-6138
▁wobɛtea	-6139
▁wobɛtoo	-6140
▁wonkyɛn	-6141
▁working	-6142
▁worship	-6143
▁wɔgyena	-6144
▁yefunum	-6145
▁yentimi	-6146
▁yoosɔfo	-6147
▁ɔbonsam	-6148
▁ɔdehyeɛ	-6149
▁ɔngyina	-6150
▁ɔntɔkwa	-6151
▁ɔrekeka	-6152
▁ɔreware	-6153
▁ɔtaataa	-6154
▁ɛndwene	-6155
▁ɛnyɛsaa	-6156
▁ɛrebobɔ	-6157
▁ɛwɔdowɔ	-6158
abɛdwafoɔ	-6159
kwasiasem	-6160
mpanimfoɔ	-6161
▁abayifoɔ	-6162
▁abromeso	-6163
▁abɛgyina	-6164
▁abɛkyerɛ	-6165
▁adamudie	-6166
▁adeɛkyen	-6167
▁adwoberɛ	-6168
▁afirifie	-6169
▁aguareyɛ	-6170
▁ahokyerɛ	-6171
▁ahomasoɔ	-6172
▁akranteɛ	-6173
▁akuraase	-6174
▁akɔnhoma	-6175
▁amoateng	-6176
▁anfanfri	-6177
▁anidasoɔ	-6178
▁anuonyam	-6179
▁asegyerɛ	-6180
▁asekyerɛ	-6181
▁asesafɔm	-6182
▁asukɛseɛ	-6183
▁awerɛhoɔ	-6184
▁barimabɛ	-6185
▁bebirebe	-6186
▁bebreebe	-6187
▁bullshit	-6188
▁busuafoɔ	-6189
▁bɛtenase	-6190
▁daasebrɛ	-6191
▁deɛkyerɛ	-6192
▁eeiisɔfo	-6193
▁faahodie	-6194
▁goodidea	-6195
▁gyingyin	-6196
▁houseboy	-6197
▁hyehyɛhɔ	-6198
▁hyiahyia	-6199
▁kohwinii	-6200
▁kyekyeku	-6201
▁makyerɛw	-6202
▁mendwene	-6203
▁mensapan	-6204
▁mesiesie	-6205
▁metirimu	-6206
▁mmranteɛ	-6207
▁moadwuma	-6208
▁moasɛdeɛ	-6209
▁mobehunu	-6210
▁mɛhwehwɛ	-6211
▁naɔrehwe	-6212
▁nentwene	-6213
▁nfigyire	-6214
▁nhyirawo	-6215
▁nkorɔfoɔ	-6216
▁nkwaadaa	-6217
▁nnawɔtwe	-6218
▁nsemhunu	-6219
▁ntoboase	-6220
▁nursefoɔ	-6221
▁nyamesom	-6222
▁nyankoma	-6223
▁panyinmu	-6224
▁pinamang	-6225
▁register	-6226
▁rehwewhɛ	-6227
▁rekɔhwie	-6228
▁relation	-6229
▁speaking	-6230
▁sɛbarima	-6231
▁sɛbisɛbi	-6232
▁tafrakyɛ	-6233
▁takyiwaa	-6234
▁teasefoɔ	-6235
▁wobɛhunu	-6236
▁wobɛkasa	-6237
▁woteetee	-6238
▁yɛhyehyɛ	-6239
▁ɔbomofoɔ	-6240
▁ɔnbuadeɛ	-6241
▁ɔnokoraa	-6242
▁ɛbɛyɛdɛn	-6243
▁ɛnneɛmma	-6244
▁ɛnyɛeasy	-6245
animuonyam	-6246
▁adansefoɔ	-6247
▁adeɛbaako	-6248
▁agyapadeɛ	-6249
▁agyimifoɔ	-6250
▁ahoɔfɛfoɔ	-6251
▁akasakasa	-6252
▁akatakata	-6253
▁anadwobrɛ	-6254
▁anigyesɛm	-6255
▁anwummere	-6256
▁aprosifoɔ	-6257
▁ateasefoɔ	-6258
▁atenetene	-6259
▁beautiful	-6260
▁beribiara	-6261
▁bibiaramɛ	-6262
▁firighana	-6263
▁kingsford	-6264
▁kristosom	-6265
▁kurasenii	-6266
▁mabusuani	-6267
▁makɔkurom	-6268
▁mapaakyɛw	-6269
▁mekakyerɛ	-6270
▁menopause	-6271
▁metumiaka	-6272
▁mewɔfaase	-6273
▁mpaapaemu	-6274
▁nkokwaasa	-6275
▁npaninfoɔ	-6276
▁nsamanfoɔ	-6277
▁something	-6278
▁suffering	-6279
▁wobibiara	-6280
▁wofiewura	-6281
▁ɔbaabiara	-6282
▁ɔbaahemaa	-6283
▁ɔrehyiraa	-6284
▁ahoɔdenfoɔ	-6285
▁asorepanin	-6286
▁boniayɛsɛm	-6287
▁dwenedwene	-6288
▁fasoɔbiara	-6289
▁gyimifoɔkɔ	-6290
▁kyerɛkyerɛ	-6291
▁mpanyinfoɔ	-6292
▁nfaadamfoɔ	-6293
▁nkwaseafoɔ	-6294
▁ntawantawa	-6295
▁nyankopong	-6296
▁odwamanfoɔ	-6297
▁papapapapa	-6298
▁wokyekyere	-6299
▁wonamfofoɔ	-6300
▁wonyinasoɔ	-6301
▁yɛgyegyere	-6302
▁yɛkyekyere	-6303
▁abrokyireha	-6304
▁adwenedwene	-6305
▁adwoahomaso	-6306
▁akakabensɛm	-6307
▁asobrakyerɛ	-6308
▁atitirewfoɔ	-6309
▁ayɛmshishiɛ	-6310
▁disappointe	-6311
▁established	-6312
▁hardworking	-6313
▁moadaworoma	-6314
▁nyamenhyira	-6315
▁otweduampɔn	-6316
▁twedeampong	-6317
▁wonsaresane	-6318
▁baaabrokyire	-6319
▁monkwasiasem	-6320
▁nfitaanfitaa	-6321
▁nkakrankakra	-6322
▁nkwaseasɛmno	-6323
▁nwonnwonnwon	-6324
▁relationship	-6325
ongratulations	-6326
▁understanding	-6327
▁gyimifoɔbarima	-6328
ail	-6329
lps	-6330
afof	-6331
byee	-6332
ered	-6333
flas	-6334
hpun	-6335
hwii	-6336
hyiɛ	-6337
ided	-6338
ille	-6339
lirt	-6340
look	-6341
ners	-6342
ompu	-6343
raml	-6344
sdom	-6345
sino	-6346
spis	-6347
ssed	-6348
ssop	-6349
tail	-6350
tweɛ	-6351
twoo	-6352
wamh	-6353
wuuu	-6354
ɛnnɛ	-6355
▁arg	-6356
▁etw	-6357
▁ngɔ	-6358
▁uhn	-6359
▁ɛpu	-6360
adawg	-6361
adget	-6362
amuna	-6363
antam	-6364
apomu	-6365
bited	-6366
blies	-6367
brɔfo	-6368
dadɛɛ	-6369
dodoɔ	-6370
domee	-6371
ebiaa	-6372
fantɔ	-6373
femam	-6374
fessi	-6375
flash	-6376
hahaa	-6377
harle	-6378
helps	-6379
henie	-6380
hille	-6381
honya	-6382
hoobo	-6383
hoose	-6384
hours	-6385
inham	-6386
inted	-6387
kesee	-6388
kɔnsa	-6389
kɔyɛɛ	-6390
liino	-6391
lumba	-6392
mesee	-6393
nemam	-6394
nkron	-6395
nsɛwo	-6396
ongoo	-6397
ontum	-6398
orite	-6399
ulu	-6400
afum	-6401
edis	-6402
mbuo	-6403
oboo	-6404
obuo	-6405
wint	-6406
erylu	-6407
iamia	-6408
iemia	-6409
luulu	-6410
pensi	-6411
pɔwmu	-6412
rials	-6413
rolli	-6414
rosse	-6415
rtwom	-6416
shirt	-6417
sitle	-6418
sopso	-6419
suwae	-6420
tails	-6421
tamkɔ	-6422
tempt	-6423
ttles	-6424
uutɔɔ	-6425
waise	-6426
wakoo	-6427
waste	-6428
wodea	-6429
woowo	-6430
worry	-6431
ɛdwom	-6432
ɛkɔbɔ	-6433
ɛkɔhɔ	-6434
ɛnbom	-6435
ɛnneɛ	-6436
ɛɛfoo	-6437
▁aefi	-6438
▁aɔse	-6439
▁aɔyi	-6440
▁bomb	-6441
▁boot	-6442
▁bush	-6443
▁doub	-6444
▁drag	-6445
▁draw	-6446
▁emuo	-6447
▁ennɛ	-6448
▁errh	-6449
▁espe	-6450
▁ethi	-6451
▁etwɛ	-6452
▁fron	-6453
▁gala	-6454
▁gale	-6455
▁gari	-6456
▁harm	-6457
▁help	-6458
▁hide	-6459
▁hwam	-6460
▁hwre	-6461
▁iron	-6462
▁maki	-6463
▁mehn	-6464
▁news	-6465
▁ngyɛ	-6466
▁npae	-6467
▁nwin	-6468
▁nwɔn	-6469
▁oboɔ	-6470
▁ohuu	-6471
▁omia	-6472
▁osuu	-6473
▁play	-6474
▁puie	-6475
▁pull	-6476
▁self	-6477
▁sort	-6478
▁toit	-6479
▁whoe	-6480
▁yoyo	-6481
▁yuda	-6482
▁ɔfem	-6483
▁ɔsii	-6484
▁ɔwre	-6485
▁ɔɔbɛ	-6486
▁ɛmuɔ	-6487
abaaha	-6488
abebue	-6489
abepue	-6490
abirim	-6491
abosom	-6492
adanfo	-6493
adress	-6494
afofro	-6495
aheram	-6496
ahwiri	-6497
akɛseɛ	-6498
amenka	-6499
liii	-6500
pram	-6501
twon	-6502
ekwon	-6503
kings	-6504
ntwon	-6505
wonsa	-6506
▁nguu	-6507
▁radi	-6508
▁rain	-6509
▁yɔna	-6510
▁ɔtoa	-6511
▁ɛtɛɛ	-6512
anhubi	-6513
anibɔɔ	-6514
ankoma	-6515
anners	-6516
ansoso	-6517
asenea	-6518
asoɔeɛ	-6519
baawae	-6520
bigail	-6521
buroni	-6522
dabiaa	-6523
dadada	-6524
diasem	-6525
dowɔdo	-6526
edwiri	-6527
illega	-6528
inglet	-6529
isions	-6530
kansoa	-6531
kekano	-6532
korodɔ	-6533
korowo	-6534
kranee	-6535
kukuru	-6536
lowers	-6537
manɔne	-6538
mekɔtɔ	-6539
mmanie	-6540
muoden	-6541
nkyene	-6542
nokorɛ	-6543
ntinka	-6544
ntɔkwa	-6545
obusua	-6546
onfirm	-6547
onsult	-6548
orɔmfo	-6549
ountry	-6550
pofono	-6551
pportu	-6552
prepra	-6553
pɛnsoɔ	-6554
retara	-6555
rewuuu	-6556
ronfoɔ	-6557
rrrrrr	-6558
rsitle	-6559
sowoso	-6560
ssible	-6561
tional	-6562
toromu	-6563
trofoɔ	-6564
ueenna	-6565
wereka	-6566
wieegu	-6567
wirime	-6568
yɛyeyɛ	-6569
ɔnonso	-6570
ɔurity	-6571
ɛnkɔsi	-6572
ɛremma	-6573
▁abibi	-6574
▁abigu	-6575
▁akyre	-6576
▁along	-6577
▁ammen	-6578
▁ammua	-6579
▁anwre	-6580
▁anwun	-6581
▁apepa	-6582
▁apɔsɔ	-6583
▁argum	-6584
▁atifi	-6585
▁atuuu	-6586
▁atwit	-6587
▁awany	-6588
▁awise	-6589
▁ayada	-6590
▁ayaka	-6591
▁baebi	-6592
▁belgi	-6593
▁bemwo	-6594
▁benya	-6595
▁biooo	-6596
▁blame	-6597
▁blink	-6598
▁bogga	-6599
mper	-6600
konon	-6601
nmmoa	-6602
rinka	-6603
yɛnkɔ	-6604
▁empo	-6605
▁ofii	-6606
▁ɔboɔ	-6607
▁ɛkom	-6608
▁ɛmoa	-6609
afutuo	-6610
ataban	-6611
derful	-6612
gyenaa	-6613
kuroko	-6614
kuromo	-6615
kyafoɔ	-6616
nakwaa	-6617
nokono	-6618
▁annaa	-6619
▁bekya	-6620
▁borga	-6621
▁busaa	-6622
▁busuo	-6623
▁bɔtra	-6624
▁bɛɛbi	-6625
▁deɛmɛ	-6626
▁dɛdɛɛ	-6627
▁eeeei	-6628
▁efunu	-6629
▁efuom	-6630
▁enneɛ	-6631
▁enpoa	-6632
▁entry	-6633
▁etiko	-6634
▁forms	-6635
▁galam	-6636
▁guess	-6637
▁guest	-6638
▁gyiga	-6639
▁hwamɔ	-6640
▁hwiwa	-6641
▁hɛloo	-6642
▁impor	-6643
▁impre	-6644
▁intro	-6645
▁kakae	-6646
▁kanea	-6647
▁kitak	-6648
▁kokom	-6649
▁kotog	-6650
▁kraaa	-6651
▁kutuu	-6652
▁kyire	-6653
▁kɔdii	-6654
▁kɔeeɛ	-6655
▁kɔsii	-6656
▁kɔtɔn	-6657
▁kɔyɛɛ	-6658
▁kɛtɛn	-6659
▁later	-6660
▁lorry	-6661
▁madom	-6662
▁masew	-6663
▁masum	-6664
▁mawoɔ	-6665
▁meeni	-6666
▁mefoa	-6667
▁mehaw	-6668
▁mekrɔ	-6669
▁metiɛ	-6670
▁mfata	-6671
▁minkɔ	-6672
▁minni	-6673
▁mmesi	-6674
▁mokae	-6675
▁mprɛn	-6676
▁mrika	-6677
▁mummu	-6678
▁mɔbrɔ	-6679
▁mɔfrɔ	-6680
▁nadom	-6681
▁naobi	-6682
▁naɔbɛ	-6683
▁naɔde	-6684
▁naɛte	-6685
▁neboɔ	-6686
▁nennɛ	-6687
▁nfofa	-6688
▁ngyin	-6689
▁niɔdɔ	-6690
▁nkete	-6691
▁nkyen	-6692
▁nobut	-6693
▁noegu	-6694
▁noɛnɛ	-6695
▁nseku	-6696
▁obenu	-6697
▁obɛhu	-6698
▁ohuno	-6699
etli	-6700
feel	-6701
rush	-6702
shyi	-6703
▁pueɛ	-6704
eadeɛn	-6705
muɔden	-6706
orning	-6707
ɛmbusa	-6708
▁anomu	-6709
▁brush	-6710
▁distu	-6711
▁easyo	-6712
▁eeiia	-6713
▁esuro	-6714
▁kasɛe	-6715
▁lotto	-6716
▁mampɛ	-6717
▁mmmhm	-6718
▁nfeel	-6719
▁nfrɛɛ	-6720
▁nonkɔ	-6721
▁osimu	-6722
▁osono	-6723
▁otwaa	-6724
▁owɔfa	-6725
▁pafoo	-6726
▁pampe	-6727
▁paper	-6728
▁pofoo	-6729
▁praye	-6730
▁prior	-6731
▁radio	-6732
▁range	-6733
▁realy	-6734
▁renwe	-6735
▁repor	-6736
▁repun	-6737
▁respe	-6738
▁resɛe	-6739
▁retɔn	-6740
▁saalu	-6741
▁sadde	-6742
▁sapor	-6743
▁sehwi	-6744
▁senea	-6745
▁shine	-6746
▁snika	-6747
▁south	-6748
▁stars	-6749
▁study	-6750
▁sukɔm	-6751
▁sɔɔme	-6752
▁sɛɔde	-6753
▁tetɛw	-6754
▁tomor	-6755
▁train	-6756
▁treat	-6757
▁trimu	-6758
▁trodo	-6759
▁twann	-6760
▁wadom	-6761
▁wadum	-6762
▁wapie	-6763
▁wiram	-6764
▁wogyi	-6765
▁wokrɔ	-6766
▁woyea	-6767
▁woyei	-6768
▁wunni	-6769
▁wɔboo	-6770
▁wɔhuu	-6771
▁yanso	-6772
▁yeeku	-6773
▁yibio	-6774
▁yɛeyi	-6775
▁yɛkae	-6776
▁ɔbeba	-6777
▁ɔbeka	-6778
▁ɔforo	-6779
▁ɔhyew	-6780
▁ɔkona	-6781
▁ɔnfii	-6782
▁ɔpepa	-6783
▁ɔpere	-6784
▁ɔpiti	-6785
▁ɔposa	-6786
▁ɔtwea	-6787
▁ɔwehe	-6788
▁ɔwiee	-6789
▁ɔwieɛ	-6790
▁ɛbeka	-6791
▁ɛbesi	-6792
▁ɛdidi	-6793
▁ɛdien	-6794
▁ɛdɔso	-6795
▁ɛfeed	-6796
▁ɛfrɛɛ	-6797
▁ɛkosi	-6798
▁ɛnmie	-6799
goɔ	-6800
girl	-6801
ntɛm	-6802
pion	-6803
ɛren	-6804
▁hɛd	-6805
browa	-6806
mmyme	-6807
mpath	-6808
renkɔ	-6809
rensa	-6810
wiare	-6811
▁hair	-6812
▁logi	-6813
▁nfom	-6814
▁park	-6815
▁ways	-6816
▁whee	-6817
▁ɔfre	-6818
▁ɛfre	-6819
abatwɛ	-6820
bobɔba	-6821
mpathy	-6822
twiare	-6823
▁aabro	-6824
▁antom	-6825
▁apata	-6826
▁aseno	-6827
▁bɛbro	-6828
▁bɛgoɔ	-6829
▁ehuri	-6830
▁esane	-6831
▁fifre	-6832
▁haɛwɔ	-6833
▁hɛdoo	-6834
▁mebro	-6835
▁mekya	-6836
▁metuu	-6837
▁mɛbro	-6838
▁mɛfre	-6839
▁okura	-6840
▁sraha	-6841
▁stair	-6842
▁teeso	-6843
▁tɔntɔ	-6844
▁wawia	-6845
▁woɛna	-6846
▁wɔfre	-6847
▁ɔneno	-6848
▁ɔsane	-6849
▁ɛneno	-6850
▁ɛnsɔm	-6851
▁ɛnsɛi	-6852
▁ɛntry	-6853
▁ɛpuie	-6854
▁ɛwomu	-6855
ahemman	-6856
akakaka	-6857
ananteɛ	-6858
asiedan	-6859
asiesie	-6860
asomdwo	-6861
atembuo	-6862
bankɛse	-6863
brempɔn	-6864
duyɛfoɔ	-6865
ekwondo	-6866
faasena	-6867
figyire	-6868
genesis	-6869
grewuuu	-6870
hampion	-6871
hibited	-6872
hooboii	-6873
iamufoɔ	-6874
mɛmbusa	-6875
nkɛntin	-6876
oadwuma	-6877
ontempt	-6878
ontumpu	-6879
pension	-6880
posopso	-6881
rehyɛmu	-6882
sabaako	-6883
somdwoe	-6884
titinto	-6885
troasɛm	-6886
umaafoɔ	-6887
wansena	-6888
werɛfoɔ	-6889
wintwan	-6890
yinnyin	-6891
ympathy	-6892
ɛdiasem	-6893
ɛrenkyɛ	-6894
ɛtwitwa	-6895
▁aasɔre	-6896
▁abanke	-6897
▁abanko	-6898
▁abatwɛ	-6899
ahoɔ	-6900
akwe	-6901
ropi	-6902
wwee	-6903
enwee	-6904
hɔhoɔ	-6905
itary	-6906
kerba	-6907
ommon	-6908
toopi	-6909
▁nepi	-6910
▁rite	-6911
▁shiɛ	-6912
▁siee	-6913
▁stra	-6914
▁tann	-6915
▁ɛsii	-6916
▁ɛsoa	-6917
ahoɔfɛ	-6918
ahwere	-6919
akweti	-6920
anamɔn	-6921
foɔɔmo	-6922
▁asimu	-6923
▁atumu	-6924
▁betoo	-6925
▁dropi	-6926
▁fromf	-6927
▁hwehɛ	-6928
▁hwwee	-6929
▁muaye	-6930
▁mɛnto	-6931
▁nhame	-6932
▁nyirɛ	-6933
▁obehu	-6934
▁obesi	-6935
▁obetu	-6936
▁obewu	-6937
▁osika	-6938
▁state	-6939
▁strai	-6940
▁tanwo	-6941
▁under	-6942
▁wowrɛ	-6943
▁ɛsisi	-6944
▁ɛsoso	-6945
akwaaba	-6946
llitary	-6947
▁abewia	-6948
▁abrɔbɛ	-6949
▁aburoo	-6950
▁abɛbuo	-6951
▁adeshi	-6952
▁adress	-6953
▁aduoɔw	-6954
▁adwena	-6955
▁afieyi	-6956
▁afofei	-6957
▁afoofi	-6958
▁afɔdeɛ	-6959
▁agodie	-6960
▁ahomte	-6961
▁akroma	-6962
▁alapaa	-6963
▁amanea	-6964
▁ammɛpa	-6965
▁ananse	-6966
▁antoba	-6967
▁apaawa	-6968
▁apakan	-6969
▁apatre	-6970
▁apegya	-6971
▁asanna	-6972
▁ateiti	-6973
▁awowoɔ	-6974
▁ayefrɔ	-6975
▁ayeree	-6976
▁babyee	-6977
▁banfan	-6978
▁basket	-6979
▁beauty	-6980
▁begyaa	-6981
▁biabia	-6982
▁biafem	-6983
▁borɔno	-6984
▁brɛwww	-6985
▁brɛyɛn	-6986
▁brɛɛme	-6987
▁bukyia	-6988
▁buroni	-6989
▁bɔmpae	-6990
▁bɛbene	-6991
▁bɛbtoo	-6992
▁bɛhwɛɛ	-6993
▁bɛkoto	-6994
▁bɛkume	-6995
▁bɛkyɛɛ	-6996
▁bɛmane	-6997
▁bɛtotɔ	-6998
▁debiaa	-6999
dwam	-7000
dɛsɛ	-7001
abutu	-7002
agyan	-7003
asisi	-7004
dwamu	-7005
kyɛdɛ	-7006
masea	-7007
posal	-7008
pɛɛsi	-7009
▁bodɛ	-7010
▁diem	-7011
▁kumm	-7012
▁mɛno	-7013
▁oben	-7014
▁ɔwoa	-7015
antene	-7016
efrisɛ	-7017
metire	-7018
soɔben	-7019
sɛdɛsɛ	-7020
tirewɔ	-7021
▁aaaah	-7022
▁aaane	-7023
▁basea	-7024
▁bosea	-7025
▁daben	-7026
▁dieer	-7027
▁ehwie	-7028
▁maprɔ	-7029
▁mebuu	-7030
▁mombo	-7031
▁momfa	-7032
▁mɛnim	-7033
▁npena	-7034
▁prayɛ	-7035
▁redwa	-7036
▁renfu	-7037
▁sisea	-7038
▁sɔpɛɛ	-7039
▁woben	-7040
▁wonoa	-7041
▁works	-7042
▁ɔsofo	-7043
▁ɔwowɔ	-7044
▁ɛfisɛ	-7045
▁ɛnkoa	-7046
▁ɛtene	-7047
agyanan	-7048
akotene	-7049
anisosɛ	-7050
antesea	-7051
menpena	-7052
yingena	-7053
▁aguagu	-7054
▁ahenie	-7055
▁badwam	-7056
▁bɛtene	-7057
▁dadwen	-7058
▁deɛɔmo	-7059
▁deɛɛwɔ	-7060
▁distur	-7061
▁domfoɔ	-7062
▁dragon	-7063
▁dressi	-7064
▁drinka	-7065
▁dubena	-7066
▁dunnan	-7067
▁dwaben	-7068
▁dwenso	-7069
▁dɔkɔdɔ	-7070
▁ebiame	-7071
▁edware	-7072
▁eeeeii	-7073
▁eeiama	-7074
▁ekumaa	-7075
▁ekurom	-7076
▁enidie	-7077
▁enndeɛ	-7078
▁ennɛra	-7079
▁enough	-7080
▁ensisi	-7081
▁epagya	-7082
▁etwamu	-7083
▁ewieyɛ	-7084
▁ewuraa	-7085
▁faobuo	-7086
▁fitaaa	-7087
▁forken	-7088
▁gadget	-7089
▁gigigi	-7090
▁gyidiɛ	-7091
▁hinham	-7092
▁hweaaa	-7093
▁hwieyɛ	-7094
▁insult	-7095
▁kokota	-7096
▁kokram	-7097
▁koofie	-7098
▁kuffoɔ	-7099
dwee	-7100
llof	-7101
llow	-7102
▁peo	-7103
abeti	-7104
andon	-7105
asana	-7106
ollof	-7107
tɔɔyɛ	-7108
▁egom	-7109
▁peop	-7110
▁road	-7111
▁somw	-7112
▁ɔtɔɔ	-7113
abɔdwe	-7114
anpene	-7115
atɛmsɛ	-7116
bɔneyɛ	-7117
ketewa	-7118
omaame	-7119
▁abana	-7120
▁allow	-7121
▁fiieɛ	-7122
▁krono	-7123
▁kroum	-7124
▁pemsɛ	-7125
▁peteɛ	-7126
▁resho	-7127
▁roman	-7128
▁suieɛ	-7129
▁tuieɛ	-7130
▁wombɛ	-7131
▁womim	-7132
▁wookɔ	-7133
▁ɔkeka	-7134
▁ɛkeka	-7135
▁ɛnkɔm	-7136
adaworo	-7137
asanato	-7138
▁adwayɛ	-7139
▁anpene	-7140
▁ataadi	-7141
▁boɔdin	-7142
▁dabɔne	-7143
▁dayone	-7144
▁egyimi	-7145
▁huuieɛ	-7146
▁krofoɔ	-7147
▁kukuku	-7148
▁kukumu	-7149
▁kurumu	-7150
▁kwaadu	-7151
▁kyempɛ	-7152
▁kɔroom	-7153
▁kɔtɔkɔ	-7154
▁listen	-7155
▁madwen	-7156
▁mafunu	-7157
▁makoko	-7158
▁makoma	-7159
▁makɔma	-7160
▁mamane	-7161
▁manida	-7162
▁maniso	-7163
▁masere	-7164
▁masisi	-7165
▁matoto	-7166
▁matter	-7167
▁mebofu	-7168
▁mefefa	-7169
▁mefira	-7170
▁mefiti	-7171
▁mekuni	-7172
▁mekyem	-7173
▁memmoa	-7174
▁mesama	-7175
▁mesrew	-7176
▁mesupp	-7177
▁metoto	-7178
▁mewerɛ	-7179
▁mewife	-7180
▁mfasoɔ	-7181
▁miemia	-7182
▁mmayɛn	-7183
▁mobile	-7184
▁mobɛba	-7185
▁mobɛbɔ	-7186
▁moneno	-7187
▁mopene	-7188
▁mperee	-7189
▁mprenu	-7190
▁mɛkata	-7191
▁mɛpene	-7192
▁nakoma	-7193
▁nawahu	-7194
▁naɛyaa	-7195
▁nbrɔfo	-7196
▁ndidiɛ	-7197
▁nehotɔ	-7198
▁ngyimi	-7199
oal	-7200
kron	-7201
toni	-7202
ɔson	-7203
adeda	-7204
anpan	-7205
ially	-7206
monfa	-7207
oalpo	-7208
sukuu	-7209
tting	-7210
uting	-7211
wopre	-7212
ɔsofo	-7213
▁afor	-7214
▁alol	-7215
▁also	-7216
▁dwoo	-7217
▁epue	-7218
▁nkuu	-7219
▁opue	-7220
▁pɔne	-7221
▁pɔwo	-7222
▁taan	-7223
▁ɔkuu	-7224
anyɛne	-7225
diewei	-7226
hehyeɛ	-7227
oalpot	-7228
puesie	-7229
▁aforo	-7230
▁afotu	-7231
▁alolo	-7232
▁bekum	-7233
▁bɛkum	-7234
▁dwomo	-7235
▁lilly	-7236
▁mekro	-7237
▁mepue	-7238
▁mesoo	-7239
▁mmhmm	-7240
▁mobue	-7241
▁nabue	-7242
▁nepue	-7243
▁nkuru	-7244
▁nnɔso	-7245
▁nsuom	-7246
▁nsuta	-7247
▁ntasu	-7248
▁nufuo	-7249
▁otiri	-7250
▁pɔtee	-7251
▁repue	-7252
▁soade	-7253
▁stran	-7254
▁wɔtɔɔ	-7255
▁ɛnbue	-7256
▁ɛnkro	-7257
▁ɛwowɔ	-7258
adwoama	-7259
fitting	-7260
krokron	-7261
▁afofie	-7262
▁bɛnyim	-7263
▁dampan	-7264
▁dating	-7265
▁foɔade	-7266
▁gyaase	-7267
▁kentii	-7268
▁kɔanyɛ	-7269
▁masino	-7270
▁naabue	-7271
▁netiri	-7272
▁ngɔtwe	-7273
▁nhaban	-7274
▁nhunuu	-7275
▁nideɛe	-7276
▁nkolaa	-7277
▁nkonta	-7278
▁nkonto	-7279
▁nkonua	-7280
▁nkuraa	-7281
▁nkyemu	-7282
▁nnaano	-7283
▁nnɔnkɔ	-7284
▁nobasa	-7285
▁nobody	-7286
▁nobɔne	-7287
▁nohwaa	-7288
▁nokwre	-7289
▁nomeka	-7290
▁nonsia	-7291
▁nonson	-7292
▁noraml	-7293
▁nowhaa	-7294
▁noɛɛfɛ	-7295
▁nsanee	-7296
▁nsendi	-7297
▁nsifɔm	-7298
▁nsroma	-7299
nnn	-7300
rnn	-7301
meyɔ	-7302
nnra	-7303
taga	-7304
aberɛ	-7305
iness	-7306
menya	-7307
ponsi	-7308
rrnnn	-7309
saiah	-7310
yɔbaa	-7311
ɛnbue	-7312
▁eehh	-7313
▁etwi	-7314
▁hire	-7315
▁hɛɛɛ	-7316
▁onyɔ	-7317
▁ooyɔ	-7318
▁sonn	-7319
▁wumu	-7320
▁ɛmbɔ	-7321
▁ɛmbɛ	-7322
▁ɛmpa	-7323
▁ɛmrɛ	-7324
▁ɛrnn	-7325
adawor	-7326
anisuo	-7327
dɛɛfoɔ	-7328
henepa	-7329
kuduro	-7330
ntidua	-7331
▁ahayɔ	-7332
▁anamo	-7333
▁anasa	-7334
▁asuro	-7335
▁babia	-7336
▁bɛnnn	-7337
▁enwum	-7338
▁haram	-7339
▁haɔmo	-7340
▁mosuo	-7341
▁watwi	-7342
▁whose	-7343
▁wiaeɛ	-7344
▁wiamu	-7345
▁wiasɛ	-7346
▁ɛfame	-7347
▁ɛtaga	-7348
▁ɛtwem	-7349
komenya	-7350
▁adwumi	-7351
▁afekuo	-7352
▁anɔpae	-7353
▁babibi	-7354
▁daberɛ	-7355
▁dɛɛfoɔ	-7356
▁isaiah	-7357
▁kekawo	-7358
▁mokasɛ	-7359
▁mɛkɔnn	-7360
▁naduro	-7361
▁neɛnti	-7362
▁ngyena	-7363
▁nnante	-7364
▁nsɛkuo	-7365
▁ntafoɔ	-7366
▁nteamu	-7367
▁nteɛso	-7368
▁ntotoɛ	-7369
▁nwaste	-7370
▁nworry	-7371
▁nwuieɛ	-7372
▁nwɔnko	-7373
▁nyenye	-7374
▁nyɔtwe	-7375
▁ofiisɛ	-7376
▁ofitaa	-7377
▁ohwahu	-7378
▁okrist	-7379
▁okyina	-7380
▁osuaye	-7381
▁otteng	-7382
▁owuona	-7383
▁pahwan	-7384
▁pampes	-7385
▁papano	-7386
▁pemfoɔ	-7387
▁people	-7388
▁plains	-7389
▁planne	-7390
▁prayer	-7391
▁pressu	-7392
▁redane	-7393
▁redela	-7394
▁redwen	-7395
▁refeed	-7396
▁rekyea	-7397
▁remawo	-7398
▁resane	-7399
flo	-7400
log	-7401
aapɔ	-7402
ablo	-7403
ammɔ	-7404
awoɔ	-7405
kpon	-7406
loon	-7407
onea	-7408
senn	-7409
▁ɔpɔ	-7410
▁ɔtɛ	-7411
▁ɛpɔ	-7412
ayɛpɔ	-7413
endua	-7414
flotu	-7415
itaho	-7416
logue	-7417
mmɔho	-7418
naasɛ	-7419
oonea	-7420
unyam	-7421
wonso	-7422
▁aɔte	-7423
▁ferɛ	-7424
▁kalo	-7425
▁medɛ	-7426
▁twii	-7427
▁yɛpɔ	-7428
▁ɛfaa	-7429
▁ɛsen	-7430
awofoɔ	-7431
dagyie	-7432
kenkan	-7433
▁awɔso	-7434
▁byeee	-7435
▁emusa	-7436
▁konko	-7437
▁kɔtoa	-7438
▁nafei	-7439
▁osiwo	-7440
▁potin	-7441
▁soron	-7442
▁sɛɛwo	-7443
▁sɛɛwɔ	-7444
▁wobɔɔ	-7445
▁wodii	-7446
▁wonpɔ	-7447
adwenwɔ	-7448
wensenn	-7449
▁adesoa	-7450
▁ammɔho	-7451
▁asadua	-7452
▁gyideɛ	-7453
▁kalomo	-7454
▁konkon	-7455
▁kutupa	-7456
▁medɔfo	-7457
▁meferɛ	-7458
▁resesa	-7459
▁retete	-7460
▁retoto	-7461
▁rewash	-7462
▁saloon	-7463
▁saneno	-7464
▁seanka	-7465
▁seesei	-7466
▁serɛwo	-7467
▁shishi	-7468
▁shorts	-7469
▁sikani	-7470
▁simpoa	-7471
▁sososo	-7472
▁stable	-7473
▁stairs	-7474
▁stoopi	-7475
▁studie	-7476
▁sweety	-7477
▁sɛmeka	-7478
▁sɛnmpo	-7479
▁sɛɛnyɛ	-7480
▁taking	-7481
▁teafoɔ	-7482
▁temper	-7483
▁tiriso	-7484
▁toliii	-7485
▁tufour	-7486
▁tutubɔ	-7487
▁waboro	-7488
▁wabubu	-7489
▁wabɛfa	-7490
▁wagyad	-7491
▁wanfii	-7492
▁wannka	-7493
▁wayɛno	-7494
▁wedidi	-7495
▁weduro	-7496
▁weekmɛ	-7497
▁wisdom	-7498
▁wobiar	-7499
abua	-7500
awuo	-7501
brew	-7502
pper	-7503
ɛdin	-7504
adawo	-7505
agyai	-7506
annya	-7507
entra	-7508
▁afir	-7509
▁aɔbɛ	-7510
▁bepɔ	-7511
▁hang	-7512
▁mbre	-7513
▁momɛ	-7514
▁nfri	-7515
bosome	-7516
entral	-7517
▁abera	-7518
▁abere	-7519
▁afisɛ	-7520
▁befri	-7521
▁bɔɔso	-7522
▁hanso	-7523
▁kofri	-7524
▁meebɛ	-7525
▁meeme	-7526
▁meepɛ	-7527
▁nesuo	-7528
▁nufuɔ	-7529
▁onnya	-7530
▁renya	-7531
▁sobre	-7532
▁spent	-7533
▁wasum	-7534
▁wommɔ	-7535
▁ɔmang	-7536
▁ɛnnom	-7537
adawoma	-7538
▁afifie	-7539
▁botwoo	-7540
▁dindin	-7541
▁kruokɛ	-7542
▁mefrɛɛ	-7543
▁mireka	-7544
▁mmerɛw	-7545
▁monfri	-7546
▁nyaaka	-7547
▁otwamu	-7548
▁wobebo	-7549
▁woberɛ	-7550
▁wobɔte	-7551
▁wokora	-7552
▁wokuro	-7553
▁wommrɛ	-7554
▁wonihɔ	-7555
▁wonipa	-7556
▁wonkoa	-7557
▁wonnum	-7558
▁wontem	-7559
▁wontom	-7560
▁wopena	-7561
▁woreyi	-7562
▁woreyɛ	-7563
▁wosane	-7564
▁wosɔfo	-7565
▁wotare	-7566
▁wotime	-7567
▁wotire	-7568
▁wowife	-7569
▁wowobe	-7570
▁woyale	-7571
▁woyare	-7572
▁woyeyɛ	-7573
▁woyini	-7574
▁woyumi	-7575
▁wɔbɛfa	-7576
▁wɔhoro	-7577
▁wɔhuhu	-7578
▁wɔkuro	-7579
▁wɔmmfa	-7580
▁wɔnfii	-7581
▁wɔrekɔ	-7582
▁wɔsosɔ	-7583
▁wɔyare	-7584
▁wɛtimi	-7585
▁yaresa	-7586
▁yebedi	-7587
▁yeeyie	-7588
▁yirrrr	-7589
▁yiɛyaa	-7590
▁yɛbetu	-7591
▁yɛfrɛi	-7592
▁yɛguso	-7593
▁yɛkuta	-7594
▁yɛkyea	-7595
▁yɛmumu	-7596
▁yɛnnom	-7597
▁yɛntem	-7598
▁yɛreka	-7599
got	-7600
ohn	-7601
prr	-7602
apem	-7603
less	-7604
ness	-7605
nsam	-7606
prrr	-7607
rrie	-7608
sage	-7609
ɛdan	-7610
▁low	-7611
▁ɛrr	-7612
ahome	-7613
kness	-7614
kuoda	-7615
ordan	-7616
rried	-7617
▁ange	-7618
▁awur	-7619
▁boym	-7620
▁kana	-7621
▁mess	-7622
▁seni	-7623
▁yess	-7624
akasam	-7625
danfoɔ	-7626
gotten	-7627
hisage	-7628
homhom	-7629
nsamfo	-7630
prrrri	-7631
▁abubu	-7632
▁abunu	-7633
▁aburu	-7634
▁angel	-7635
▁atugu	-7636
▁bless	-7637
▁bɛdan	-7638
▁bɛpem	-7639
▁eguwo	-7640
▁ekyɛn	-7641
▁feaaa	-7642
▁forge	-7643
▁frige	-7644
▁medan	-7645
▁mfono	-7646
▁noami	-7647
▁repem	-7648
▁sakuo	-7649
▁sendi	-7650
▁sense	-7651
▁shodi	-7652
▁wobuu	-7653
▁wohua	-7654
▁wɔnhu	-7655
▁wɔnie	-7656
▁yawre	-7657
▁ɔdane	-7658
▁ɔkyen	-7659
apempem	-7660
prrrrii	-7661
▁abaaba	-7662
▁ahemaa	-7663
▁ahunum	-7664
▁anɔkye	-7665
▁awurde	-7666
▁bɔkɔɔk	-7667
▁menshɛ	-7668
▁mɛsɔre	-7669
▁nkuran	-7670
▁nsɛtwe	-7671
▁points	-7672
▁senior	-7673
▁sensam	-7674
▁sɛbisɛ	-7675
▁sɛbita	-7676
▁willia	-7677
▁wohuno	-7678
▁yɛbɛtu	-7679
▁yɛtase	-7680
▁yɛtutu	-7681
▁yɛtuwo	-7682
▁yɛɛpre	-7683
▁ɔbenya	-7684
▁ɔbɔtra	-7685
▁ɔbɛnom	-7686
▁ɔbɛsen	-7687
▁ɔbɛyam	-7688
▁ɔdress	-7689
▁ɔgyena	-7690
▁ɔkaakɔ	-7691
▁ɔkwani	-7692
▁ɔkyeem	-7693
▁ɔkɔbɔɔ	-7694
▁ɔkɔfaa	-7695
▁ɔkɔsɔɔ	-7696
▁ɔmoeni	-7697
▁ɔmonya	-7698
▁ɔnkasɛ	-7699
apo	-7700
▁ut	-7701
eerr	-7702
otuo	-7703
atian	-7704
fotuo	-7705
tukor	-7706
yansa	-7707
▁boni	-7708
▁bonw	-7709
▁esii	-7710
▁lest	-7711
▁ɔdae	-7712
▁ɛtrɛ	-7713
adesrɛ	-7714
ataade	-7715
inkyen	-7716
tukorm	-7717
umɔbrɔ	-7718
▁akyew	-7719
▁aobaa	-7720
▁bonua	-7721
▁bɛyɛɛ	-7722
▁eeerr	-7723
▁fofuo	-7724
▁hwiee	-7725
▁hyeeɛ	-7726
▁maɔmo	-7727
▁metɛn	-7728
▁moafa	-7729
▁moasi	-7730
▁neerr	-7731
▁noɛyɛ	-7732
▁renkɔ	-7733
▁sɛɛyɛ	-7734
▁whamɔ	-7735
▁wɔade	-7736
▁yɛbɔɔ	-7737
▁ɔhamu	-7738
▁ɛeerr	-7739
pinkyen	-7740
rebeeee	-7741
yansafo	-7742
▁akyerɔ	-7743
▁antwɛn	-7744
▁bonwhi	-7745
▁mayɛno	-7746
▁mentea	-7747
▁mmotuo	-7748
▁moakyɛ	-7749
▁momgye	-7750
▁ntiɛyɛ	-7751
▁sɛotuo	-7752
▁wohuni	-7753
▁wontee	-7754
▁yɛbɛfa	-7755
▁ɔnkyɛn	-7756
▁ɔnkɔtɔ	-7757
▁ɔnpamo	-7758
▁ɔnpɛsɛ	-7759
▁ɔnsore	-7760
▁ɔnsɔre	-7761
▁ɔnwieɛ	-7762
▁ɔnyale	-7763
▁ɔnyare	-7764
▁ɔnyɛwo	-7765
▁ɔpitii	-7766
▁ɔredue	-7767
▁ɔrehaw	-7768
▁ɔrenni	-7769
▁ɔsedii	-7770
▁ɔtaaba	-7771
▁ɔtaamu	-7772
▁ɔtenaa	-7773
▁ɔtsena	-7774
▁ɔyɛɛno	-7775
▁ɛbaayɛ	-7776
▁ɛbɛyea	-7777
▁ɛdwiri	-7778
▁ɛdɔɔso	-7779
▁ɛhyemu	-7780
▁ɛkoraa	-7781
▁ɛmmere	-7782
▁ɛmpatu	-7783
▁ɛnaano	-7784
▁ɛnaɛnɛ	-7785
▁ɛnaɛyɛ	-7786
▁ɛnbobɔ	-7787
▁ɛnboro	-7788
▁ɛnbɛwɔ	-7789
▁ɛneyɛɛ	-7790
▁ɛnisoɔ	-7791
▁ɛnkɔfa	-7792
▁ɛnkɔsi	-7793
▁ɛnoaaa	-7794
▁ɛnpepa	-7795
▁ɛnsɔwe	-7796
▁ɛnsɛsɛ	-7797
▁ɛnɛnso	-7798
▁ɛsakra	-7799
gina	-7800
kyeɛ	-7801
kɛsɛ	-7802
wild	-7803
wyan	-7804
antan	-7805
apata	-7806
asusu	-7807
atɔwa	-7808
metan	-7809
umdwe	-7810
▁ediw	-7811
▁euni	-7812
▁gyeɛ	-7813
▁kiss	-7814
▁kyeɛ	-7815
▁opie	-7816
▁wokɛ	-7817
▁wusu	-7818
▁ɔhia	-7819
▁ɛkai	-7820
ansana	-7821
inatua	-7822
liwyan	-7823
▁afutu	-7824
▁ammam	-7825
▁asusu	-7826
▁bohye	-7827
▁brono	-7828
▁broso	-7829
▁edidi	-7830
▁ewase	-7831
▁hanna	-7832
▁mehye	-7833
▁nsusu	-7834
▁onnim	-7835
▁teɛte	-7836
▁wohye	-7837
▁wotan	-7838
▁wowuo	-7839
▁wɔnim	-7840
▁ɛhyee	-7841
▁ɛkawo	-7842
mentumi	-7843
metanfo	-7844
▁abatan	-7845
▁ahohia	-7846
▁anyɛwo	-7847
▁awiayi	-7848
▁berɛme	-7849
▁ghanai	-7850
▁hannah	-7851
▁mentan	-7852
▁metemu	-7853
▁obaabe	-7854
▁obaabi	-7855
▁obaana	-7856
▁obaano	-7857
▁obinim	-7858
▁teɛtea	-7859
▁wogina	-7860
▁wonhia	-7861
▁wonwoo	-7862
▁ɛkasei	-7863
▁ɛsande	-7864
▁ɛsanso	-7865
▁ɛtenaa	-7866
▁ɛtumii	-7867
▁ɛtwere	-7868
▁ɛwosoɔ	-7869
▁ɛyaame	-7870
▁ɛyɛnwo	-7871
abankɛse	-7872
abɔdwesɛ	-7873
adaasɔre	-7874
adaworom	-7875
ahusɛnea	-7876
akyerɛsɛ	-7877
akyiring	-7878
amammerɛ	-7879
anhwehwɛ	-7880
ankahwee	-7881
antandeɛ	-7882
anyinsɛn	-7883
apomuden	-7884
asumasɛm	-7885
atɔwagye	-7886
ayɛnmmoa	-7887
ayɛpɔtee	-7888
bitibiti	-7889
brempong	-7890
erything	-7891
famfemam	-7892
ghanafoɔ	-7893
grewuuuu	-7894
gyaigyai	-7895
harleywo	-7896
iadamfoɔ	-7897
korodɔsɔ	-7898
korɔkorɔ	-7899
atɛ	-7900
atwi	-7901
atɔn	-7902
hsua	-7903
▁ini	-7904
ahyie	-7905
bɛɛma	-7906
eeehh	-7907
rimon	-7908
tions	-7909
▁akuf	-7910
▁eeei	-7911
▁info	-7912
▁meat	-7913
▁nnoa	-7914
▁proo	-7915
▁prou	-7916
▁spon	-7917
▁spor	-7918
▁ɛsɔɔ	-7919
eeehhh	-7920
gailyɛ	-7921
hyiayi	-7922
trimon	-7923
yamfoɔ	-7924
ɛnhyia	-7925
▁abetu	-7926
▁akuta	-7927
▁bɔsea	-7928
▁duabo	-7929
▁edepa	-7930
▁ekunu	-7931
▁nnoma	-7932
▁nnope	-7933
▁proud	-7934
▁soyie	-7935
▁wieeɛ	-7936
▁wiepɛ	-7937
▁wieyɛ	-7938
▁ɔbɔeɛ	-7939
▁ɔbɔsi	-7940
▁ɔhyia	-7941
▁ɛdane	-7942
▁ɛhawo	-7943
▁ɛhayɛ	-7944
▁ɛkano	-7945
▁ɛmpri	-7946
kerhwie	-7947
rmation	-7948
tention	-7949
wiridie	-7950
▁abhsua	-7951
▁aduaba	-7952
▁aduruo	-7953
▁akuffo	-7954
▁anyame	-7955
▁asabea	-7956
▁bɛhyia	-7957
▁damfoɔ	-7958
▁dwenee	-7959
▁efieha	-7960
▁initia	-7961
▁kruomu	-7962
▁mehyia	-7963
▁metutu	-7964
▁mmaano	-7965
▁nkosua	-7966
▁sporta	-7967
▁thinks	-7968
▁wobaha	-7969
▁yɛhyia	-7970
▁ɛdware	-7971
adamfofa	-7972
korɔmfoɔ	-7973
kuruwamu	-7974
kwerɛfoɔ	-7975
mmakakra	-7976
nyebiara	-7977
olisifoɔ	-7978
onyamfoɔ	-7979
panimfoɔ	-7980
pawokyew	-7981
ponsible	-7982
pportuni	-7983
saansɛwo	-7984
semblies	-7985
sɛmetire	-7986
twempena	-7987
untukorm	-7988
▁aanaasɛ	-7989
▁abebisa	-7990
▁abebusa	-7991
▁abooboo	-7992
▁abotere	-7993
▁abrateɛ	-7994
▁abrɔsan	-7995
▁abɛkyea	-7996
▁abɛyeyɛ	-7997
▁adamfoɔ	-7998
▁adaroma	-7999
ely	-8000
ather	-8001
basem	-8002
nbisa	-8003
rella	-8004
yɛnho	-8005
ɛkwan	-8006
▁adae	-8007
▁efis	-8008
▁eyie	-8009
▁full	-8010
▁funi	-8011
▁futu	-8012
▁hasn	-8013
▁hyie	-8014
anitua	-8015
bebisa	-8016
sibiom	-8017
wɔpamo	-8018
▁awobɛ	-8019
▁efibo	-8020
▁fresh	-8021
▁korɔm	-8022
▁mbisa	-8023
▁mmɛyɛ	-8024
▁mommɛ	-8025
▁mpere	-8026
▁mɛmmɛ	-8027
▁nesem	-8028
▁nhyie	-8029
▁raise	-8030
▁woada	-8031
▁wɛwie	-8032
▁yetua	-8033
▁ɔbaeɛ	-8034
derella	-8035
nbisawo	-8036
▁adagya	-8037
▁adiyie	-8038
▁atɔfoɔ	-8039
▁ayeyia	-8040
▁ayeyie	-8041
▁bɛgyee	-8042
▁double	-8043
▁efissɛ	-8044
▁either	-8045
▁gididi	-8046
▁matete	-8047
▁mensem	-8048
▁mmɛmma	-8049
▁ndwene	-8050
▁nsesae	-8051
▁nɔnson	-8052
▁ontimi	-8053
▁sereyɛ	-8054
▁woakyɛ	-8055
▁wotimi	-8056
▁yabisa	-8057
▁ɔdwene	-8058
▁ɔretua	-8059
▁ɛnnoɔm	-8060
▁adeɛasa	-8061
▁adeɛnti	-8062
▁aduanan	-8063
▁aduason	-8064
▁adumano	-8065
▁afotuoa	-8066
▁aguaseɛ	-8067
▁agwareɛ	-8068
▁agyeiii	-8069
▁agyinam	-8070
▁ahiafoɔ	-8071
▁ahohoyɛ	-8072
▁ahokeka	-8073
▁akokora	-8074
▁akomapa	-8075
▁akonnwa	-8076
▁akotene	-8077
▁amaakuo	-8078
▁amakyɛm	-8079
▁amanieɛ	-8080
▁amanneɛ	-8081
▁amanone	-8082
▁amiamia	-8083
▁amirika	-8084
▁ammaneɛ	-8085
▁anamong	-8086
▁aniagye	-8087
▁aniamoɔ	-8088
▁animono	-8089
▁anteade	-8090
▁antobam	-8091
▁anumerɛ	-8092
▁anyiɛyɛ	-8093
▁anytime	-8094
▁anɔpano	-8095
▁anɔpayi	-8096
▁apaapae	-8097
▁apamowo	-8098
▁apanpan	-8099
atie	-8100
fɛre	-8101
nkɔm	-8102
rega	-8103
▁ɔid	-8104
antie	-8105
dwoma	-8106
fɛfoɔ	-8107
hweya	-8108
neasa	-8109
tiamu	-8110
ument	-8111
▁dɛen	-8112
▁fɛfɛ	-8113
▁gafa	-8114
▁hyea	-8115
▁mefɛ	-8116
▁nefɛ	-8117
▁otie	-8118
▁toro	-8119
▁ɔyea	-8120
▁ɔyem	-8121
▁ɛhwe	-8122
▁ɛtwɛ	-8123
anfɛre	-8124
asomaa	-8125
dwodwo	-8126
kɔɔfoɔ	-8127
mkyere	-8128
tietie	-8129
weɛpaa	-8130
▁aboro	-8131
▁bebri	-8132
▁bremu	-8133
▁etiri	-8134
▁fufoɔ	-8135
▁hodwo	-8136
▁hyeaɛ	-8137
▁metie	-8138
▁moaso	-8139
▁naaso	-8140
▁osime	-8141
▁round	-8142
▁sonea	-8143
▁wadwo	-8144
▁wotie	-8145
▁yetie	-8146
▁yɛkɔɔ	-8147
▁ɛmomɔ	-8148
atiedeɛ	-8149
kyeremu	-8150
▁agopra	-8151
▁agyiga	-8152
▁awɔsee	-8153
▁borega	-8154
▁deɛɛna	-8155
▁kaabom	-8156
▁kamaka	-8157
▁mentia	-8158
▁nonnom	-8159
▁onyini	-8160
▁tietia	-8161
▁wantia	-8162
▁yɛɛnsɔ	-8163
▁ɛbɛdwo	-8164
▁ɛkyere	-8165
▁ɛkɔnkɔ	-8166
▁ɛtwɛbo	-8167
abaayewa	-8168
andwodwo	-8169
asomaawo	-8170
kankyere	-8171
▁ankyere	-8172
▁apemfoɔ	-8173
▁apomase	-8174
▁asedana	-8175
▁asedawɔ	-8176
▁asotere	-8177
▁asɛmhia	-8178
▁asɛmnti	-8179
▁atumpan	-8180
▁awanwan	-8181
▁awewewe	-8182
▁awiseaa	-8183
▁awresuo	-8184
▁awɔsena	-8185
▁ayakaya	-8186
▁ayoonea	-8187
▁aɛwɔsɛɛ	-8188
▁baffour	-8189
▁bebreea	-8190
▁bedwamu	-8191
▁begyina	-8192
▁bekyina	-8193
▁belgium	-8194
▁besiaba	-8195
▁biarana	-8196
▁biarano	-8197
▁bibiaaa	-8198
▁biblemu	-8199
eli	-8200
eeli	-8201
mour	-8202
osua	-8203
uali	-8204
uito	-8205
▁tal	-8206
▁ɔdw	-8207
akura	-8208
aring	-8209
eduru	-8210
least	-8211
yiine	-8212
▁bour	-8213
▁hour	-8214
▁mmɔɔ	-8215
▁otea	-8216
▁poku	-8217
▁poso	-8218
▁sɛaf	-8219
afeeli	-8220
ahyira	-8221
brasɛm	-8222
uality	-8223
wumerɛ	-8224
ɔneɛne	-8225
▁abrew	-8226
▁adore	-8227
▁alone	-8228
▁atire	-8229
▁bɔbra	-8230
▁bɛsɛn	-8231
▁disli	-8232
▁kɔɔyɛ	-8233
▁mmɔka	-8234
▁mokɔɔ	-8235
▁oduru	-8236
▁pueyɛ	-8237
▁thwen	-8238
▁wabra	-8239
▁woprɔ	-8240
▁yooan	-8241
▁yɛɛfa	-8242
abɛduru	-8243
akurase	-8244
akɔmfoɔ	-8245
durufoɔ	-8246
▁abrofo	-8247
▁abɛnya	-8248
▁ahonho	-8249
▁aniamɔ	-8250
▁anisoɔ	-8251
▁ankyea	-8252
▁ayɛsɛn	-8253
▁brabra	-8254
▁bɛyɛsɛ	-8255
▁future	-8256
▁kɔduru	-8257
▁little	-8258
▁monbra	-8259
▁pokuaa	-8260
▁rumour	-8261
▁sensen	-8262
▁sɛafei	-8263
▁talent	-8264
▁woduru	-8265
▁yɛɛboa	-8266
▁ɔyiine	-8267
▁ɛneɛma	-8268
▁aboakye	-8269
▁amamerɛ	-8270
▁atleast	-8271
▁bihyehɛ	-8272
▁boflotu	-8273
▁bomofoɔ	-8274
▁bonuayɛ	-8275
▁bottles	-8276
▁bronibi	-8277
▁broniho	-8278
▁busuani	-8279
▁bɔdamfo	-8280
▁bɔdamni	-8281
▁bɛkyere	-8282
▁daabioh	-8283
▁daddyne	-8284
▁details	-8285
▁deɛadɛn	-8286
▁domaase	-8287
▁dompene	-8288
▁dunsini	-8289
▁dwoodwo	-8290
▁dɛdɛɛdɛ	-8291
▁dɛnɛnkɔ	-8292
▁ebekume	-8293
▁edinkan	-8294
▁eeeiiii	-8295
▁eeiiɔte	-8296
▁efitete	-8297
▁einanso	-8298
▁engyena	-8299
esh	-8300
ges	-8301
pii	-8302
adii	-8303
apae	-8304
bies	-8305
seno	-8306
▁eks	-8307
▁run	-8308
banbɔ	-8309
bbies	-8310
kaamo	-8311
kaasa	-8312
kages	-8313
nkasa	-8314
yɛkaa	-8315
▁asae	-8316
▁nbue	-8317
▁papi	-8318
▁sees	-8319
▁song	-8320
▁ɔtee	-8321
iripii	-8322
teaseɛ	-8323
weeiii	-8324
▁abusa	-8325
▁ahead	-8326
▁ayite	-8327
▁besie	-8328
▁bewia	-8329
▁mmobɔ	-8330
▁ngyae	-8331
▁ogyae	-8332
▁refee	-8333
▁reste	-8334
▁shows	-8335
▁tuafi	-8336
▁wapra	-8337
▁wonii	-8338
▁ɔkasa	-8339
▁ɔtesɛ	-8340
▁ɛhyɛɛ	-8341
▁ɛkyɛw	-8342
▁ɛtese	-8343
kaamoto	-8344
▁agyeii	-8345
▁amanda	-8346
▁asagya	-8347
▁ayitey	-8348
▁blames	-8349
▁eating	-8350
▁efirii	-8351
▁enkasa	-8352
▁menkaa	-8353
▁mmofra	-8354
▁mmɛfrɛ	-8355
▁mokyɛw	-8356
▁mɛbɔka	-8357
▁mɛkasa	-8358
▁pakyɛw	-8359
▁regyae	-8360
▁wakasa	-8361
▁ɛhyɛmu	-8362
kyɛdɛkyɛ	-8363
▁agyeesh	-8364
▁enrolli	-8365
▁ensuwae	-8366
▁enuafoɔ	-8367
▁ewuraha	-8368
▁fahodie	-8369
▁filiino	-8370
▁fingers	-8371
▁firstno	-8372
▁flowers	-8373
▁fokakra	-8374
▁forgeti	-8375
▁friends	-8376
▁galamse	-8377
▁genesis	-8378
▁ghanabɛ	-8379
▁guiness	-8380
▁gyenahɔ	-8381
▁gyerɛsɛ	-8382
▁happene	-8383
▁hofasoɔ	-8384
▁hokoraa	-8385
▁hudwoma	-8386
▁hwehwee	-8387
▁hwiebra	-8388
▁hwiwaso	-8389
▁hwɛenim	-8390
▁hwɛɛdan	-8391
▁hyehyɛm	-8392
▁insults	-8393
▁kakrane	-8394
▁kataase	-8395
▁ketrɛma	-8396
▁kohwini	-8397
▁kokomua	-8398
▁kokotii	-8399
ams	-8400
uga	-8401
amim	-8402
ampa	-8403
ghty	-8404
imii	-8405
llam	-8406
llap	-8407
stie	-8408
toam	-8409
▁got	-8410
amene	-8411
ampai	-8412
annyɛ	-8413
atimi	-8414
awerɛ	-8415
dabɛn	-8416
ennyɛ	-8417
ghter	-8418
konam	-8419
ollap	-8420
▁apie	-8421
▁apra	-8422
▁aran	-8423
▁atea	-8424
▁atee	-8425
▁emoa	-8426
▁etaa	-8427
▁foam	-8428
▁foro	-8429
▁fran	-8430
▁goer	-8431
▁isss	-8432
▁owia	-8433
▁ɔdɔm	-8434
▁ɔkra	-8435
▁ɛtaa	-8436
atwamu	-8437
auseme	-8438
mɔtoam	-8439
reɛnyɛ	-8440
taafoɔ	-8441
taataa	-8442
yaresa	-8443
▁adomw	-8444
▁apapa	-8445
▁apene	-8446
▁noyɛɛ	-8447
▁pɔsee	-8448
▁sɛɔmo	-8449
▁times	-8450
▁timii	-8451
▁wokra	-8452
▁wokɔm	-8453
▁wotuu	-8454
▁yɛtaa	-8455
▁ɔdɔye	-8456
▁ɔpɛsɔ	-8457
▁ɛdabi	-8458
▁ɛdaeɛ	-8459
ampaign	-8460
aniagye	-8461
ayaresa	-8462
hristie	-8463
medaase	-8464
ollapse	-8465
tmuɔden	-8466
▁agudeɛ	-8467
▁ahwamh	-8468
▁amount	-8469
▁aranti	-8470
▁atease	-8471
▁depapa	-8472
▁eighty	-8473
▁goerge	-8474
▁isssue	-8475
▁mallam	-8476
▁menbɛn	-8477
▁mpaemu	-8478
▁mpaeyɛ	-8479
▁rebɛka	-8480
▁wankra	-8481
▁wokɔba	-8482
▁yabɛyɛ	-8483
▁yɛnnyɛ	-8484
▁ɔmonyɛ	-8485
gyimifoɔ	-8486
▁ankonam	-8487
▁asɔreba	-8488
▁ateetee	-8489
▁bɔnebɛn	-8490
▁fighter	-8491
▁kokromo	-8492
▁kokuamu	-8493
▁korenkɔ	-8494
▁kotogwe	-8495
▁kuffour	-8496
▁kuromkɔ	-8497
▁kwamena	-8498
▁kwasiaa	-8499
ity	-8500
nsɔ	-8501
abɛb	-8502
ahin	-8503
ahye	-8504
aprɔ	-8505
fere	-8506
▁ɛsɔ	-8507
abɛhu	-8508
abɛka	-8509
abɛsi	-8510
abɛto	-8511
ankan	-8512
anyim	-8513
bɛsia	-8514
ersia	-8515
fidie	-8516
sɔfoɔ	-8517
▁tuaa	-8518
▁tugu	-8519
▁wasɔ	-8520
abɛtwe	-8521
afidie	-8522
ahinie	-8523
anfere	-8524
bɛtimi	-8525
krakra	-8526
weater	-8527
▁ahini	-8528
▁atotɔ	-8529
▁bedie	-8530
▁bidie	-8531
▁esiyɛ	-8532
▁ewoso	-8533
▁hosaa	-8534
▁hoyie	-8535
▁makra	-8536
▁matem	-8537
▁mesaa	-8538
▁nekra	-8539
▁nenso	-8540
▁outwɔ	-8541
▁soabɛ	-8542
▁twewo	-8543
▁woabɛ	-8544
▁wonsɔ	-8545
▁yɛsaa	-8546
▁ɛpram	-8547
▁ɛsɛme	-8548
▁abosia	-8549
▁adɛbɛn	-8550
▁asɛeeɛ	-8551
▁dwonsɔ	-8552
▁dɛnnie	-8553
▁enimwɔ	-8554
▁hwɛsaa	-8555
▁mmɛhwɛ	-8556
▁nenkyɛ	-8557
▁nkakan	-8558
▁persia	-8559
▁tetewa	-8560
▁toriwa	-8561
▁twetwe	-8562
▁yekuta	-8563
▁yɛbɛno	-8564
▁ɔsɔfoɔ	-8565
▁ɛnanee	-8566
kankyerɛ	-8567
▁anaasaa	-8568
▁apatase	-8569
▁berimah	-8570
▁dwammra	-8571
▁kyɛnsen	-8572
▁kɔkɔgye	-8573
▁kɔkɔhwɛ	-8574
▁lastday	-8575
▁loongoo	-8576
▁mabrabɔ	-8577
▁madamfo	-8578
▁madamme	-8579
▁mahenie	-8580
▁makokoɔ	-8581
▁makwala	-8582
▁mamenka	-8583
▁mamensa	-8584
▁mampong	-8585
▁mankasa	-8586
▁mayɛnyɛ	-8587
▁mebaabi	-8588
▁mediibi	-8589
▁medrink	-8590
▁megyina	-8591
▁mehonam	-8592
▁mehyira	-8593
▁mekurom	-8594
▁mekyina	-8595
▁mekɔbue	-8596
▁membɛka	-8597
▁memmɛdi	-8598
▁menbedi	-8599
ayoa	-8600
esan	-8601
fter	-8602
hmmm	-8603
mpaa	-8604
oama	-8605
tent	-8606
ters	-8607
tmfo	-8608
▁ɛɛɛ	-8609
paaha	-8610
rters	-8611
terta	-8612
wɛneɛ	-8613
▁ahaw	-8614
▁anoa	-8615
▁asɛe	-8616
▁asɛg	-8617
▁deal	-8618
▁ebie	-8619
▁ebio	-8620
▁wiee	-8621
▁ɛdea	-8622
bɛbiaa	-8623
esansɛ	-8624
gyebea	-8625
yafter	-8626
▁adwom	-8627
▁adwɛn	-8628
▁akosu	-8629
▁akoto	-8630
▁akowa	-8631
▁anono	-8632
▁asɛbi	-8633
▁asɛsi	-8634
▁biona	-8635
▁bɛsan	-8636
▁dapaa	-8637
▁deato	-8638
▁ebisa	-8639
▁kɔsra	-8640
▁mekɔn	-8641
▁membɔ	-8642
▁memra	-8643
▁meteɛ	-8644
▁mewɛn	-8645
▁moama	-8646
▁monmɔ	-8647
▁muama	-8648
▁obaaa	-8649
▁resan	-8650
▁retwi	-8651
▁yetuu	-8652
▁ɛbaeɛ	-8653
▁ɛbata	-8654
▁ɛnsan	-8655
onfiden	-8656
tertain	-8657
uarters	-8658
usuafoɔ	-8659
▁ahahan	-8660
▁amango	-8661
▁anobrɛ	-8662
▁anokwa	-8663
▁awereɛ	-8664
▁deɛama	-8665
▁ketete	-8666
▁mebayɛ	-8667
▁mehmmm	-8668
▁mekɔda	-8669
▁memene	-8670
▁natmfo	-8671
▁nwonwa	-8672
▁nyirɛm	-8673
▁paanie	-8674
▁paapaa	-8675
▁wampaa	-8676
▁yiepaa	-8677
▁ɔresan	-8678
▁ɔreyɛw	-8679
▁ɛyɛpaa	-8680
▁adwomto	-8681
▁akondwa	-8682
▁asɛgwie	-8683
▁atwɛneɛ	-8684
▁deɛagye	-8685
▁honeymo	-8686
▁mendaye	-8687
▁menenam	-8688
▁menkora	-8689
▁menkyea	-8690
▁menkɔfa	-8691
▁mennyae	-8692
▁menpena	-8693
▁menpepa	-8694
▁mensene	-8695
▁mensoso	-8696
▁mentete	-8697
▁mentoma	-8698
▁mentwɛn	-8699
anf	-8700
dou	-8701
eed	-8702
eel	-8703
dodo	-8704
dosa	-8705
eegu	-8706
muee	-8707
seee	-8708
ɛsan	-8709
▁dub	-8710
▁mde	-8711
▁odo	-8712
agorɔ	-8713
agyin	-8714
anfin	-8715
atetɛ	-8716
daado	-8717
kente	-8718
omhom	-8719
wanfa	-8720
wumrɛ	-8721
▁ateɛ	-8722
▁awua	-8723
▁dado	-8724
▁dufa	-8725
▁dufu	-8726
▁dura	-8727
▁hena	-8728
▁ntea	-8729
▁nwoa	-8730
▁prea	-8731
▁wubu	-8732
▁wumi	-8733
▁yenɔ	-8734
▁ɔkyɛ	-8735
anyame	-8736
double	-8737
▁afeel	-8738
▁ahome	-8739
▁akyin	-8740
▁amoah	-8741
▁basho	-8742
▁daado	-8743
▁dubri	-8744
▁errnn	-8745
▁krowa	-8746
▁namtu	-8747
▁nedɛn	-8748
▁obira	-8749
▁obisa	-8750
▁oteng	-8751
▁reyɛn	-8752
▁tofoɔ	-8753
▁wawoɔ	-8754
▁wonum	-8755
▁ɔkɔso	-8756
▁ɔteaa	-8757
agyinmi	-8758
anwumrɛ	-8759
▁abaaya	-8760
▁afeina	-8761
▁bashop	-8762
▁dadowa	-8763
▁deɛɛyɛ	-8764
▁dufudu	-8765
▁eeiide	-8766
▁enbedi	-8767
▁hanpan	-8768
▁maamem	-8769
▁mmerma	-8770
▁ntetee	-8771
▁ntoato	-8772
▁redosa	-8773
▁sɛneaɔ	-8774
▁weseee	-8775
▁wonhye	-8776
▁yɛbɛte	-8777
animmuee	-8778
anumasɛm	-8779
aranyame	-8780
▁ahomhom	-8781
▁akyinyɛ	-8782
▁akɔduru	-8783
▁apuutɔɔ	-8784
▁argumen	-8785
▁eeiisei	-8786
▁menwubɛ	-8787
▁meresaa	-8788
▁meretɔn	-8789
▁mesaman	-8790
▁mesoayi	-8791
▁mieɛnsa	-8792
▁minutes	-8793
▁mmaatan	-8794
▁mmakuro	-8795
▁mmerima	-8796
▁mmerɛbɛ	-8797
▁mmerɛne	-8798
▁mmerɛyi	-8799
omp	-8800
kɔfa	-8801
mate	-8802
nkro	-8803
noyɛ	-8804
usie	-8805
wera	-8806
wesi	-8807
▁fat	-8808
▁fei	-8809
▁net	-8810
▁nwe	-8811
▁oom	-8812
brewo	-8813
ompla	-8814
saman	-8815
wefoɔ	-8816
▁befo	-8817
▁boso	-8818
▁dano	-8819
▁duha	-8820
▁ende	-8821
▁enma	-8822
▁ensɛ	-8823
▁fame	-8824
▁hwɛn	-8825
▁mɛda	-8826
▁mɛwo	-8827
▁oomɛ	-8828
▁rent	-8829
▁suit	-8830
▁test	-8831
▁thei	-8832
▁togo	-8833
▁wabe	-8834
▁ɛnye	-8835
adwera	-8836
matebi	-8837
mbrewo	-8838
▁abtia	-8839
▁biabi	-8840
▁hwɛme	-8841
▁hwɛsɛ	-8842
▁morek	-8843
▁nesaa	-8844
▁nyama	-8845
▁nyasa	-8846
▁ontie	-8847
▁tests	-8848
▁their	-8849
▁wondi	-8850
▁wonwe	-8851
▁wɔmmɔ	-8852
▁yɛfie	-8853
▁ɛkasɛ	-8854
▁ɛnona	-8855
▁ɛwɔha	-8856
▁ɛyɛsɛ	-8857
▁ɛyɛwo	-8858
akyerɛw	-8859
aniberɛ	-8860
nkrofoɔ	-8861
oawkyɛw	-8862
omplain	-8863
▁adesua	-8864
▁before	-8865
▁begina	-8866
▁kandin	-8867
▁kununa	-8868
▁mmrika	-8869
▁nkusie	-8870
▁presen	-8871
▁teatea	-8872
▁wankyɛ	-8873
▁wɔsore	-8874
▁ɔnfata	-8875
▁ɛfasoɔ	-8876
▁fasaman	-8877
▁kakrabi	-8878
▁koraano	-8879
▁mekwesi	-8880
▁mmienuo	-8881
▁mmirika	-8882
▁mmɔwerɛ	-8883
▁mmɛrima	-8884
▁moaware	-8885
▁mogyedi	-8886
▁mokoraa	-8887
▁mombono	-8888
▁mommyme	-8889
▁mongyae	-8890
▁montimi	-8891
▁monwane	-8892
▁moresre	-8893
▁mosɛnea	-8894
▁mpaeɛbɔ	-8895
▁mpanfoɔ	-8896
▁mpanieɛ	-8897
▁mprensa	-8898
▁mpɔnkye	-8899
ayɔ	-8900
ehh	-8901
sin	-8902
sit	-8903
ɛwu	-8904
▁ky	-8905
damu	-8906
efoɔ	-8907
isit	-8908
kɔno	-8909
rifi	-8910
sida	-8911
unti	-8912
yumi	-8913
▁hwu	-8914
▁kɛn	-8915
▁nlo	-8916
▁tem	-8917
bɔkɔɔ	-8918
damfo	-8919
karaa	-8920
rɛfoɔ	-8921
▁ball	-8922
▁bɛdu	-8923
▁bɛwu	-8924
▁deɔn	-8925
▁fiea	-8926
▁kɔda	-8927
▁mɛbɛ	-8928
▁noeɛ	-8929
▁pame	-8930
▁paye	-8931
▁sour	-8932
▁tese	-8933
▁teso	-8934
▁wagu	-8935
▁wosi	-8936
▁yabɛ	-8937
▁yɛma	-8938
abɛfrɛ	-8939
akakai	-8940
asiano	-8941
sidayɛ	-8942
▁anhyɛ	-8943
▁beayɛ	-8944
▁boawo	-8945
▁etire	-8946
▁hwuri	-8947
▁kyink	-8948
▁kyooo	-8949
▁manba	-8950
▁oyumi	-8951
▁paabɛ	-8952
▁weiwo	-8953
▁wɔnfa	-8954
▁yoomo	-8955
▁ɔnsin	-8956
aduaneɛ	-8957
ahyɛhyɛ	-8958
animɛfa	-8959
kakyerɛ	-8960
kɔnomaa	-8961
▁dɔkɔkɔ	-8962
▁koraao	-8963
▁memɛwu	-8964
▁nawoyɛ	-8965
▁nwɔtwe	-8966
▁reyɛwɔ	-8967
▁wobayɛ	-8968
▁worepɔ	-8969
▁woteaa	-8970
▁wowrɛn	-8971
▁yabɛti	-8972
▁ɛnsuro	-8973
▁ɛnunti	-8974
▁ɛnyɛba	-8975
▁bohyire	-8976
▁enhyira	-8977
▁gyimifo	-8978
▁kakaraa	-8979
▁koraawo	-8980
▁kɔtɔkro	-8981
▁mrɛnkɛn	-8982
▁mɔbrowa	-8983
▁mɛnante	-8984
▁mɛnkyɛn	-8985
▁naadeɛn	-8986
▁naawura	-8987
▁naaɔbaa	-8988
▁nabɔkɔɔ	-8989
▁nadwene	-8990
▁naghana	-8991
▁namkwan	-8992
▁namtuaa	-8993
▁nanigye	-8994
▁nantweɛ	-8995
▁nanyame	-8996
▁nasɛnea	-8997
▁nayifoɔ	-8998
▁naɔrede	-8999
hwɔ	-9000
rte	-9001
aasi	-9002
medi	-9003
mhye	-9004
omfo	-9005
otwa	-9006
ourt	-9007
yesu	-9008
yfoɔ	-9009
ɛtoa	-9010
▁ask	-9011
▁nah	-9012
▁nnɔ	-9013
▁nwɛ	-9014
▁sae	-9015
egyae	-9016
koron	-9017
medeɛ	-9018
owura	-9019
tarte	-9020
▁anno	-9021
▁anwɔ	-9022
▁baah	-9023
▁bɛko	-9024
▁dako	-9025
▁edeɛ	-9026
▁enwa	-9027
▁kɔdi	-9028
▁megu	-9029
▁miaa	-9030
▁moko	-9031
▁rewɔ	-9032
▁saea	-9033
▁sasa	-9034
▁ship	-9035
▁tiaw	-9036
▁womm	-9037
▁wowe	-9038
▁yɛna	-9039
▁ɔdeɛ	-9040
▁ɛnia	-9041
▁ɛsei	-9042
▁bɔɔeɛ	-9043
▁deɛwɔ	-9044
▁emedi	-9045
▁komfo	-9046
▁kɔdeɛ	-9047
▁mehwɔ	-9048
▁nahin	-9049
▁nawia	-9050
▁nedin	-9051
▁noaeɛ	-9052
▁ntimo	-9053
▁sereɛ	-9054
▁wanda	-9055
▁wonaa	-9056
▁wonma	-9057
▁wɔgye	-9058
▁yyesu	-9059
▁ɔbɛbo	-9060
▁ɔdamu	-9061
migyimi	-9062
onkoron	-9063
▁announ	-9064
▁delila	-9065
▁dɛkono	-9066
▁heanaa	-9067
▁hɛɛloo	-9068
▁maware	-9069
▁neɔbaa	-9070
▁wommen	-9071
▁yɛbɛbɔ	-9072
▁ɔbaaeɛ	-9073
▁ɔntimi	-9074
▁ɔtease	-9075
▁ɛnnɛma	-9076
korakora	-9077
mhyehyeɛ	-9078
ymigyimi	-9079
▁ankansa	-9080
▁delilah	-9081
▁domaasi	-9082
▁naɔreyɛ	-9083
▁nbuadeɛ	-9084
▁nenkasa	-9085
▁nenkyɛn	-9086
▁neɛntia	-9087
▁nfonoyɛ	-9088
▁ngyegye	-9089
▁ngyindi	-9090
▁nhyinaa	-9091
▁nightma	-9092
▁nisuobe	-9093
▁nisuona	-9094
▁nkitaho	-9095
▁nkokɔkɔ	-9096
▁nkradaa	-9097
▁nkrakra	-9098
▁nkraman	-9099
aɔ	-9100
bs	-9101
dem	-9102
anni	-9103
arry	-9104
aɔkɔ	-9105
bere	-9106
uate	-9107
▁sem	-9108
▁sew	-9109
aasɛm	-9110
woara	-9111
▁aara	-9112
▁anhu	-9113
▁anua	-9114
▁beba	-9115
▁bobe	-9116
▁dade	-9117
▁dayi	-9118
▁hwia	-9119
▁hɔyi	-9120
▁kyei	-9121
▁kɔhu	-9122
▁maho	-9123
▁mman	-9124
▁nhyi	-9125
▁saal	-9126
▁seen	-9127
▁subs	-9128
▁wɔmu	-9129
▁ɔnwo	-9130
▁ɛnhu	-9131
aranni	-9132
mentrɔ	-9133
▁adura	-9134
▁adwua	-9135
▁anwhɛ	-9136
▁asisi	-9137
▁bipɛn	-9138
▁death	-9139
▁faɔmo	-9140
▁hyɛne	-9141
▁hyɛno	-9142
▁nesɛɛ	-9143
▁nkɔmo	-9144
▁owiyɛ	-9145
▁sikaa	-9146
▁tenaa	-9147
▁ɛwosɛ	-9148
▁adeade	-9149
▁anufoɔ	-9150
▁betimi	-9151
▁bobesa	-9152
▁burial	-9153
▁entikɔ	-9154
▁lawyer	-9155
▁mahome	-9156
▁memɛfa	-9157
▁neadeɛ	-9158
▁wadwen	-9159
▁yɛwiee	-9160
▁ɔbɛhwɛ	-9161
▁adwuama	-9162
▁agyampa	-9163
▁akɔaɔkɔ	-9164
▁anibere	-9165
▁answers	-9166
▁asoɔden	-9167
▁baayewa	-9168
▁mepakyɛ	-9169
▁mmanfoɔ	-9170
▁montwɛn	-9171
▁nkratoɔ	-9172
▁nkunimi	-9173
▁nkɔɔfoɔ	-9174
▁nnamfoɔ	-9175
▁nnimnea	-9176
▁nniɔbaa	-9177
▁nnubɔne	-9178
▁nnyaebɔ	-9179
▁nnyenni	-9180
▁nohwere	-9181
▁nohyehɛ	-9182
▁nokoraa	-9183
▁noyɛfrɛ	-9184
▁nsankuo	-9185
▁nsosoeɛ	-9186
▁nsuonam	-9187
▁nsutade	-9188
▁nteatea	-9189
▁ntentia	-9190
▁ntesika	-9191
▁ntisɛbi	-9192
▁ntoatoa	-9193
▁ntwaaso	-9194
▁nwomtoɔ	-9195
▁nwumtoɔ	-9196
▁nyaaada	-9197
▁nyankop	-9198
▁nyianna	-9199
ewo	-9200
nin	-9201
ɛba	-9202
anke	-9203
bɛba	-9204
eten	-9205
fose	-9206
llet	-9207
onii	-9208
rokɔ	-9209
uasi	-9210
wofa	-9211
wose	-9212
yaba	-9213
▁koɔ	-9214
▁mos	-9215
▁oba	-9216
▁ɛny	-9217
ankee	-9218
kwamu	-9219
wasɛm	-9220
▁anba	-9221
▁boun	-9222
▁bɛpa	-9223
▁enbɛ	-9224
▁entu	-9225
▁fiem	-9226
▁hawo	-9227
▁kurɔ	-9228
▁mewo	-9229
▁moba	-9230
▁shat	-9231
▁sɛba	-9232
▁ɔnto	-9233
anisaa	-9234
anuasi	-9235
aseɛnɛ	-9236
etenke	-9237
hohoro	-9238
woyere	-9239
▁aborɔ	-9240
▁antua	-9241
▁dende	-9242
▁egyaa	-9243
▁frokɔ	-9244
▁maɛba	-9245
▁menba	-9246
▁meɛwɔ	-9247
▁naade	-9248
▁nnuro	-9249
▁onyin	-9250
▁opnin	-9251
▁saaaa	-9252
▁saakɔ	-9253
▁sedeɛ	-9254
▁wbɛba	-9255
▁wodie	-9256
▁wofoɔ	-9257
▁ɛnyum	-9258
▁ɛsere	-9259
▁aboabi	-9260
▁adwumo	-9261
▁akasɛm	-9262
▁awieeɛ	-9263
▁dining	-9264
▁etwasɛ	-9265
▁mɛnfii	-9266
▁mɛnyae	-9267
▁shatta	-9268
▁stoway	-9269
▁sɛbafa	-9270
▁wallet	-9271
▁wonyɛɛ	-9272
▁yankee	-9273
▁ɔrenka	-9274
▁ɔwuieɛ	-9275
▁ɛkwamu	-9276
agyimipa	-9277
anhohoro	-9278
▁asomdwo	-9279
▁asɔrehɔ	-9280
▁eimassa	-9281
▁meekɔtɔ	-9282
▁mmoasem	-9283
▁nɛkorso	-9284
▁obaanka	-9285
▁obenyan	-9286
▁obireyɛ	-9287
▁oburoni	-9288
▁odiifoɔ	-9289
▁ofirisɛ	-9290
▁ohdaabi	-9291
▁ohwonso	-9292
▁okayyoo	-9293
▁ongyina	-9294
▁osimesi	-9295
▁otirimo	-9296
▁owudini	-9297
▁oyinsɛn	-9298
▁paakyɛw	-9299
ded	-9300
row	-9301
abɛn	-9302
mote	-9303
soro	-9304
▁gum	-9305
▁kɔɛ	-9306
▁noe	-9307
▁sde	-9308
▁sɛi	-9309
▁tso	-9310
▁wɔw	-9311
akyɛw	-9312
msoro	-9313
▁afem	-9314
▁anum	-9315
▁awei	-9316
▁baee	-9317
▁deno	-9318
▁fadi	-9319
▁gyin	-9320
▁hɔre	-9321
▁nama	-9322
▁noti	-9323
▁nowɔ	-9324
▁redɔ	-9325
▁rese	-9326
▁till	-9327
▁tsoo	-9328
▁yato	-9329
▁ɔwee	-9330
▁ɛprɔ	-9331
akɔbrɛ	-9332
▁asoeɛ	-9333
▁begya	-9334
▁brawo	-9335
▁demon	-9336
▁deɛde	-9337
▁dinku	-9338
▁doubt	-9339
▁kɛtee	-9340
▁manbɛ	-9341
▁monhu	-9342
▁netɛm	-9343
▁ntime	-9344
▁potee	-9345
▁resɛi	-9346
▁taadi	-9347
▁tweee	-9348
▁wonba	-9349
▁wonye	-9350
▁wɔnam	-9351
▁abɔfoɔ	-9352
▁agofoɔ	-9353
▁ahehyɛ	-9354
▁asefoɔ	-9355
▁babɛto	-9356
▁deɛdeɛ	-9357
▁deɛsaa	-9358
▁esisie	-9359
▁hwɛnea	-9360
▁hɔreto	-9361
▁mehuri	-9362
▁onokwa	-9363
▁remote	-9364
▁resere	-9365
▁seɔbaa	-9366
▁sounds	-9367
▁tsoobo	-9368
▁wokɔyɛ	-9369
▁ɔwaste	-9370
asikafoɔ	-9371
merebusa	-9372
▁adwodwo	-9373
▁noefiri	-9374
▁opanyin	-9375
▁paanyin	-9376
▁pakyere	-9377
▁piripii	-9378
▁planned	-9379
▁playman	-9380
▁portion	-9381
▁prophet	-9382
▁prosini	-9383
▁puefiri	-9384
▁rabbies	-9385
▁redekan	-9386
▁refeeli	-9387
▁referen	-9388
▁rekaasɛ	-9389
▁rekyiri	-9390
▁renkɔka	-9391
▁renyini	-9392
▁results	-9393
▁retueni	-9394
▁reyɛafa	-9395
▁saaline	-9396
▁saddest	-9397
▁santene	-9398
▁seisiaa	-9399
gor	-9400
lor	-9401
two	-9402
bede	-9403
ersa	-9404
fopa	-9405
iaww	-9406
lory	-9407
mame	-9408
ommo	-9409
wɛne	-9410
yaan	-9411
▁ake	-9412
▁ali	-9413
▁dor	-9414
▁ger	-9415
▁had	-9416
▁him	-9417
▁mob	-9418
▁mop	-9419
aaseɛ	-9420
apano	-9421
bɛsen	-9422
piaww	-9423
tagor	-9424
tweek	-9425
yisɛm	-9426
▁ahun	-9427
▁aken	-9428
▁anbɛ	-9429
▁dasɛ	-9430
▁debi	-9431
▁deso	-9432
▁fasɔ	-9433
▁fɛsɛ	-9434
▁land	-9435
▁nkam	-9436
▁ntin	-9437
▁reso	-9438
▁ring	-9439
▁sopa	-9440
▁wein	-9441
▁yesɛ	-9442
▁yiri	-9443
▁ɔdɔa	-9444
▁ɛnwo	-9445
▁ɛsɛe	-9446
▁ɛyie	-9447
dofopa	-9448
mireka	-9449
yaante	-9450
▁abɛbɛ	-9451
▁akeda	-9452
▁aɛyaa	-9453
▁ehefa	-9454
▁glory	-9455
▁menbɛ	-9456
▁mpene	-9457
▁nnwom	-9458
▁noayɛ	-9459
▁nsoba	-9460
▁odimu	-9461
▁perio	-9462
▁resol	-9463
▁wadie	-9464
▁yewme	-9465
▁yɔnkɔ	-9466
▁yɛboo	-9467
▁yɛdeɛ	-9468
▁abɛtwa	-9469
▁ahunta	-9470
▁aseɛfi	-9471
▁atwɛne	-9472
▁bimame	-9473
▁bɔɔdeɛ	-9474
▁ebedii	-9475
▁german	-9476
▁kyereɛ	-9477
▁mahunu	-9478
▁mehyiɛ	-9479
▁meware	-9480
▁nenana	-9481
▁period	-9482
▁wokasɛ	-9483
▁worede	-9484
▁yɛnhwɛ	-9485
▁yɛɛhwɛ	-9486
▁ɔbodam	-9487
▁ɔgyimi	-9488
▁ɔmonti	-9489
▁ɛngyae	-9490
manpayin	-9491
ommotion	-9492
yaanteeɛ	-9493
▁apɔnkye	-9494
▁asendua	-9495
▁asuadeɛ	-9496
▁emireka	-9497
▁germany	-9498
▁mɛyɛdɛn	-9499
aya	-9500
foɛ	-9501
mɛn	-9502
nna	-9503
rms	-9504
▁gh	-9505
mɛnu	-9506
wokɔ	-9507
▁ans	-9508
▁enɛ	-9509
▁kɔa	-9510
▁kɛs	-9511
▁ɛkɛ	-9512
▁ɛyɔ	-9513
beyii	-9514
masoɔ	-9515
nanim	-9516
▁ahah	-9517
▁anna	-9518
▁aton	-9519
▁boto	-9520
▁dora	-9521
▁enya	-9522
▁hall	-9523
▁hɔee	-9524
▁kayi	-9525
▁kayɛ	-9526
▁kɔyi	-9527
▁mato	-9528
▁mehi	-9529
▁mhwɛ	-9530
▁nane	-9531
▁sali	-9532
▁seti	-9533
▁yekɔ	-9534
rimfoɔ	-9535
sisisi	-9536
ɔwɔtwe	-9537
▁deɛna	-9538
▁entoa	-9539
▁fidua	-9540
▁mfama	-9541
▁mpase	-9542
▁nhawo	-9543
▁nnibi	-9544
▁owusu	-9545
▁soeeɛ	-9546
▁sɔnea	-9547
▁terms	-9548
▁towen	-9549
▁ɛkɔdi	-9550
nanimpɛ	-9551
srimfoɔ	-9552
▁adwire	-9553
▁ansusu	-9554
▁gyedeɛ	-9555
▁happen	-9556
▁kɛsseɛ	-9557
▁mentɔn	-9558
▁nasɛbi	-9559
▁nkraka	-9560
▁nyaado	-9561
▁outing	-9562
▁papaso	-9563
▁salifu	-9564
▁timewo	-9565
▁yereyi	-9566
▁yɛnsan	-9567
▁ɔmanbɔ	-9568
busuafoɔ	-9569
▁abrafoɔ	-9570
▁homasoɔ	-9571
▁mebeyii	-9572
▁mpasebɔ	-9573
▁ntintan	-9574
▁owusuom	-9575
▁sekyerɛ	-9576
▁selling	-9577
▁serefoɔ	-9578
▁sesafoɔ	-9579
▁sikanii	-9580
▁sikasem	-9581
▁singlet	-9582
▁someone	-9583
▁station	-9584
▁student	-9585
▁sweater	-9586
▁sɔfowei	-9587
▁sɛbiana	-9588
▁sɛdaabi	-9589
▁sɛennyɛ	-9590
▁sɛkurom	-9591
▁sɛlumba	-9592
▁sɛneame	-9593
▁tenaase	-9594
▁tetefon	-9595
▁thwenty	-9596
▁timeaso	-9597
▁towenim	-9598
▁waalook	-9599
tae	-9600
ype	-9601
ɔda	-9602
ɔpɛ	-9603
ɔyɛ	-9604
▁md	-9605
andi	-9606
fɛfɛ	-9607
into	-9608
mprɛ	-9609
toro	-9610
▁deɔ	-9611
▁dwe	-9612
▁his	-9613
▁hua	-9614
▁mue	-9615
▁muo	-9616
▁soɛ	-9617
▁yɛt	-9618
▁ɔke	-9619
adɔyɛ	-9620
bɔɔla	-9621
inatu	-9622
maama	-9623
manaa	-9624
▁alot	-9625
▁grab	-9626
▁kari	-9627
▁musɛ	-9628
▁nnti	-9629
▁nokɔ	-9630
▁npre	-9631
▁soaa	-9632
▁type	-9633
▁wopa	-9634
daadaa	-9635
▁apira	-9636
▁baaba	-9637
▁botae	-9638
▁eeeee	-9639
▁hweeɛ	-9640
▁menaa	-9641
▁mense	-9642
▁nkɔfa	-9643
▁nsene	-9644
▁wefoɔ	-9645
▁wofii	-9646
▁ɔkeye	-9647
▁ɛnkaa	-9648
▁ɛrewo	-9649
▁ɛtesɛ	-9650
illegal	-9651
nananom	-9652
torofoɔ	-9653
▁afeiwo	-9654
▁ampadu	-9655
▁baabae	-9656
▁goliat	-9657
▁kooraa	-9658
▁mannye	-9659
▁mensew	-9660
▁mobedi	-9661
▁nnansa	-9662
▁nyisɛn	-9663
▁wokɔtɔ	-9664
▁wonkɔɔ	-9665
▁wɔbɛkɔ	-9666
▁yɛtwmu	-9667
▁ɔkɔpem	-9668
▁ɛneɛyɛ	-9669
abaabɛfa	-9670
▁abonsom	-9671
▁adwadie	-9672
▁eeisɔfo	-9673
▁gadgets	-9674
▁hweeɛme	-9675
▁kamaama	-9676
▁kuromtɔ	-9677
▁nokwerɛ	-9678
▁nomanaa	-9679
▁wabɔsoɔ	-9680
▁wabɛgye	-9681
▁wadamfo	-9682
▁wadanfo	-9683
▁wagyina	-9684
▁waiting	-9685
▁wanbisa	-9686
▁wangyae	-9687
▁wanigye	-9688
▁wankasa	-9689
▁watwene	-9690
▁weather	-9691
▁weekend	-9692
▁whether	-9693
▁woatumi	-9694
▁wobaaeɛ	-9695
▁wobetia	-9696
▁wobɔdam	-9697
▁wobɛkɔɔ	-9698
▁wobɛsua	-9699
ft	-9700
abae	-9701
asam	-9702
iesa	-9703
lete	-9704
mafo	-9705
nade	-9706
tohɔ	-9707
twea	-9708
tɛko	-9709
▁bee	-9710
▁hoh	-9711
▁map	-9712
▁sɔm	-9713
▁sɛɔ	-9714
▁ɛns	-9715
ahume	-9716
asomu	-9717
koara	-9718
ratia	-9719
ɔbɛko	-9720
▁badu	-9721
▁beef	-9722
▁bese	-9723
▁bɔkɔ	-9724
▁defi	-9725
▁errm	-9726
▁fɛna	-9727
▁heer	-9728
▁left	-9729
▁nare	-9730
▁naye	-9731
▁payɛ	-9732
▁warm	-9733
▁yiii	-9734
▁ɔtua	-9735
▁ɛnom	-9736
afadeɛ	-9737
amafoɔ	-9738
gratia	-9739
▁aabae	-9740
▁abira	-9741
▁akɔhɔ	-9742
▁anhah	-9743
▁anwie	-9744
▁asɛma	-9745
▁biose	-9746
▁hanti	-9747
▁heern	-9748
▁mepre	-9749
▁mmuee	-9750
▁nnome	-9751
▁nsuma	-9752
▁regya	-9753
▁sankɔ	-9754
▁sɛmen	-9755
▁wokae	-9756
▁women	-9757
▁yenka	-9758
▁ɔrepa	-9759
▁ɔwɔmu	-9760
▁ɛnfrɛ	-9761
▁ɛnsɔn	-9762
anigyeɛ	-9763
▁akyirɛ	-9764
▁baabia	-9765
▁defile	-9766
▁delete	-9767
▁kenkan	-9768
▁mapgya	-9769
▁mmiesa	-9770
▁sɛdeɛn	-9771
▁totɛko	-9772
▁woretu	-9773
▁ɔrepaw	-9774
▁ɛntena	-9775
kyerɛfoɔ	-9776
▁adeɛɛyɛ	-9777
▁ahinnie	-9778
▁akasamu	-9779
▁akatohɔ	-9780
▁akyɛwpa	-9781
▁gyenaha	-9782
▁mantwea	-9783
▁medeman	-9784
▁mekoara	-9785
▁mmueeyɛ	-9786
▁mubaako	-9787
▁retetee	-9788
▁sɛnyame	-9789
▁sɛɔmmra	-9790
▁wodwane	-9791
▁wodware	-9792
▁wokuoda	-9793
▁wokurom	-9794
▁wokɔtaa	-9795
▁wokɔtɔɔ	-9796
▁wokɔyɛɛ	-9797
▁wombɛka	-9798
▁womenua	-9799
pt	-9800
ul	-9801
aah	-9802
ema	-9803
yɛi	-9804
eɛnɛ	-9805
hyɛn	-9806
orre	-9807
ruom	-9808
sɛmu	-9809
tant	-9810
▁nad	-9811
▁ɔsa	-9812
bɛpem	-9813
sɛmen	-9814
twaso	-9815
ɛhyɛn	-9816
▁anwo	-9817
▁ayɛw	-9818
▁bire	-9819
▁buko	-9820
▁dase	-9821
▁deme	-9822
▁dogo	-9823
▁dɔdɔ	-9824
▁fane	-9825
▁fato	-9826
▁hono	-9827
▁naaa	-9828
▁saul	-9829
▁sɛre	-9830
▁wonu	-9831
wakyew	-9832
yɛyɛyɛ	-9833
▁aɔnam	-9834
▁banku	-9835
▁gyere	-9836
▁hwɛne	-9837
▁mɛhwe	-9838
▁nefon	-9839
▁nenma	-9840
▁neyɛi	-9841
▁neɔma	-9842
▁nhueɛ	-9843
▁oohwɛ	-9844
▁slept	-9845
▁spean	-9846
▁titan	-9847
▁wonin	-9848
▁woseɛ	-9849
▁wosrɛ	-9850
▁ɔyale	-9851
▁ɛneyɛ	-9852
▁ɛyare	-9853
adwensɛ	-9854
▁ahenti	-9855
▁akolaa	-9856
▁anwona	-9857
▁asɛasɔ	-9858
▁aɛhyɛn	-9859
▁birebi	-9860
▁dɔdɔmu	-9861
▁ebɛpem	-9862
▁ekruom	-9863
▁kasawo	-9864
▁mennom	-9865
▁nflash	-9866
▁nnamfo	-9867
▁nnɛema	-9868
▁nyiraa	-9869
▁wɔkeka	-9870
▁yiemma	-9871
▁ɔmoasa	-9872
▁ɔretie	-9873
▁abasobɔ	-9874
▁amanman	-9875
▁behyira	-9876
▁eduruso	-9877
▁gyaeɛnɛ	-9878
▁gyeremo	-9879
▁manware	-9880
▁nadwuma	-9881
▁patapaa	-9882
▁pintinn	-9883
▁pɛsɛmen	-9884
▁titanus	-9885
▁wommerɛ	-9886
▁wompena	-9887
▁wonanso	-9888
▁wondidi	-9889
▁wonenam	-9890
▁woneɛma	-9891
▁wonkura	-9892
▁wonkyen	-9893
▁wonkɔwo	-9894
▁wonpena	-9895
▁wonsana	-9896
▁wonsesa	-9897
▁wonsoeɛ	-9898
▁wonsuro	-9899
fy	-9900
fɔ	-9901
daf	-9902
hew	-9903
ɔra	-9904
ɛda	-9905
ɛso	-9906
▁sg	-9907
aama	-9908
kwam	-9909
kɔmɔ	-9910
nify	-9911
sosɔ	-9912
▁bar	-9913
▁eku	-9914
▁ewo	-9915
▁faw	-9916
▁nkr	-9917
▁onu	-9918
▁woh	-9919
▁wɔɔ	-9920
akwam	-9921
dafla	-9922
gnify	-9923
gyefo	-9924
ɔhwie	-9925
▁....	-9926
▁aguu	-9927
▁akya	-9928
▁atɔn	-9929
▁brɛo	-9930
▁bubu	-9931
▁deɛb	-9932
▁dɔfɔ	-9933
▁ento	-9934
▁esum	-9935
▁hayi	-9936
▁hooo	-9937
▁howe	-9938
▁huru	-9939
▁pain	-9940
▁tɔde	-9941
▁wowɛ	-9942
▁afeno	-9943
▁ankra	-9944
▁atorɔ	-9945
▁ensuo	-9946
▁ewomu	-9947
▁manwu	-9948
▁menan	-9949
▁nkraa	-9950
▁nkɔka	-9951
▁nsome	-9952
▁toomu	-9953
▁yenpɛ	-9954
▁yɛnwu	-9955
▁ɔbayɛ	-9956
▁ɔnbue	-9957
▁ɛkɔba	-9958
▁ɛmomu	-9959
daflata	-9960
denkɔmɔ	-9961
▁ankane	-9962
▁ataban	-9963
▁barber	-9964
▁boaama	-9965
▁ennɔra	-9966
▁haahaa	-9967
▁menkwa	-9968
▁naagya	-9969
▁renyin	-9970
▁ɛdomee	-9971
▁ɛmpere	-9972
▁biriara	-9973
▁eihweya	-9974
▁magnify	-9975
▁mekroaa	-9976
▁nkranin	-9977
▁sekyere	-9978
▁snipper	-9979
▁soronko	-9980
▁started	-9981
▁wohwene	-9982
▁wontimi	-9983
▁wontomu	-9984
▁wonyame	-9985
▁wopekya	-9986
▁worekan	-9987
▁worenyɛ	-9988
▁woretwe	-9989
▁wosesei	-9990
▁wotiamu	-9991
▁wotwamu	-9992
▁wowobue	-9993
▁woyɛdɛn	-9994
▁wugyina	-9995
▁wuntumi	-9996
▁wɔasɔre	-9997
▁wɔdware	-9998
▁wɔteete	-9999
ey	-10000
rh	-10001
dɔn	-10002
asew	-10003
awre	-10004
desɛ	-10005
enyɛ	-10006
mayɛ	-10007
▁fra	-10008
▁hop	-10009
▁meɛ	-10010
▁owo	-10011
▁toi	-10012
afawo	-10013
akora	-10014
apɔmu	-10015
kyɛwo	-10016
▁anoɔ	-10017
▁demo	-10018
▁enhu	-10019
▁enye	-10020
▁heal	-10021
▁hɛrh	-10022
▁mrre	-10023
▁mɛdi	-10024
▁nekɔ	-10025
▁oona	-10026
▁tent	-10027
▁yiwo	-10028
▁yɛdi	-10029
▁yɛsɛ	-10030
adeɛwo	-10031
boaboa	-10032
kwafoɔ	-10033
▁akyem	-10034
▁awusɛ	-10035
▁baama	-10036
▁baree	-10037
▁dehye	-10038
▁efiti	-10039
▁fabag	-10040
▁hando	-10041
▁laugh	-10042
▁medɔn	-10043
▁metwe	-10044
▁mfiri	-10045
▁moosi	-10046
▁mposɛ	-10047
▁naayɛ	-10048
▁nobaa	-10049
▁nsano	-10050
▁ntimi	-10051
▁obɛto	-10052
▁tuosa	-10053
▁wobae	-10054
▁wonbu	-10055
▁ɔkɔfo	-10056
▁ɛdaso	-10057
abɔdesɛ	-10058
rabiara	-10059
▁abafie	-10060
▁bueeii	-10061
▁bɛdane	-10062
▁ghanan	-10063
▁health	-10064
▁hoping	-10065
▁mebobɔ	-10066
▁okyerɛ	-10067
▁paakyɛ	-10068
▁tenaso	-10069
▁toilet	-10070
▁tumikɔ	-10071
▁untill	-10072
▁wagyim	-10073
▁wotemi	-10074
▁ɛnkaka	-10075
▁abandon	-10076
▁abomayɛ	-10077
▁baabikɔ	-10078
▁kuromno	-10079
▁laughsɔ	-10080
▁memenyɛ	-10081
▁oboaboa	-10082
▁tentene	-10083
▁tuosafi	-10084
▁wokɔtoo	-10085
▁wɔwoowo	-10086
▁yaayɛse	-10087
▁yebenya	-10088
▁yeeeeee	-10089
▁yegyire	-10090
▁yengyae	-10091
▁yentena	-10092
▁yerafoɔ	-10093
▁yeredeɛ	-10094
▁yibaako	-10095
▁yieeeee	-10096
▁yooɛneɛ	-10097
▁yɛbaako	-10098
▁yɛbaayɛ	-10099
,?	-10100
od	-10101
aye	-10102
dabo	-10103
koaa	-10104
pɔkɔ	-10105
somɛ	-10106
udas	-10107
ɔnyɛ	-10108
▁bri	-10109
▁eyɛ	-10110
adaka	-10111
ayera	-10112
debea	-10113
hanom	-10114
metua	-10115
▁aebu	-10116
▁biti	-10117
▁busy	-10118
▁moda	-10119
▁mood	-10120
▁nnin	-10121
▁pani	-10122
▁suga	-10123
▁tema	-10124
▁waso	-10125
▁wome	-10126
▁wude	-10127
▁wɔba	-10128
atenaa	-10129
bodabo	-10130
▁abene	-10131
▁akɔne	-10132
▁asihe	-10133
▁atoso	-10134
▁banbɔ	-10135
▁bɛseɛ	-10136
▁doesn	-10137
▁kwala	-10138
▁mmama	-10139
▁nsisi	-10140
▁piiii	-10141
▁usewo	-10142
▁wɔnni	-10143
▁yeesu	-10144
▁yerem	-10145
▁yereɛ	-10146
▁ɛbɛto	-10147
▁ɛwɔmu	-10148
▁adeɛsɛ	-10149
▁bɔnefa	-10150
▁gyamaa	-10151
▁hahaha	-10152
▁nhudeɛ	-10153
▁wokoaa	-10154
▁yentwa	-10155
▁ɛhanom	-10156
▁ɛtetee	-10157
▁amanɔne	-10158
▁ataadiɛ	-10159
▁beyifoɔ	-10160
▁krakraa	-10161
▁kuluulu	-10162
▁mensomɛ	-10163
▁mmamawa	-10164
▁mothers	-10165
▁nanibrɛ	-10166
▁nnieɛma	-10167
▁support	-10168
▁thisage	-10169
▁tsooboi	-10170
▁yɛbɛmma	-10171
▁yɛhonam	-10172
▁yɛmaame	-10173
▁yɛnbiom	-10174
▁yɛnhyia	-10175
▁yɛnkorɔ	-10176
▁yɛnngye	-10177
▁yɛnware	-10178
▁yɛpaaha	-10179
▁yɛpɛnso	-10180
▁yɛɛnnyɛ	-10181
▁ɔbaaayɛ	-10182
▁ɔbaawei	-10183
▁ɔbarima	-10184
▁ɔbebaha	-10185
▁ɔbɛbɔme	-10186
▁ɔbɛhwɛɛ	-10187
▁ɔbɛkasɛ	-10188
▁ɔdasani	-10189
▁ɔdeɛfoɔ	-10190
▁ɔdɔyewu	-10191
▁ɔhwehwɛ	-10192
▁ɔkayerɛ	-10193
▁ɔkwasia	-10194
▁ɔkyerɛw	-10195
▁ɔkɔforo	-10196
▁ɔkɔmfoɔ	-10197
▁ɔkɔsomu	-10198
▁ɔmoakye	-10199
??	-10200
ny	-10201
ank	-10202
iie	-10203
depɛ	-10204
eneɛ	-10205
iier	-10206
stan	-10207
tɔmu	-10208
▁eso	-10209
▁wɔs	-10210
▁yɛw	-10211
▁ɛku	-10212
abawo	-10213
umnam	-10214
▁bide	-10215
▁bini	-10216
▁bola	-10217
▁bomu	-10218
▁daam	-10219
▁fieɛ	-10220
▁hoso	-10221
▁hɔna	-10222
▁hɛɛh	-10223
▁mabɛ	-10224
▁mbaa	-10225
▁nawɔ	-10226
▁nsoa	-10227
▁ntum	-10228
▁nyia	-10229
▁sewo	-10230
▁wɔtu	-10231
▁yira	-10232
▁ɔkɔm	-10233
atareɛ	-10234
ebiara	-10235
fudepɛ	-10236
umstan	-10237
▁asera	-10238
▁botan	-10239
▁manno	-10240
▁mansi	-10241
▁medea	-10242
▁mesɛm	-10243
▁moden	-10244
▁nankɔ	-10245
▁nsieɛ	-10246
▁pamoo	-10247
▁wesua	-10248
▁wonse	-10249
▁wɔsua	-10250
▁ɔrepɛ	-10251
▁ɛheee	-10252
▁ɛresi	-10253
kyerɛni	-10254
▁adedeɛ	-10255
▁betɔmu	-10256
▁boiier	-10257
▁bomtwe	-10258
▁kyɛwme	-10259
▁mɛkyea	-10260
▁nawɔne	-10261
▁saneyɛ	-10262
▁sosoeɛ	-10263
▁teneho	-10264
▁tietie	-10265
▁yɛhyɛɛ	-10266
▁ɛtɔɔyɛ	-10267
anikoraa	-10268
▁deɛafie	-10269
▁eprepra	-10270
▁introdu	-10271
▁kamakam	-10272
▁modikan	-10273
▁nepagya	-10274
▁nsumnam	-10275
▁ntotoyɛ	-10276
▁wapagya	-10277
▁wommati	-10278
▁wonkasa	-10279
▁ɔmpɛbra	-10280
▁ɔndwane	-10281
▁ɔnimwei	-10282
▁ɔpanyin	-10283
▁ɔresane	-10284
▁ɔteaame	-10285
▁ɔtemase	-10286
▁ɔteɛtia	-10287
▁ɛbobɔba	-10288
▁ɛbrɛaba	-10289
▁ɛbɛdamu	-10290
▁ɛbɛsidɛ	-10291
▁ɛbɛtete	-10292
▁ɛbɛwodɛ	-10293
▁ɛdeabrɛ	-10294
▁ɛdɛnbɛn	-10295
▁ɛfameho	-10296
▁ɛfriend	-10297
▁ɛhyehye	-10298
▁ɛhyɛnwo	-10299
.?	-10300
ɛa	-10301
iaa	-10302
lat	-10303
sla	-10304
sti	-10305
ump	-10306
▁eɛ	-10307
kokɔ	-10308
nono	-10309
onyi	-10310
oose	-10311
orte	-10312
soso	-10313
woya	-10314
▁ane	-10315
▁eɛn	-10316
▁nho	-10317
▁wɔa	-10318
anise	-10319
baayɛ	-10320
hyere	-10321
nwene	-10322
stikɔ	-10323
witwa	-10324
▁abuo	-10325
▁adie	-10326
▁ashe	-10327
▁baha	-10328
▁byeb	-10329
▁flat	-10330
▁hiaa	-10331
▁nabɛ	-10332
▁neka	-10333
▁pump	-10334
▁rape	-10335
▁ɔnde	-10336
▁ɛbra	-10337
aloose	-10338
gyafoɔ	-10339
ortest	-10340
woyale	-10341
▁abadi	-10342
▁berɛa	-10343
▁betwa	-10344
▁brane	-10345
▁brɛno	-10346
▁dinmu	-10347
▁dɛmaa	-10348
▁efise	-10349
▁kɔkaa	-10350
▁mammɛ	-10351
▁meneɛ	-10352
▁mpoma	-10353
▁sɛnɛa	-10354
▁wonyɔ	-10355
▁ɔdaso	-10356
▁ɔmone	-10357
▁ɔmose	-10358
▁ɔtwen	-10359
▁ɛdana	-10360
▁ɛnane	-10361
▁abɔdwa	-10362
▁agyire	-10363
▁ahaanu	-10364
▁apitii	-10365
▁byebye	-10366
▁efiseɔ	-10367
▁enkokɔ	-10368
▁eɛnnyɛ	-10369
▁faɔbaa	-10370
▁fosuma	-10371
▁gyerɛw	-10372
▁hɔakyɛ	-10373
▁kohyia	-10374
▁mekyea	-10375
▁mempɛn	-10376
▁serɛko	-10377
▁spɛɛsi	-10378
▁wompue	-10379
▁wotetɛ	-10380
▁ɛsomaa	-10381
twarning	-10382
▁akyɛyɛn	-10383
▁ataadie	-10384
▁deɛɛnyɛ	-10385
▁dɛmaana	-10386
▁hwiensa	-10387
▁menkyen	-10388
▁mobaayɛ	-10389
▁mpaeɛbɛ	-10390
▁nantepo	-10391
▁nkyiamu	-10392
▁nnaadaa	-10393
▁ntwitwa	-10394
▁sofasoɔ	-10395
▁sofopɔn	-10396
▁wogyidi	-10397
▁wotease	-10398
▁ɔbaaɔre	-10399
era	-10400
mba	-10401
ose	-10402
ray	-10403
rim	-10404
▁os	-10405
ɛgye	-10406
▁mew	-10407
▁ogu	-10408
▁puɛ	-10409
▁ɔtw	-10410
akɔyi	-10411
aneyi	-10412
sesɛm	-10413
tball	-10414
water	-10415
wonum	-10416
▁antu	-10417
▁mewe	-10418
▁onbu	-10419
▁osha	-10420
▁pɛpɛ	-10421
▁soeɛ	-10422
▁wadi	-10423
▁woaa	-10424
▁wuni	-10425
▁yɛbu	-10426
▁yɛdɔ	-10427
▁yɛni	-10428
▁ɔfrɛ	-10429
▁ɔmrɛ	-10430
rimane	-10431
▁ayeya	-10432
▁entiw	-10433
▁haɛde	-10434
▁mebɛf	-10435
▁mɛtaa	-10436
▁nimna	-10437
▁noabɛ	-10438
▁ntɔwo	-10439
▁obihɔ	-10440
▁obiwɔ	-10441
▁saaka	-10442
▁sahwi	-10443
▁wanye	-10444
▁yɛnfo	-10445
▁yɛngu	-10446
▁yɛyɛɛ	-10447
▁ɔngya	-10448
▁abrabo	-10449
▁akwane	-10450
▁bueiii	-10451
▁gyeeyi	-10452
▁hyemba	-10453
▁kwasie	-10454
▁mebayi	-10455
▁menpue	-10456
▁mewhia	-10457
▁nanasa	-10458
▁ndaase	-10459
▁ntoose	-10460
▁wahusɛ	-10461
▁ɛmbaso	-10462
akagyerɛ	-10463
▁akwanea	-10464
▁hwɛɔbaa	-10465
▁matɛmsɛ	-10466
▁menyale	-10467
▁montena	-10468
▁redwene	-10469
▁senatus	-10470
▁ɔkeyena	-10471
▁ɔnnwene	-10472
▁ɔsososo	-10473
▁ɛkomhyɛ	-10474
▁ɛkwanso	-10475
▁ɛmmerma	-10476
▁ɛnamafo	-10477
▁ɛnawode	-10478
▁ɛnfasoa	-10479
▁ɛnkateɛ	-10480
▁ɛnkyere	-10481
▁ɛnkyɛeɛ	-10482
▁ɛnkɔraa	-10483
▁ɛnniobi	-10484
▁ɛntɔkwa	-10485
▁ɛnyɛbad	-10486
▁ɛrebɛfa	-10487
▁ɛrepere	-10488
▁ɛsanesɛ	-10489
▁ɛsensaa	-10490
▁ɛyɛmeya	-10491
▁ɛyɛɛdeɛ	-10492
abatiriso	-10493
abusabusa	-10494
aduaneɛne	-10495
adwumasɛm	-10496
agyimisaa	-10497
ahuawiase	-10498
akanyinaa	-10499
wl	-10500
sim	-10501
anda	-10502
kaeɛ	-10503
kara	-10504
maka	-10505
metu	-10506
uman	-10507
wena	-10508
▁oyɛ	-10509
aplan	-10510
▁addo	-10511
▁afra	-10512
▁anti	-10513
▁bowl	-10514
▁deɛm	-10515
▁deɛw	-10516
▁dɔme	-10517
▁ewin	-10518
▁koom	-10519
▁krou	-10520
▁kwak	-10521
▁maay	-10522
▁mafa	-10523
▁masi	-10524
▁merɛ	-10525
▁msrɛ	-10526
▁mɛsi	-10527
▁noaa	-10528
▁reda	-10529
▁tebɛ	-10530
▁town	-10531
▁wɔpɛ	-10532
▁ɛpre	-10533
adwena	-10534
kɔworɔ	-10535
nkwasi	-10536
rakara	-10537
▁abawa	-10538
▁asɔne	-10539
▁atwam	-10540
▁brɛna	-10541
▁ekuta	-10542
▁gyafo	-10543
▁human	-10544
▁kaayɛ	-10545
▁mayan	-10546
▁nyado	-10547
▁wodan	-10548
▁wonsɛ	-10549
obusuam	-10550
wensani	-10551
▁agyamɛ	-10552
▁akyɛrɛ	-10553
▁ammend	-10554
▁fakoto	-10555
▁hehehe	-10556
▁hwɛase	-10557
▁kasapa	-10558
▁moamma	-10559
▁moatia	-10560
▁mongye	-10561
▁mpredu	-10562
▁ntɛmpa	-10563
▁nyadoa	-10564
▁sɛsɛbi	-10565
▁wadidi	-10566
▁wonsim	-10567
▁yɛbɛdi	-10568
▁ɔdebaa	-10569
▁ɔnnyɛɛ	-10570
▁adeɛbɛn	-10571
▁asumdwe	-10572
▁awerɛho	-10573
▁ehuadeɛ	-10574
▁futufoɔ	-10575
▁heeeiii	-10576
▁kurommu	-10577
▁kɔmaame	-10578
▁mayanka	-10579
▁mepusuu	-10580
▁mobɛgye	-10581
▁ompaebɔ	-10582
▁wogyedi	-10583
▁wohyira	-10584
akyeakyea	-10585
akyekyere	-10586
anamontuo	-10587
anumonyam	-10588
asomdwoye	-10589
boyfriend	-10590
brɛbrɛbrɛ	-10591
fessional	-10592
frenkyibɔ	-10593
hahaahaha	-10594
haleykwan	-10595
hinesefoɔ	-10596
inderella	-10597
kaamotobi	-10598
kuromotie	-10599
pm	-10600
bby	-10601
mpɛ	-10602
pim	-10603
▁eb	-10604
adri	-10605
buda	-10606
deɛa	-10607
mada	-10608
makɔ	-10609
nala	-10610
yine	-10611
▁gru	-10612
▁mba	-10613
▁mse	-10614
▁sti	-10615
▁wua	-10616
▁ɛbo	-10617
brebe	-10618
ɔntia	-10619
▁abae	-10620
▁gyon	-10621
▁hueɛ	-10622
▁hɔaa	-10623
▁mmia	-10624
▁naka	-10625
▁nose	-10626
▁nwua	-10627
▁ontu	-10628
▁somu	-10629
▁yafi	-10630
▁ɔmmɔ	-10631
▁ɛnsi	-10632
▁abɛsa	-10633
▁apere	-10634
▁asowo	-10635
▁atɔme	-10636
▁deɛyɛ	-10637
▁ebene	-10638
▁kobby	-10639
▁mabre	-10640
▁mehan	-10641
▁mewen	-10642
▁minta	-10643
▁mpayɛ	-10644
▁neafa	-10645
▁nodɛn	-10646
▁nonom	-10647
▁nyaeɛ	-10648
▁stree	-10649
▁tuabi	-10650
▁wontu	-10651
▁ɛyere	-10652
▁ɛyɛay	-10653
animfuo	-10654
ayɛpapa	-10655
yansani	-10656
▁akyɛbɛ	-10657
▁akɔpim	-10658
▁anantu	-10659
▁daanaa	-10660
▁eeiina	-10661
▁emomsɛ	-10662
▁enbuda	-10663
▁ewaise	-10664
▁finala	-10665
▁neamma	-10666
▁nimboa	-10667
▁nkyine	-10668
▁ntideɛ	-10669
▁street	-10670
▁tweram	-10671
▁wobɛbo	-10672
▁wonmpɛ	-10673
▁wonsua	-10674
▁wototo	-10675
▁wowerɛ	-10676
▁yeahne	-10677
▁yesiwa	-10678
▁yɔntia	-10679
▁yɛgyai	-10680
▁abranti	-10681
▁adagyeɛ	-10682
▁deɛnsɛm	-10683
▁nemaame	-10684
▁nimpong	-10685
▁tuabill	-10686
▁wagadri	-10687
▁wobetie	-10688
▁woboase	-10689
▁ɔbɛsore	-10690
▁ɛrewowɔ	-10691
kuromufoɔ	-10692
mepaakyɛw	-10693
oomlionno	-10694
prrrriiim	-10695
trimonial	-10696
ueennkasa	-10697
ueensesei	-10698
wankuruwa	-10699
ahy	-10700
amo	-10701
bil	-10702
ewu	-10703
hɛh	-10704
sab	-10705
ugu	-10706
behu	-10707
kele	-10708
kɔso	-10709
meyɛ	-10710
muel	-10711
wopɛ	-10712
yiri	-10713
▁gir	-10714
▁osɛ	-10715
▁ssɛ	-10716
▁ɛfo	-10717
▁ɛwe	-10718
▁ɛwu	-10719
ahyda	-10720
akasɛ	-10721
blood	-10722
guugu	-10723
tabil	-10724
unior	-10725
▁ayin	-10726
▁bebu	-10727
▁enan	-10728
▁ewuo	-10729
▁mapo	-10730
▁meya	-10731
▁para	-10732
▁pɛno	-10733
▁sɛso	-10734
▁yehu	-10735
ewuraa	-10736
kelewa	-10737
onsent	-10738
pispis	-10739
▁feele	-10740
▁front	-10741
▁girla	-10742
▁maneɛ	-10743
▁mebra	-10744
▁mereb	-10745
▁nanba	-10746
▁oohma	-10747
▁wosab	-10748
▁wosum	-10749
▁yansa	-10750
▁yɛnto	-10751
▁yɛuse	-10752
▁ɔbebu	-10753
▁ɔkunu	-10754
▁ɔnyɛɛ	-10755
▁ɔwɔhe	-10756
▁ɛbɛtu	-10757
▁ɛdano	-10758
▁ɛnhaw	-10759
▁ɛnwum	-10760
guguugu	-10761
▁abeteɛ	-10762
▁bɛkyea	-10763
▁entino	-10764
▁manhyɛ	-10765
▁nhomaa	-10766
▁nkyiri	-10767
▁nohoaa	-10768
▁otabil	-10769
▁samuel	-10770
▁tetɛtɛ	-10771
▁wapamo	-10772
▁weisei	-10773
▁yebehu	-10774
▁yiedie	-10775
▁yɛused	-10776
▁ɛnwane	-10777
▁akwaboa	-10778
▁akɔmkye	-10779
▁anyways	-10780
▁awrehoɔ	-10781
▁dɛnkyɛm	-10782
▁girlaba	-10783
▁memogya	-10784
▁monkyɛn	-10785
▁oohmasa	-10786
▁skelewa	-10787
▁sɛbaako	-10788
▁wodeɛbɛ	-10789
▁ɔmoyere	-10790
werekakro	-10791
▁aaseisei	-10792
▁abakɔsɛm	-10793
▁abankese	-10794
▁abankoko	-10795
▁abarimaa	-10796
▁abedware	-10797
▁abeyisɛm	-10798
▁abibifoɔ	-10799
ars	-10800
eie	-10801
kos	-10802
nfa	-10803
rew	-10804
...'	-10805
rumu	-10806
yama	-10807
▁bɛk	-10808
▁nhɛ	-10809
▁poa	-10810
▁tei	-10811
▁ɔnɔ	-10812
years	-10813
▁afro	-10814
▁buei	-10815
▁fare	-10816
▁kase	-10817
▁kaye	-10818
▁muwɔ	-10819
▁mɛpa	-10820
▁nadi	-10821
▁nimu	-10822
▁pɛmu	-10823
▁woha	-10824
▁yeda	-10825
▁yeyi	-10826
▁yieɛ	-10827
▁yime	-10828
▁ɔdeg	-10829
koshie	-10830
kurumu	-10831
kyerɔw	-10832
▁ahasa	-10833
▁akono	-10834
▁apiti	-10835
▁asowɔ	-10836
▁kekaa	-10837
▁kwaye	-10838
▁kyɛrɛ	-10839
▁meaba	-10840
▁monti	-10841
▁mpata	-10842
▁nkɔeɛ	-10843
▁nkɔyi	-10844
▁saawu	-10845
▁sɔwhɛ	-10846
▁sɛakɔ	-10847
▁tefie	-10848
▁twemu	-10849
▁woowo	-10850
▁ɔdene	-10851
▁ɛtoeɛ	-10852
manyama	-10853
omputer	-10854
▁agyawo	-10855
▁agyena	-10856
▁asaana	-10857
▁biyare	-10858
▁bɔboro	-10859
▁konini	-10860
▁kyɛrew	-10861
▁nkyɛmu	-10862
▁retutu	-10863
▁tiafoɔ	-10864
▁wonnfa	-10865
▁wonsan	-10866
▁yieɛne	-10867
▁yɛnfom	-10868
▁ɔretwe	-10869
▁ɛrehwɛ	-10870
asomdwoe	-10871
▁biarame	-10872
▁birirbi	-10873
▁kaahunu	-10874
▁maameme	-10875
▁wonyini	-10876
▁ɔdegyaa	-10877
ontumpunu	-10878
▁abrabɔno	-10879
▁abufusɛm	-10880
▁abusuane	-10881
▁abusuani	-10882
▁abɔdwesɛ	-10883
▁abɛbirim	-10884
▁abɛgyerɛ	-10885
▁adaagyeɛ	-10886
▁adekyemu	-10887
▁adeshieɛ	-10888
▁adeɛakye	-10889
▁adeɛanaa	-10890
▁adusifoɔ	-10891
▁afafantɔ	-10892
▁agodebea	-10893
▁agoprama	-10894
▁agorɔdie	-10895
▁agwareyɛ	-10896
▁agyeiwaa	-10897
▁agyepong	-10898
▁ahebiara	-10899
ape	-10900
dɛm	-10901
fuu	-10902
nto	-10903
ɛfɛ	-10904
ɛto	-10905
olat	-10906
teto	-10907
▁mbɛ	-10908
▁obo	-10909
angye	-10910
antia	-10911
hahan	-10912
hello	-10913
ntoma	-10914
oanya	-10915
omano	-10916
ripri	-10917
▁ahie	-10918
▁bath	-10919
▁butu	-10920
▁euro	-10921
▁miri	-10922
▁mɛto	-10923
▁neto	-10924
▁tɛku	-10925
▁wawɔ	-10926
▁wisa	-10927
▁ɛnbu	-10928
▁ɛsom	-10929
abetie	-10930
apegya	-10931
▁asere	-10932
▁awawa	-10933
▁begye	-10934
▁dange	-10935
▁deayɛ	-10936
▁fɛɛfɛ	-10937
▁modɛm	-10938
▁mpopa	-10939
▁naaba	-10940
▁nanam	-10941
▁nanda	-10942
▁nanti	-10943
▁nosɛn	-10944
▁nsobɛ	-10945
▁nsode	-10946
▁nsone	-10947
▁obiri	-10948
▁soara	-10949
▁tofuu	-10950
▁wafre	-10951
▁wobrɛ	-10952
▁wuraa	-10953
▁yieii	-10954
▁ɔhwee	-10955
▁ɔmoyɛ	-10956
▁ɛkɔme	-10957
▁ɛkɔyɛ	-10958
▁ɛmbra	-10959
▁ɛniso	-10960
▁ahwɛso	-10961
▁bɛtoto	-10962
▁drɔɔse	-10963
▁kɔworɔ	-10964
▁menyai	-10965
▁moanya	-10966
▁naaseɛ	-10967
▁nanise	-10968
▁obaaeɛ	-10969
▁wotino	-10970
▁wɔhene	-10971
▁yefiri	-10972
▁yɛnnte	-10973
▁ɔbɛnya	-10974
▁ɛnbubu	-10975
anidasoɔ	-10976
▁abɛteto	-10977
▁dangero	-10978
▁ghanaba	-10979
▁mantumi	-10980
▁metirim	-10981
▁mpripri	-10982
▁nadaabi	-10983
▁ntomano	-10984
▁rehahan	-10985
▁wawofoɔ	-10986
▁ɛyɛwosɛ	-10987
kyekyekye	-10988
▁ababaɛfa	-10989
▁ahobanbɔ	-10990
▁ahogyerɛ	-10991
▁ahohodan	-10992
▁ahohokra	-10993
▁ahokyere	-10994
▁ahomagye	-10995
▁ahonhono	-10996
▁ahoɔfɛso	-10997
▁ahumɔbrɔ	-10998
▁ahwieegu	-10999
ure	-11000
ɛpɛ	-11001
anbɔ	-11002
anpɛ	-11003
ross	-11004
yiee	-11005
▁htɔ	-11006
▁pɛw	-11007
▁sɔn	-11008
behia	-11009
nyina	-11010
▁agen	-11011
▁agra	-11012
▁agro	-11013
▁asre	-11014
▁assi	-11015
▁dres	-11016
▁maya	-11017
▁mmon	-11018
▁mopɛ	-11019
▁nabu	-11020
▁neso	-11021
▁nini	-11022
▁ooma	-11023
▁ooow	-11024
▁wapɛ	-11025
▁wuhu	-11026
▁yɛbɔ	-11027
▁ɔnna	-11028
▁ɛbaɛ	-11029
▁ɛnbɔ	-11030
akyiri	-11031
▁adahɔ	-11032
▁amame	-11033
▁enfii	-11034
▁heeyy	-11035
▁kɛsɛe	-11036
▁menbɔ	-11037
▁menwe	-11038
▁mmɛbɔ	-11039
▁monsi	-11040
▁wonpɛ	-11041
▁yinti	-11042
▁ɔgyaa	-11043
▁ɔmene	-11044
▁ɛkofa	-11045
yɛbehia	-11046
▁aboano	-11047
▁adeɛfo	-11048
▁adeɛna	-11049
▁adeɛyi	-11050
▁akɔhan	-11051
▁amafoɔ	-11052
▁anaano	-11053
▁antena	-11054
▁assist	-11055
▁asɛmka	-11056
▁asɛmne	-11057
▁bought	-11058
▁brɛbrɛ	-11059
▁efrisɛ	-11060
▁enante	-11061
▁medwen	-11062
▁menuso	-11063
▁mmonmɔ	-11064
▁mpayin	-11065
▁nabufo	-11066
▁nadwen	-11067
▁nanyin	-11068
▁nsuomu	-11069
▁wonene	-11070
▁ɔmonkɔ	-11071
▁ɛbɛyɛɛ	-11072
frayɛfoɔ	-11073
▁agradaa	-11074
▁atenase	-11075
▁nantena	-11076
▁watease	-11077
▁wokɔhwɛ	-11078
▁wonsona	-11079
▁yɛnboro	-11080
▁abamsoro	-11081
▁adeɛfofo	-11082
▁adwumayɛ	-11083
▁ahyɛnsoɔ	-11084
▁akabiara	-11085
▁akakaben	-11086
▁akntinka	-11087
▁akonhoma	-11088
▁akonwaso	-11089
▁akorɔmfo	-11090
▁akronfoɔ	-11091
▁aksakasa	-11092
▁akɔgyina	-11093
▁akɔhyere	-11094
▁akɔhyɛmu	-11095
▁akɛsefoɔ	-11096
▁amamenua	-11097
▁anaasɛyɛ	-11098
▁aniamoho	-11099
how	-11100
howa	-11101
nkyɛ	-11102
rani	-11103
toho	-11104
unde	-11105
wɔse	-11106
▁bad	-11107
▁hea	-11108
▁ɔho	-11109
akɔpɛ	-11110
rents	-11111
ummrɛ	-11112
▁duna	-11113
▁heat	-11114
▁kani	-11115
▁mmma	-11116
▁mmpɛ	-11117
▁muah	-11118
▁onyɛ	-11119
▁seia	-11120
▁seiɛ	-11121
▁sɔɔn	-11122
▁tohɔ	-11123
▁wɔho	-11124
▁yeni	-11125
▁yɛnk	-11126
▁ɛnhe	-11127
adwosɔ	-11128
entumi	-11129
mobɛto	-11130
▁abame	-11131
▁akonn	-11132
▁akɔma	-11133
▁anaan	-11134
▁bloss	-11135
▁bobaa	-11136
▁densɛ	-11137
▁flirt	-11138
▁manto	-11139
▁masan	-11140
▁mofrɛ	-11141
▁monku	-11142
▁nosei	-11143
▁nsamu	-11144
▁paamo	-11145
▁paana	-11146
▁podua	-11147
▁seise	-11148
▁sɔɔnɔ	-11149
▁wanhɛ	-11150
▁wotoa	-11151
▁yeedi	-11152
▁yɛnsa	-11153
▁yɛnti	-11154
▁ɛname	-11155
parents	-11156
▁anaanw	-11157
▁anaase	-11158
▁anfiri	-11159
▁antimi	-11160
▁bɛkasɛ	-11161
▁bɛyere	-11162
▁edekan	-11163
▁entumi	-11164
▁firaeɛ	-11165
▁kyinaa	-11166
▁memmae	-11167
▁mɛguso	-11168
▁neɛmaa	-11169
▁nnaada	-11170
▁nnompe	-11171
▁paamoo	-11172
▁pawers	-11173
▁sounde	-11174
▁wonnom	-11175
▁wotete	-11176
▁yehowa	-11177
▁yɛnfrɛ	-11178
▁yɛyere	-11179
▁ɔwɔfie	-11180
▁ɛnyɛbi	-11181
▁akonnua	-11182
▁awummrɛ	-11183
▁kakrani	-11184
▁mayɛnkɔ	-11185
▁nfatoho	-11186
▁nyameso	-11187
▁wanhɛwɛ	-11188
▁wobiara	-11189
▁yɛkɔfaa	-11190
▁aniamɔho	-11191
▁anibrefo	-11192
▁ankwadaa	-11193
▁anointed	-11194
▁apapafoɔ	-11195
▁asetenaa	-11196
▁asigyere	-11197
▁asikafoɔ	-11198
▁asoredan	-11199
ky	-11200
ob	-11201
amm	-11202
who	-11203
▁lb	-11204
bese	-11205
hase	-11206
nipa	-11207
▁suo	-11208
▁yok	-11209
whooo	-11210
▁aayi	-11211
▁abad	-11212
▁awhe	-11213
▁enha	-11214
▁kano	-11215
▁kbon	-11216
▁nyɛw	-11217
▁okye	-11218
▁suma	-11219
▁tiaa	-11220
▁tope	-11221
▁ɔnba	-11222
▁ɔnye	-11223
▁ɛdam	-11224
gether	-11225
▁abasa	-11226
▁abayi	-11227
▁afiai	-11228
▁akonu	-11229
▁akɔkɔ	-11230
▁arabe	-11231
▁arayi	-11232
▁brodo	-11233
▁emuna	-11234
▁ensan	-11235
▁makye	-11236
▁menyi	-11237
▁mepaw	-11238
▁moaye	-11239
▁nfifi	-11240
▁opɛsɛ	-11241
▁paawo	-11242
▁retwe	-11243
▁wakae	-11244
▁wakye	-11245
▁watoa	-11246
▁wokye	-11247
▁yieei	-11248
▁yɛnsi	-11249
▁ɔbɛsi	-11250
▁ɛnnya	-11251
▁ɛwɔhe	-11252
▁ɛwɔwo	-11253
▁adefoɔ	-11254
▁adrink	-11255
▁asɛdeɛ	-11256
▁awheta	-11257
▁eiiiii	-11258
▁gyaena	-11259
▁kbonsu	-11260
▁mekɔka	-11261
▁mempam	-11262
▁naadaa	-11263
▁papane	-11264
▁rights	-11265
▁adeɛkye	-11266
▁atuguba	-11267
▁atɔadeɛ	-11268
▁ayɛbese	-11269
▁hellooo	-11270
▁manyare	-11271
▁megware	-11272
▁mmayewa	-11273
▁nansoso	-11274
▁nfifire	-11275
▁wongyae	-11276
▁yɛdaase	-11277
▁ɔdɛɛfoo	-11278
▁ɛnkasei	-11279
▁adeɛmmrɛ	-11280
▁asumasɛm	-11281
▁asɔfodeɛ	-11282
▁asɔfodie	-11283
▁asɔfosɛm	-11284
▁asɔredan	-11285
▁ateasefo	-11286
▁atetesem	-11287
▁atetɛatɛ	-11288
▁atitiriw	-11289
▁awanyane	-11290
▁awerɛkye	-11291
▁awofoɔhɔ	-11292
▁ayarefoɔ	-11293
▁ayerefoɔ	-11294
▁ayeyiama	-11295
▁baabɛsia	-11296
▁baanaasɛ	-11297
▁babibira	-11298
▁barimane	-11299
don	-11300
ɛti	-11301
emma	-11302
esem	-11303
wɔyɛ	-11304
▁bii	-11305
▁diɛ	-11306
▁pea	-11307
manyɛ	-11308
▁bɛde	-11309
▁diin	-11310
▁fona	-11311
▁huaa	-11312
▁hɔme	-11313
▁koaa	-11314
▁misa	-11315
▁ndaa	-11316
▁nnum	-11317
▁node	-11318
▁ohwɛ	-11319
▁pass	-11320
▁woke	-11321
▁yefu	-11322
▁yɛoo	-11323
▁ɛdaa	-11324
daakye	-11325
▁akɔda	-11326
▁akɔto	-11327
▁akɔye	-11328
▁amene	-11329
▁annom	-11330
▁asɔme	-11331
▁baeyɛ	-11332
▁bohyɛ	-11333
▁brewa	-11334
▁bɔhwɛ	-11335
▁bɛnoa	-11336
▁danee	-11337
▁mamma	-11338
▁manda	-11339
▁mbɛto	-11340
▁mmayɛ	-11341
▁mosre	-11342
▁neawo	-11343
▁nkɔyɛ	-11344
▁nnsɛm	-11345
▁sanyɛ	-11346
▁wanba	-11347
▁woahu	-11348
▁wɔhwɛ	-11349
▁yakyɛ	-11350
▁yerea	-11351
▁yɛnye	-11352
▁yɛsrɛ	-11353
▁ɔbɛma	-11354
▁ɔtwaa	-11355
▁akɔhwɛ	-11356
▁ankorɛ	-11357
▁asotwe	-11358
▁baayɛa	-11359
▁kɔdana	-11360
▁kɔkɔkɔ	-11361
▁latest	-11362
▁mmasɛm	-11363
▁nteseɛ	-11364
▁rebɛtu	-11365
▁sikade	-11366
▁wobɛtu	-11367
▁wonane	-11368
▁yeduru	-11369
▁ɛwɔfie	-11370
hriatian	-11371
▁amoakye	-11372
▁anyɛsaa	-11373
▁asɛmbio	-11374
▁homhomu	-11375
▁nsaberɛ	-11376
▁ntaadeɛ	-11377
▁outside	-11378
▁sikafoɔ	-11379
▁woahusɛ	-11380
▁ɛrewoso	-11381
▁akyerɛma	-11382
▁awudifoɔ	-11383
▁bathroom	-11384
▁bebreeno	-11385
▁bebriree	-11386
▁biabɔdam	-11387
▁bibiarao	-11388
▁bigyimii	-11389
▁birbiara	-11390
▁biribiso	-11391
▁bisafiri	-11392
▁boamassa	-11393
▁bonwhire	-11394
▁busabusa	-11395
▁busuofoɔ	-11396
▁bɔhwehwɛ	-11397
▁bɔkɔɔdeɛ	-11398
▁bɔmmɔden	-11399
ɛho	-11400
ɛpa	-11401
lean	-11402
rɛnu	-11403
▁las	-11404
▁yet	-11405
▁ɛbu	-11406
boawɔ	-11407
dɛmaa	-11408
gyera	-11409
hrist	-11410
▁abɛw	-11411
▁ambɛ	-11412
▁atɛn	-11413
▁ayɛɛ	-11414
▁bɛbo	-11415
▁edua	-11416
▁eeeh	-11417
▁eina	-11418
▁eine	-11419
▁foon	-11420
▁gugu	-11421
▁gyea	-11422
▁kome	-11423
▁mose	-11424
▁mpɛn	-11425
▁ntoɔ	-11426
▁owuu	-11427
▁tomu	-11428
▁ɔsei	-11429
nkɛnti	-11430
▁abɛko	-11431
▁abɛyi	-11432
▁adɛnw	-11433
▁akyɛn	-11434
▁angye	-11435
▁ayɛsɛ	-11436
▁basei	-11437
▁birim	-11438
▁brana	-11439
▁bɔnea	-11440
▁bɛsei	-11441
▁entim	-11442
▁gyeba	-11443
▁gyede	-11444
▁gyeno	-11445
▁hwɛma	-11446
▁magye	-11447
▁moate	-11448
▁nkɔma	-11449
▁ohene	-11450
▁sosɔɔ	-11451
▁wasei	-11452
▁woabo	-11453
▁woate	-11454
▁yiema	-11455
▁yɛtua	-11456
▁ɛnsei	-11457
▁ɛnɛme	-11458
mmoasɛm	-11459
▁bediwo	-11460
▁bɛkumi	-11461
▁deɛgye	-11462
▁keterɛ	-11463
▁kɔtena	-11464
▁mangye	-11465
▁mboawɔ	-11466
▁menkɔɔ	-11467
▁mprɛnu	-11468
▁naɔbaa	-11469
▁nimnso	-11470
▁nkɔdaa	-11471
▁yɛnnya	-11472
▁yɛɛsan	-11473
▁ɔbaabi	-11474
▁ɔbaafo	-11475
▁ɔbaana	-11476
▁ɔbaane	-11477
▁ɔbaaye	-11478
▁ɔrenkɔ	-11479
abamesrɛ	-11480
▁abarima	-11481
▁aduɔson	-11482
▁akyakya	-11483
▁amotuom	-11484
▁kakramɛ	-11485
▁married	-11486
▁menpɛsɛ	-11487
etenketen	-11488
▁anwumerɛ	-11489
▁asoredem	-11490
▁atonkyɛn	-11491
▁barimabi	-11492
▁bɔɔɛdwom	-11493
▁bɛkotoko	-11494
▁bɛkyekyɛ	-11495
▁bɛnnnyae	-11496
▁daabiara	-11497
▁daakyebi	-11498
▁daakyɛwo	-11499
hur	-11500
rie	-11501
rug	-11502
wru	-11503
ɔɔw	-11504
afor	-11505
anta	-11506
fata	-11507
oakɔ	-11508
▁aww	-11509
▁buu	-11510
▁nre	-11511
▁oku	-11512
▁ɔku	-11513
aneka	-11514
atien	-11515
yaaya	-11516
▁ahhh	-11517
▁atta	-11518
▁drug	-11519
▁ekuu	-11520
▁enfi	-11521
▁fore	-11522
▁kuru	-11523
▁kyae	-11524
▁nimo	-11525
▁teta	-11526
▁woku	-11527
▁ɛkɔn	-11528
▁ɛnok	-11529
▁ɛwie	-11530
animme	-11531
anwene	-11532
kotome	-11533
▁akwam	-11534
▁awrie	-11535
▁eiɛnɛ	-11536
▁gatea	-11537
▁haɛnɛ	-11538
▁munam	-11539
▁mɛnya	-11540
▁nimno	-11541
▁nimso	-11542
▁nkata	-11543
▁nrela	-11544
▁sesɛn	-11545
▁tɔade	-11546
▁wonwu	-11547
▁ɔdase	-11548
▁ɔnona	-11549
▁ɛbɛsa	-11550
▁ɛbɛye	-11551
▁ɛfata	-11552
▁ɛnoyɛ	-11553
▁ɛtoso	-11554
▁adeyie	-11555
▁afriri	-11556
▁anwene	-11557
▁baabro	-11558
▁breɔɔw	-11559
▁deɛnka	-11560
▁deɛnna	-11561
▁gyerɛɛ	-11562
▁kyakya	-11563
▁naadɛn	-11564
▁nanaka	-11565
▁ntanta	-11566
▁rekano	-11567
▁wonsii	-11568
▁wonyae	-11569
▁yenyae	-11570
▁ɛbɛgye	-11571
▁ɛbɛmma	-11572
▁ɛbɛsei	-11573
▁another	-11574
▁biarabɔ	-11575
▁biarabɛ	-11576
▁kwaamoa	-11577
▁mɛwieyɛ	-11578
▁ndidieɛ	-11579
▁nwunuso	-11580
▁regyena	-11581
▁wadwuma	-11582
▁wobɛbrɛ	-11583
▁yayaaya	-11584
▁ɛbɛfata	-11585
▁ɛmomɔmo	-11586
▁dabodabo	-11587
▁dadagyeɛ	-11588
▁dededede	-11589
▁dempadeɛ	-11590
▁deɛbible	-11591
▁deɛgyimi	-11592
▁deɛsesei	-11593
▁deɛɛdeɛn	-11594
▁deɛɛrekɔ	-11595
▁dialogue	-11596
▁differen	-11597
▁dinkunim	-11598
▁dodoɔsɛn	-11599
bow	-11600
fer	-11601
adie	-11602
fomm	-11603
hman	-11604
iena	-11605
mmaa	-11606
▁our	-11607
▁pɛo	-11608
▁sit	-11609
▁ɔfi	-11610
adwan	-11611
ayɛsɛ	-11612
ɛngye	-11613
▁dead	-11614
▁errn	-11615
▁nnɔn	-11616
▁nsra	-11617
▁nsre	-11618
▁sɔnn	-11619
▁tehɔ	-11620
▁tele	-11621
▁woyɔ	-11622
▁wɔbo	-11623
▁yale	-11624
▁yara	-11625
▁yebu	-11626
▁ɔnsi	-11627
▁ɔnwɔ	-11628
▁ɔnyi	-11629
▁ɛntɛ	-11630
ahomea	-11631
wommaa	-11632
▁akaho	-11633
▁ewiyɛ	-11634
▁fahyɛ	-11635
▁koobi	-11636
▁kyesɛ	-11637
▁mediɛ	-11638
▁mɛkyɛ	-11639
▁odihɔ	-11640
▁prote	-11641
▁suspe	-11642
▁wahyɛ	-11643
▁wankɔ	-11644
▁wansi	-11645
▁whole	-11646
▁wonna	-11647
▁ɔbɛto	-11648
▁ɔndaa	-11649
▁ɛkayɛ	-11650
▁ɛtɔda	-11651
ɔnyinaa	-11652
▁abɛkyɛ	-11653
▁adedie	-11654
▁akadeɛ	-11655
▁akakyi	-11656
▁akyrɛw	-11657
▁asɔdan	-11658
▁baakoa	-11659
▁enyina	-11660
▁kinten	-11661
▁metire	-11662
▁mmakuo	-11663
▁nipadɔ	-11664
▁nkoraa	-11665
▁nkyɛeɛ	-11666
▁nkɔhyɛ	-11667
▁nnwuma	-11668
▁pamomi	-11669
▁rebɛfa	-11670
▁rekayi	-11671
▁strong	-11672
▁wobɛsi	-11673
▁yɛnnim	-11674
▁ɔnenam	-11675
▁ɔnfomm	-11676
▁ɔnodeɛ	-11677
▁ɔrefer	-11678
▁ɛbɛhyɛ	-11679
▁adeakye	-11680
▁freedom	-11681
▁nipadɔm	-11682
▁rainbow	-11683
▁twetere	-11684
▁worepre	-11685
▁yerenum	-11686
▁yɛbɛhwɛ	-11687
▁ɛtɔdabi	-11688
▁ahomakyi	-11689
▁akwaadaa	-11690
▁butwodeɛ	-11691
▁drinkbrɛ	-11692
▁dufudufu	-11693
▁dwakɛseɛ	-11694
▁dɔkɔdɔkɔ	-11695
▁dɛsɛdɛsɛ	-11696
▁ebegyina	-11697
▁ebehyira	-11698
▁edikanso	-11699
▁mb	-11700
asra	-11701
fisɛ	-11702
ideo	-11703
mmɔn	-11704
ɛden	-11705
▁foe	-11706
ankyi	-11707
asane	-11708
efisɛ	-11709
ɛnnyɛ	-11710
▁anfi	-11711
▁braɔ	-11712
▁gyew	-11713
▁hwaa	-11714
▁magi	-11715
▁mbla	-11716
▁mohu	-11717
▁ntra	-11718
▁ntrɛ	-11719
▁ntwe	-11720
▁wasɛ	-11721
ankɔsɔ	-11722
ɛkyerɛ	-11723
▁abobo	-11724
▁asase	-11725
▁ayina	-11726
▁daaka	-11727
▁daayɛ	-11728
▁eduan	-11729
▁feesɛ	-11730
▁mentu	-11731
▁natwa	-11732
▁ntene	-11733
▁sasra	-11734
▁wobio	-11735
▁wobɛb	-11736
▁ɔbɛko	-11737
▁ɔbɛpa	-11738
ateasɛm	-11739
morning	-11740
sɛkyerɛ	-11741
▁akopue	-11742
▁ayɛfam	-11743
▁bɔneso	-11744
▁daafoɔ	-11745
▁firieɛ	-11746
▁firimu	-11747
▁frɛfrɛ	-11748
▁kunune	-11749
▁kwadaa	-11750
▁kwanho	-11751
▁makɔyɛ	-11752
▁marima	-11753
▁mawoɔa	-11754
▁menfoa	-11755
▁meyɛyɛ	-11756
▁mmogya	-11757
▁nsɔade	-11758
▁ogyena	-11759
▁rehuri	-11760
▁wohote	-11761
▁yɛnkyɛ	-11762
▁ɔbɛhyɛ	-11763
▁akohwie	-11764
▁enikwan	-11765
▁gyaedeɛ	-11766
▁kakrame	-11767
▁onipano	-11768
▁prayɛwo	-11769
▁saneama	-11770
▁studies	-11771
▁wakyerɛ	-11772
▁wobenya	-11773
▁ɔyereme	-11774
▁ɛnkwala	-11775
▁ɛnkyerɛ	-11776
▁edummerɛ	-11777
▁edwirime	-11778
▁eeeeiiii	-11779
▁eeeiiɔdɔ	-11780
▁eeiianka	-11781
▁eeiidear	-11782
▁efiboboa	-11783
▁enfiriwo	-11784
▁ennisɛwo	-11785
▁ensisiso	-11786
▁entoasoɔ	-11787
▁enwumerɛ	-11788
▁enyinamu	-11789
▁etumiakɔ	-11790
▁faadrink	-11791
▁fiamufoɔ	-11792
▁fiebiara	-11793
▁football	-11794
▁forgetti	-11795
▁ghanafuɔ	-11796
▁ghanaian	-11797
▁gidididi	-11798
▁gigigigi	-11799
awi	-11800
masi	-11801
rekɔ	-11802
▁etu	-11803
▁foa	-11804
▁ong	-11805
▁sue	-11806
▁ɔtu	-11807
aboro	-11808
anyem	-11809
aseda	-11810
awira	-11811
kwame	-11812
misɛm	-11813
ɛnkyɛ	-11814
▁angu	-11815
▁kyim	-11816
▁nnue	-11817
▁nwee	-11818
▁odom	-11819
▁somi	-11820
▁waiy	-11821
▁waku	-11822
▁wish	-11823
▁yent	-11824
▁ɔɔka	-11825
firimu	-11826
▁abawo	-11827
▁agyea	-11828
▁anase	-11829
▁asana	-11830
▁asori	-11831
▁bɛdaa	-11832
▁ebera	-11833
▁hasei	-11834
▁meetu	-11835
▁mmreɛ	-11836
▁mpamu	-11837
▁mɛdam	-11838
▁naase	-11839
▁naɛwɔ	-11840
▁nohwa	-11841
▁nuadɔ	-11842
▁nyɛeɛ	-11843
▁wowoo	-11844
▁woyaa	-11845
▁yensa	-11846
▁yensi	-11847
▁yewie	-11848
▁yɛhia	-11849
▁ɔbɛye	-11850
▁ɔdeka	-11851
▁ɔdwoɔ	-11852
▁ɛsɔre	-11853
▁anware	-11854
▁ehyira	-11855
▁kunuyɛ	-11856
▁mebɛbɔ	-11857
▁waware	-11858
▁woasɛm	-11859
▁wokaho	-11860
▁wonboa	-11861
▁woyerɛ	-11862
▁woyɛyi	-11863
▁woyɛyɛ	-11864
▁yɛware	-11865
▁ɛtwamu	-11866
amentena	-11867
erywhere	-11868
▁afoofie	-11869
▁akɔware	-11870
▁asemasi	-11871
▁getting	-11872
▁kɔtamkɔ	-11873
▁naasɛbi	-11874
▁obuebue	-11875
▁redelay	-11876
▁wokoraa	-11877
▁wommame	-11878
▁yentumi	-11879
▁yentwen	-11880
▁yenyina	-11881
▁yɛbaasɛ	-11882
▁ɛnyɛdam	-11883
▁abɛhyɛmu	-11884
▁adwumayi	-11885
▁akyerɛsɛ	-11886
▁goliathi	-11887
▁gyamaase	-11888
▁gyebiara	-11889
▁gyegyefo	-11890
▁gyenaɛna	-11891
▁gyimiebi	-11892
▁happened	-11893
▁hoedwiri	-11894
▁hwɛsofoɔ	-11895
▁hɔhoɔɛwɔ	-11896
▁hɔobiara	-11897
▁kabiribi	-11898
▁kadagyie	-11899
eeii	-11900
twii	-11901
▁eer	-11902
▁lil	-11903
▁lip	-11904
▁mpɔ	-11905
▁tiw	-11906
▁wok	-11907
▁ɛhu	-11908
anomu	-11909
enfie	-11910
ening	-11911
ingaa	-11912
▁aakɔ	-11913
▁aala	-11914
▁etia	-11915
▁gyan	-11916
▁kyia	-11917
▁nnii	-11918
▁odin	-11919
▁owie	-11920
▁titi	-11921
▁wadɔ	-11922
▁wodɔ	-11923
▁ɛfie	-11924
atanfo	-11925
watwii	-11926
▁abrɛw	-11927
▁akyia	-11928
▁binom	-11929
▁bogya	-11930
▁bɔɔla	-11931
▁bɛgya	-11932
▁hyɛyi	-11933
▁kofie	-11934
▁mewee	-11935
▁nsoeɛ	-11936
▁sumyɛ	-11937
▁wanbɛ	-11938
▁wanna	-11939
▁wanom	-11940
▁wanua	-11941
▁wanum	-11942
▁wanwa	-11943
▁wɔɔte	-11944
▁yiɛyɛ	-11945
▁yɛyia	-11946
▁ɔbɛte	-11947
▁ɔdate	-11948
▁ɛnesɛ	-11949
ahenfie	-11950
▁abɔmmu	-11951
▁abɛtum	-11952
▁akɔsra	-11953
▁asuaye	-11954
▁bɛsisi	-11955
▁etwaho	-11956
▁gyawɔn	-11957
▁kasaeɛ	-11958
▁kayerɛ	-11959
▁kyewaa	-11960
▁nhwene	-11961
▁odidie	-11962
▁prison	-11963
▁seseii	-11964
▁tumihu	-11965
▁tumika	-11966
▁wanyin	-11967
▁wontɛm	-11968
▁woyade	-11969
▁wɔkɔda	-11970
▁ɔbaate	-11971
▁ɔmmɛbɔ	-11972
▁adekyen	-11973
▁awingaa	-11974
▁bebiara	-11975
▁hobiara	-11976
▁manfiri	-11977
▁manyane	-11978
▁mekyiri	-11979
▁mpɔtwem	-11980
▁sedaabi	-11981
▁wonhunu	-11982
▁yirrrrr	-11983
▁yɛbiara	-11984
▁ɛnnoɔma	-11985
▁adamudeɛ	-11986
▁adeɛabrɛ	-11987
▁asorefuo	-11988
▁awarefoɔ	-11989
▁kagyerɛɛ	-11990
▁kakraafa	-11991
▁kakrakaa	-11992
▁kakraɛyɛ	-11993
▁kandinii	-11994
▁kekansɛm	-11995
▁keterɛma	-11996
▁ketetete	-11997
▁kitakita	-11998
▁kokotako	-11999
hoke	-12000
ɛfrɛ	-12001
akata	-12002
akɔso	-12003
akɔyɛ	-12004
broda	-12005
sanie	-12006
wobue	-12007
▁apam	-12008
▁ashi	-12009
▁bɔna	-12010
▁ekɔm	-12011
▁gina	-12012
▁kɔmo	-12013
▁metɔ	-12014
▁modɔ	-12015
▁mogu	-12016
▁nshi	-12017
▁nwan	-12018
▁onie	-12019
▁retɔ	-12020
▁sara	-12021
▁totɔ	-12022
▁tɔre	-12023
▁watɔ	-12024
▁ɔsee	-12025
▁ɛpae	-12026
abafie	-12027
akadeɛ	-12028
akɔakɔ	-12029
akɔgye	-12030
akɔhwɛ	-12031
▁adesɛ	-12032
▁agooo	-12033
▁akola	-12034
▁anfrɛ	-12035
▁asopa	-12036
▁aɛnsɔ	-12037
▁bɛtwe	-12038
▁enipa	-12039
▁forgi	-12040
▁frɛwo	-12041
▁heeii	-12042
▁honni	-12043
▁hweem	-12044
▁kokoa	-12045
▁merem	-12046
▁mpare	-12047
▁nfaso	-12048
▁nfata	-12049
▁nkoso	-12050
▁noaba	-12051
▁nsaho	-12052
▁nyɛdɛ	-12053
▁sufrɛ	-12054
▁tutuu	-12055
▁woakɔ	-12056
▁yisaa	-12057
▁yɛakɔ	-12058
▁ɔsesa	-12059
ntwonku	-12060
yɔnkofa	-12061
▁asempa	-12062
▁awurad	-12063
▁ayɛfrɛ	-12064
▁danase	-12065
▁deɛɔre	-12066
▁killer	-12067
▁mansɛm	-12068
▁mekayɛ	-12069
▁menkyɛ	-12070
▁nfamma	-12071
▁nnyɛbi	-12072
▁ogyina	-12073
▁wosesa	-12074
▁wossop	-12075
▁wouldn	-12076
▁ɔmoakɔ	-12077
atuafiri	-12078
bɔneyɛfo	-12079
▁agyareɛ	-12080
▁awuramu	-12081
▁barimaw	-12082
▁ghanana	-12083
▁nansome	-12084
▁nkoware	-12085
▁nyamebɛ	-12086
▁obetumi	-12087
▁rekasɛɛ	-12088
▁ayɛhonam	-12089
▁barimawo	-12090
▁deɛɔreyɛ	-12091
▁hweembrɛ	-12092
▁kokrokoo	-12093
▁konokono	-12094
▁koowakoo	-12095
▁koraaaho	-12096
▁koraanso	-12097
▁korɔmfoɔ	-12098
▁krakyewo	-12099
ywa	-12100
amin	-12101
omes	-12102
ɔmaa	-12103
ɔmmɛ	-12104
▁fir	-12105
▁pay	-12106
euros	-12107
maafa	-12108
mambo	-12109
▁asiɛ	-12110
▁atai	-12111
▁dɔwo	-12112
▁fake	-12113
▁figu	-12114
▁medu	-12115
▁moni	-12116
▁nodu	-12117
▁ntoa	-12118
▁prim	-12119
▁sake	-12120
▁seem	-12121
▁sehɔ	-12122
▁tolo	-12123
▁wear	-12124
▁yɛme	-12125
▁ɔyɔɔ	-12126
asɛmho	-12127
▁abɔmu	-12128
▁abɛdu	-12129
▁adiso	-12130
▁anika	-12131
▁asign	-12132
▁danmu	-12133
▁deɛnɛ	-12134
▁honkɔ	-12135
▁hyɛhɔ	-12136
▁memaa	-12137
▁monbɛ	-12138
▁mondi	-12139
▁monma	-12140
▁monpɛ	-12141
▁monyi	-12142
▁mɛwie	-12143
▁namno	-12144
▁ohyia	-12145
▁onhuu	-12146
▁onihɔ	-12147
▁rekae	-12148
▁rekɔm	-12149
▁seems	-12150
▁sibrɛ	-12151
▁sɔbrɛ	-12152
▁wedeɛ	-12153
▁wisee	-12154
▁ɔkyee	-12155
▁ɛkɔbɔ	-12156
▁ɛpamo	-12157
asoɔden	-12158
ayɛadeɛ	-12159
▁figure	-12160
▁hoasɛm	-12161
▁metena	-12162
▁monhwɛ	-12163
▁nkakya	-12164
▁nkwala	-12165
▁nkwata	-12166
▁nyankɔ	-12167
▁nyanme	-12168
▁paning	-12169
▁reyɛno	-12170
▁seasɛm	-12171
▁wobɛbu	-12172
▁wotena	-12173
▁ɔyɛɛyɛ	-12174
framaafa	-12175
▁agwaman	-12176
▁akonywa	-12177
▁anopayi	-12178
▁gyinaeɛ	-12179
▁montumi	-12180
▁monyina	-12181
▁nawonso	-12182
▁nkɔtena	-12183
▁nyamehɔ	-12184
▁saaasɛm	-12185
▁trokaaa	-12186
▁bɔdamsɛm	-12187
▁dreaming	-12188
▁kronkron	-12189
▁kurokɛse	-12190
▁kuromakɔ	-12191
▁kuromani	-12192
▁kurɔnfoɔ	-12193
▁kwanshyi	-12194
▁kyerɛwsɛ	-12195
▁kyikyire	-12196
▁liliwyan	-12197
▁maamedeɛ	-12198
▁maamewei	-12199
nho	-12200
ɛnna	-12201
▁tɔo	-12202
▁ɔwɛ	-12203
monye	-12204
yaase	-12205
▁abgu	-12206
▁akra	-12207
▁anty	-12208
▁boma	-12209
▁bɛgu	-12210
▁hope	-12211
▁meoo	-12212
▁mfrɛ	-12213
▁mɛko	-12214
▁mɛse	-12215
▁nooo	-12216
▁odie	-12217
▁teha	-12218
▁tɔbi	-12219
▁tɔfa	-12220
▁yaka	-12221
▁yegu	-12222
▁ɔwaa	-12223
▁ɔyɛɛ	-12224
▁ɛngu	-12225
brafoɔ	-12226
▁akyaa	-12227
▁aniso	-12228
▁baɛbɛ	-12229
▁butna	-12230
▁ennua	-12231
▁hyemu	-12232
▁kesse	-12233
▁manbo	-12234
▁mansa	-12235
▁manso	-12236
▁myere	-12237
▁ntreɛ	-12238
▁okuta	-12239
▁teman	-12240
▁tɔbrɛ	-12241
▁wobra	-12242
▁wodua	-12243
▁ɔkraa	-12244
▁ɔmooo	-12245
▁ɔwɔsɛ	-12246
asotire	-12247
omtempt	-12248
▁abrobɛ	-12249
▁adwamu	-12250
▁agyeno	-12251
▁amɛmma	-12252
▁berɛyi	-12253
▁boadeɛ	-12254
▁bɛduru	-12255
▁edwabɔ	-12256
▁edwire	-12257
▁ememma	-12258
▁enkume	-12259
▁frɛɛno	-12260
▁keyerɛ	-12261
▁krotwa	-12262
▁manhwɛ	-12263
▁manyin	-12264
▁menyaa	-12265
▁nakwan	-12266
▁papawɔ	-12267
▁rekɔfa	-12268
▁sɔreme	-12269
▁wohosɛ	-12270
▁woseme	-12271
▁yɛadom	-12272
▁yɛnyaa	-12273
▁ɔwɔmmo	-12274
▁ɛyɛden	-12275
▁agyegye	-12276
▁hyehyeɛ	-12277
▁mayaase	-12278
▁mpofiri	-12279
▁nnwɔtwe	-12280
▁poolege	-12281
▁rekɔfrɛ	-12282
▁yɛnyere	-12283
▁ɔseyere	-12284
▁abaabawa	-12285
▁asoredam	-12286
▁asumasea	-12287
▁kurokɛsɛ	-12288
▁maamuwaa	-12289
▁madanfoɔ	-12290
▁mahwehwɛ	-12291
▁mahyehyɛ	-12292
▁makayerɛ	-12293
▁mamemisa	-12294
▁mamenfrɛ	-12295
▁manidaso	-12296
▁mapgyawo	-12297
▁masodwoe	-12298
▁mayinsɛn	-12299
ɔwɔ	-12300
best	-12301
▁amɛ	-12302
▁hao	-12303
▁nwi	-12304
▁ɛtɛ	-12305
akoto	-12306
akyii	-12307
anseɛ	-12308
manna	-12309
wiase	-12310
▁ahwi	-12311
▁ammu	-12312
▁ampɛ	-12313
▁beyi	-12314
▁dwie	-12315
▁gorɔ	-12316
▁kaaa	-12317
▁kena	-12318
▁kɛse	-12319
▁niea	-12320
▁ntee	-12321
▁nyem	-12322
▁rest	-12323
▁sɛwi	-12324
▁traa	-12325
▁wera	-12326
▁wiaa	-12327
▁wukɔ	-12328
▁wuri	-12329
▁ɛhia	-12330
▁ɛreb	-12331
akyimi	-12332
ɔbaako	-12333
▁afedi	-12334
▁kaase	-12335
▁kaseɛ	-12336
▁kwamu	-12337
▁mepɛw	-12338
▁mewie	-12339
▁mmebu	-12340
▁ndwom	-12341
▁nkyea	-12342
▁nowae	-12343
▁tɔkwa	-12344
▁watwe	-12345
▁weine	-12346
▁wideɛ	-12347
▁wowie	-12348
▁wɔtwe	-12349
▁yaana	-12350
▁yɛɛto	-12351
▁ɔrefa	-12352
▁ɔrehu	-12353
▁ɔresu	-12354
▁ɔrete	-12355
▁ɔsosɔ	-12356
▁ɛbɛha	-12357
▁ɛkɔfa	-12358
▁ɛkɔye	-12359
▁ɛrebɛ	-12360
▁ɛreku	-12361
▁ɛrema	-12362
▁ɛresa	-12363
yonkofa	-12364
▁ansɔre	-12365
▁breaki	-12366
▁hyɛpɛɛ	-12367
▁kyewwo	-12368
▁mentwe	-12369
▁mmapɔn	-12370
▁moakyi	-12371
▁nantwe	-12372
▁nimpɔn	-12373
▁nnomen	-12374
▁sikakɔ	-12375
▁wodane	-12376
▁wonseɛ	-12377
▁woyɔko	-12378
▁yaadeɛ	-12379
▁yɛdeɛn	-12380
▁ɔhɔhoɔ	-12381
▁ɔregye	-12382
▁ɛregye	-12383
▁bɛgware	-12384
▁nhehyeɛ	-12385
▁yɛɛbɛyi	-12386
▁ɔpimfoɔ	-12387
▁ɛfrefre	-12388
▁akɔneaba	-12389
▁asorefoɔ	-12390
▁fromfrom	-12391
▁kaakyerɛ	-12392
▁mayɛntie	-12393
▁mayɛwild	-12394
▁meankasa	-12395
▁mebɛfano	-12396
▁mederekɔ	-12397
▁medofopa	-12398
▁mehwehwɛ	-12399
▁sam	-12400
frase	-12401
kafra	-12402
▁mamɛ	-12403
▁abano	-12404
▁bɛboa	-12405
▁bɛsom	-12406
▁kabom	-12407
▁moboa	-12408
▁ntiaa	-12409
▁ponkɔ	-12410
▁prada	-12411
▁teraa	-12412
▁totoo	-12413
▁waboa	-12414
▁wɔnte	-12415
▁ɔkɔfa	-12416
▁akɔraa	-12417
▁wotehɔ	-12418
▁ɔkɔdaa	-12419
▁kasaboa	-12420
▁mmienua	-12421
▁mofrase	-12422
▁nkoterɛ	-12423
▁ɛrebaso	-12424
▁ababaabi	-12425
▁dwomtoni	-12426
▁mehyehyɛ	-12427
▁mekrɔkrɔ	-12428
▁memanfoɔ	-12429
▁memmɛgye	-12430
▁meneɛmma	-12431
▁mengyena	-12432
▁mengyina	-12433
▁menhyɛda	-12434
▁menntumi	-12435
▁mentetee	-12436
▁mentoase	-12437
▁menuabaa	-12438
▁menuanom	-12439
▁merebedi	-12440
▁merebisa	-12441
▁merebusa	-12442
▁merekasa	-12443
▁mesɔreyɛ	-12444
▁metetegu	-12445
▁metiatia	-12446
▁metumide	-12447
▁mifirimu	-12448
▁mmaayewa	-12449
▁mmaghana	-12450
▁mmamuwaa	-12451
▁mmerɛaso	-12452
▁mmoframa	-12453
▁mmɛhwɛyɛ	-12454
▁moadwane	-12455
▁moagyimi	-12456
▁mobetumi	-12457
▁mobɛtumi	-12458
▁montease	-12459
▁mpaeansa	-12460
▁mpenafoɔ	-12461
▁muanaasɛ	-12462
▁mɛhyehyɛ	-12463
▁naamafoɔ	-12464
▁nahindie	-12465
▁nansoɔse	-12466
▁nawobɛyɛ	-12467
▁nawotwea	-12468
▁nayinsɛn	-12469
▁naɛkyerɛ	-12470
▁neafotuo	-12471
▁nebarima	-12472
▁nekwasea	-12473
▁nennɛama	-12474
▁nentease	-12475
▁nesoɔben	-12476
▁nfikyire	-12477
▁nhyehyeɛ	-12478
▁nipakorɔ	-12479
▁nkakyerɛ	-12480
▁nkaseɛbɔ	-12481
▁nkroɔfoɔ	-12482
▁nkwantia	-12483
▁nkɔmɔdeɛ	-12484
▁nkɔtwere	-12485
▁nneɛmabi	-12486
▁nneɛmapa	-12487
▁nnompemu	-12488
▁nobarima	-12489
▁nodaakye	-12490
▁nokwareɛ	-12491
▁nonkyerɛ	-12492
▁noɛɛadɛn	-12493
▁nsagyera	-12494
▁nsakrayɛ	-12495
▁nsekusɛm	-12496
▁nsiannyɛ	-12497
▁nsɛmmisa	-12498
▁ntiantia	-12499
▁ntɛmntɛm	-12500
▁nwensenn	-12501
▁nyaadwom	-12502
▁nyameayɛ	-12503
▁nyamesem	-12504
▁nyamesɛm	-12505
▁nyameɔbɛ	-12506
▁nyankpon	-12507
▁nyansani	-12508
▁nyartwom	-12509
▁nyinaade	-12510
▁nyinaame	-12511
▁nyinaano	-12512
▁nyinaate	-12513
▁oanwumrɛ	-12514
▁obaasima	-12515
▁obibiara	-12516
▁obronibɛ	-12517
▁oduyɛfoɔ	-12518
▁onyinsɛn	-12519
▁osɔfosaa	-12520
▁otumifoɔ	-12521
▁papaaapa	-12522
▁papaasan	-12523
▁pawakyew	-12524
▁pawokyew	-12525
▁pawokyɛw	-12526
▁perapera	-12527
▁possible	-12528
▁prekesee	-12529
▁pressure	-12530
▁prophets	-12531
▁proposal	-12532
▁redaadaa	-12533
▁rekaasɛm	-12534
▁rekekano	-12535
▁rekyekyɛ	-12536
▁resiesie	-12537
▁reteaseɛ	-12538
▁reteetee	-12539
▁retwesɛn	-12540
▁reyɛdeɛn	-12541
▁reyɛɔbaa	-12542
▁saawunya	-12543
▁sebɛbiaa	-12544
▁seobiara	-12545
▁seseiame	-12546
▁seseidɛn	-12547
▁seɔurity	-12548
▁sharonma	-12549
▁shortest	-12550
▁soakyerɛ	-12551
▁somebody	-12552
▁sotietie	-12553
▁spanners	-12554
▁straight	-12555
▁stranded	-12556
▁suntidua	-12557
▁sympathy	-12558
▁sɔfokaeɛ	-12559
▁sɛneaobi	-12560
▁sɛnneɛma	-12561
▁sɛɔnonso	-12562
▁tenasebɛ	-12563
▁tensofoɔ	-12564
▁theresah	-12565
▁titirewɔ	-12566
▁together	-12567
▁tomorrow	-12568
▁training	-12569
▁treating	-12570
▁tuabills	-12571
▁tutubɔtɔ	-12572
▁twintwan	-12573
▁wagyadri	-12574
▁wagyimie	-12575
▁wahuɛyaa	-12576
▁wanimase	-12577
▁wastarte	-12578
▁watadeɛe	-12579
▁wateaseɛ	-12580
▁watenase	-12581
▁weimesrɛ	-12582
▁williams	-12583
▁woankasa	-12584
▁wobedidi	-12585
▁wobeduru	-12586
▁wobegyae	-12587
▁wobehusɛ	-12588
▁wobiaraa	-12589
▁wobɛbano	-12590
▁wobɛboro	-12591
▁wobɛdwen	-12592
▁wobɛtena	-12593
▁wodebɔne	-12594
▁woefrisɛ	-12595
▁wofirisɛ	-12596
▁wogyegye	-12597
▁wokayerɛ	-12598
▁wokuruwa	-12599
▁wondware	-12600
▁wonfɛfoɔ	-12601
▁wonsaone	-12602
▁wonteiti	-12603
▁wontɔkwa	-12604
▁wonuabaa	-12605
▁wonyonko	-12606
▁wonyɔnko	-12607
▁wopuesie	-12608
▁worekasa	-12609
▁woteedeɛ	-12610
▁wotirimu	-12611
▁wotwetwe	-12612
▁wowobefa	-12613
▁wɔadwuma	-12614
▁wɔbiribi	-12615
▁wɔdɛɛfoɔ	-12616
▁wɔkɔdidi	-12617
▁yaresani	-12618
▁yebɛtimi	-12619
▁yibarima	-12620
▁yieadeɛn	-12621
▁yoomaame	-12622
▁yooɛkwan	-12623
▁yɛbeduru	-12624
▁yɛbetumi	-12625
▁yɛbosome	-12626
▁yɛbɛhyia	-12627
▁yɛbɛkasa	-12628
▁yɛbɛtena	-12629
▁yɛbɛtumi	-12630
▁yɛngyefo	-12631
▁yɛnkoraa	-12632
▁yɛtuwofo	-12633
▁yɛɛgyimi	-12634
▁ɔbaasima	-12635
▁ɔbrempɔn	-12636
▁ɔbɛbafɔm	-12637
▁ɔhemaawɔ	-12638
▁ɔhenepɔn	-12639
▁ɔkaakɔsi	-12640
▁ɔkonafoɔ	-12641
▁ɔmoaware	-12642
▁ɔnbɛtena	-12643
▁ɔntenase	-12644
▁ɔnyinsɛn	-12645
▁ɔyɛɛdeɛn	-12646
▁ɛdebasem	-12647
▁ɛdeɛnade	-12648
▁ɛdeɛntia	-12649
▁ɛfikyire	-12650
▁ɛhweɛpaa	-12651
▁ɛhyɛaseɛ	-12652
▁ɛkakyerɛ	-12653
▁ɛkyerɛsɛ	-12654
▁ɛkɔgyina	-12655
▁ɛkɔnkɔdi	-12656
▁ɛneebiaa	-12657
▁ɛneɛagya	-12658
▁ɛnhyehyɛ	-12659
▁ɛnkrofoɔ	-12660
▁ɛnkrofuɔ	-12661
▁ɛnkɔɔfoɔ	-12662
▁ɛnmiemia	-12663
▁ɛnnorayi	-12664
▁ɛnokware	-12665
▁ɛnyumɛre	-12666
▁ɛnyɛbɔne	-12667
▁ɛnyɛhwee	-12668
▁ɛnɛnyame	-12669
▁ɛrekyere	-12670
▁ɛrekyerɛ	-12671
▁ɛsakyera	-12672
▁ɛsansɛsɛ	-12673
▁ɛwɔsɛɛwo	-12674
▁ɛyɛkakra	-12675
▁ɛyɛnyame	-12676
▁ɛyɛɛdeɛn	-12677
adamfokumi	-12678
adamfopapa	-12679
adaworomma	-12680
agymigyimi	-12681
ahyehyɛdeɛ	-12682
akyiridini	-12683
angyaegyae	-12684
anhwehwɛme	-12685
ansupporti	-12686
harleyɔbaa	-12687
lassmatebi	-12688
mepawokyew	-12689
nkwasiasɛm	-12690
odwamanfoɔ	-12691
pportunity	-12692
predeprede	-12693
ustomerdeɛ	-12694
▁abaayewai	-12695
▁ababawayi	-12696
▁abigailyɛ	-12697
▁abonsomso	-12698
▁abosomsom	-12699
▁abosomsɛm	-12700
▁abrantiie	-12701
▁abrempong	-12702
▁abɔntenna	-12703
▁adanedane	-12704
▁adeɛbiara	-12705
▁adibarima	-12706
▁adokorowo	-12707
▁adufudepɛ	-12708
▁adukurumu	-12709
▁aduokonon	-12710
▁aduoɔwtwe	-12711
▁adusibiom	-12712
▁aduɔwɔtwe	-12713
▁adwarewoɔ	-12714
▁adwenkorɔ	-12715
▁adwumakuo	-12716
▁afirihyia	-12717
▁agyerɛwoɔ	-12718
▁agyidifoɔ	-12719
▁agyingena	-12720
▁ahintasem	-12721
▁ahintasɛm	-12722
▁ahohyehyɛ	-12723
▁ahwamhwam	-12724
▁ahwansena	-12725
▁ahyiahyia	-12726
▁akekakeka	-12727
▁akokuduro	-12728
▁akokuroko	-12729
▁akokɔdwee	-12730
▁akoromfoɔ	-12731
▁akwaneasa	-12732
▁akwankyia	-12733
▁akwantuom	-12734
▁akyewadeɛ	-12735
▁akyimisɛm	-12736
▁anadwobre	-12737
▁aniamoɔho	-12738
▁anibrefoɔ	-12739
▁animguase	-12740
▁ankasanie	-12741
▁ankwahyia	-12742
▁anwunmerɛ	-12743
▁anyinnyin	-12744
▁anyɛwoaho	-12745
▁apedwafoɔ	-12746
▁aperapera	-12747
▁apopofono	-12748
▁apportion	-12749
▁argumenta	-12750
▁asaasedeɛ	-12751
▁asafohene	-12752
▁asamanfoɔ	-12753
▁asetenamu	-12754
▁aseyafter	-12755
▁asomdwemu	-12756
▁asomdwoeɛ	-12757
▁asomuadeɛ	-12758
▁asonakwaa	-12759
▁asubaatan	-12760
▁asugyafoɔ	-12761
▁asɔneyɛso	-12762
▁asɛasɔfoɔ	-12763
▁atikyafoɔ	-12764
▁attention	-12765
▁awanwasɛm	-12766
▁awewewewe	-12767
▁awobɛtumi	-12768
▁ayakayaka	-12769
▁ayeyɛyeyɛ	-12770
▁barimaabɛ	-12771
▁barimaɔdɔ	-12772
▁bebreenam	-12773
▁befitting	-12774
▁berimatan	-12775
▁biaraɛnyɛ	-12776
▁birabiara	-12777
▁biribiama	-12778
▁boatemaah	-12779
▁boyfriend	-12780
▁bronsamfo	-12781
▁brɛɛonipa	-12782
▁bɔnefakyɛ	-12783
▁bɛgyeansa	-12784
▁dabiarada	-12785
▁dadaadaee	-12786
▁dadaadawo	-12787
▁dangerous	-12788
▁deakotene	-12789
▁deɛbarima	-12790
▁disturban	-12791
▁ebefirimu	-12792
▁ebekukuru	-12793
▁entertain	-12794
▁entimmerɛ	-12795
▁enwummere	-12796
▁esisisisi	-12797
▁firimefie	-12798
▁forgotten	-12799
▁foɔnyinaa	-12800
▁frenkyibɔ	-12801
▁gyegyefoɔ	-12802
▁gyengyena	-12803
▁honeymoon	-12804
▁hweakakai	-12805
▁hwiedrink	-12806
▁hwɛhwɛhwɛ	-12807
▁important	-12808
▁impressed	-12809
▁initially	-12810
▁kakraabut	-12811
▁katakyire	-12812
▁ketewaabi	-12813
▁kokromoti	-12814
▁krakrakra	-12815
▁kumasifoɔ	-12816
▁kurasesɛm	-12817
▁kurommahu	-12818
▁kwadwosɛm	-12819
▁kwankyerɛ	-12820
▁kwasiafoɔ	-12821
▁kwasiasɛm	-12822
▁kyenkyene	-12823
▁kyerɛsɛmu	-12824
▁kɔwensani	-12825
▁maameɔnyɛ	-12826
▁madwenemu	-12827
▁makakyere	-12828
▁manteetee	-12829
▁masomdwoe	-12830
▁materials	-12831
▁mayɛntena	-12832
▁meamɔtoam	-12833
▁mebibiara	-12834
▁medemansa	-12835
▁megyedisɛ	-12836
▁mekakyere	-12837
▁menbebisa	-12838
▁menhwehwɛ	-12839
▁menkyerɔw	-12840
▁mentenase	-12841
▁meoawkyɛw	-12842
▁mepawokyɛ	-12843
▁meproblem	-12844
▁mepwokyew	-12845
▁meregyena	-12846
▁merekaasa	-12847
▁merekyerɛ	-12848
▁mesebɛsen	-12849
▁mesupport	-12850
▁mfempadeɛ	-12851
▁mfihyiayi	-12852
▁millitary	-12853
▁misrimfoɔ	-12854
▁mmesiriwa	-12855
▁moabɛhyia	-12856
▁montenase	-12857
▁mpanimfuo	-12858
▁mpaninfuo	-12859
▁mpanyinfo	-12860
▁mɛkayɛnho	-12861
▁mɛnyinsɛn	-12862
▁mɛpinkyen	-12863
▁naabuebue	-12864
▁naawurade	-12865
▁nakyerɛsɛ	-12866
▁nantenate	-12867
▁neɛmmanie	-12868
▁nframaafa	-12869
▁nfutoromu	-12870
▁nhyehyɛpa	-12871
▁nhyehyɛyɛ	-12872
▁nightmare	-12873
▁nimdeɛfoɔ	-12874
▁nipadodoɔ	-12875
▁nkradadɛɛ	-12876
▁nkrasifoɔ	-12877
▁nkumaafoɔ	-12878
▁nkunimdie	-12879
▁nkwanhyia	-12880
▁nkyekyere	-12881
▁nnahɔɔtɔɔ	-12882
▁nnanfofoɔ	-12883
▁nneɛmaegu	-12884
▁nneɛmaɛwɔ	-12885
▁nnibarima	-12886
▁nnimdrink	-12887
▁nnimneɛma	-12888
▁nokwarepa	-12889
▁npaninfoɛ	-12890
▁ntakraboa	-12891
▁ntɔkwadeɛ	-12892
▁nwosowoso	-12893
▁nyameanim	-12894
▁nyameasɛm	-12895
▁nyamesuro	-12896
▁nyankɔpon	-12897
▁nyansakoa	-12898
▁nyansasɛm	-12899
▁nyinaaayɛ	-12900
▁nyinaawie	-12901
▁nyinaaɛyɛ	-12902
▁obaabesia	-12903
▁obaahemaa	-12904
▁obiaranni	-12905
▁obrempong	-12906
▁ogyimifoɔ	-12907
▁omanpayin	-12908
▁onyansafo	-12909
▁onyansani	-12910
▁osiwokwan	-12911
▁paaadwene	-12912
▁panpanpan	-12913
▁partygirl	-12914
▁promiseno	-12915
▁redenkɔmɔ	-12916
▁regyagyae	-12917
▁rekasayie	-12918
▁rekɔkurom	-12919
▁reporting	-12920
▁senahonya	-12921
▁seriously	-12922
▁seseiberɛ	-12923
▁somewhere	-12924
▁sukɔnomaa	-12925
▁sɛdabiara	-12926
▁sɛmedaase	-12927
▁sɛmenhyia	-12928
▁sɛnbarima	-12929
▁sɛneaɔhyɛ	-12930
▁taaakyire	-12931
▁taekwondo	-12932
▁tebɛbiara	-12933
▁telephone	-12934
▁tenewonsa	-12935
▁titmuɔden	-12936
▁tobibiara	-12937
▁twitwiare	-12938
▁twitwideɛ	-12939
▁weinkyerɛ	-12940
▁wieakyire	-12941
▁wirehyɛmu	-12942
▁wobenyini	-12943
▁wobɛgyerɛ	-12944
▁wobɛgyina	-12945
▁wobɛkyerɛ	-12946
▁wohokafoɔ	-12947
▁wohotesɛn	-12948
▁wokaseɛbɔ	-12949
▁wokɛtrɛma	-12950
▁wonderful	-12951
▁wonkrofoɔ	-12952
▁wontenase	-12953
▁worawodea	-12954
▁woregyena	-12955
▁worekyerɛ	-12956
▁wosomaame	-12957
▁wɔfaasena	-12958
▁wɔkakyerɛ	-12959
▁wɔkɔdware	-12960
▁wɔproblem	-12961
▁wɔrekyerɛ	-12962
▁wɛwieyaba	-12963
▁yesiwakyi	-12964
▁yɛadamfoɔ	-12965
▁yɛkɔkɔnsa	-12966
▁yɛnnyinaa	-12967
▁yɛnteaseɛ	-12968
▁yɛtininto	-12969
▁ɔbaapayin	-12970
▁ɔbaaɔrebu	-12971
▁ɔbɔdɔbede	-12972
▁ɔhwɛsofoɔ	-12973
▁ɔkorɔmfoɔ	-12974
▁ɔmanbɔfoɔ	-12975
▁ɔmanghana	-12976
▁ɔmommienu	-12977
▁ɔmonyinaa	-12978
▁ɔnonsoayɛ	-12979
▁ɔpawokyew	-12980
▁ɔrehwehwɛ	-12981
▁ɔrehyehyɛ	-12982
▁ɔrekenkan	-12983
▁ɔretaataa	-12984
▁ɔteasefoɔ	-12985
▁ɛbɛboaboa	-12986
▁ɛkakyerɛɛ	-12987
▁ɛkomhyɛni	-12988
▁ɛkyekyere	-12989
▁ɛkyewadeɛ	-12990
▁ɛnoaanono	-12991
▁ɛrehyehyɛ	-12992
▁ɛsaansɛwo	-12993
▁ɛsupporti	-12994
▁ɛyɛnokorɛ	-12995
▁ɛyɛnwonwa	-12996
agyimipapaa	-12997
onstitution	-12998
▁aabrokyire	-12999
▁abaayewabi	-13000
▁abasobɔdeɛ	-13001
▁abonsamfoɔ	-13002
▁abotaredeɛ	-13003
▁abrokyiman	-13004
▁abɔnsamfoɔ	-13005
▁adwamansɛm	-13006
▁adwomtofoɔ	-13007
▁adwumasini	-13008
▁adɛnbiribi	-13009
▁adɛnkrakye	-13010
▁ahohoyɛbea	-13011
▁ahometesem	-13012
▁ahunumɔbrɔ	-13013
▁ahyɛnsodeɛ	-13014
▁akenkansɛm	-13015
▁akwaababio	-13016
▁akwaaneasa	-13017
▁akwasidayɛ	-13018
▁akyenkyene	-13019
▁akyimonyam	-13020
▁akyitaafoɔ	-13021
▁akyɛansana	-13022
▁amabibiara	-13023
▁amamenpena	-13024
▁amanɔneɛne	-13025
▁anaasɛɔbaa	-13026
▁anhwɛkoraa	-13027
▁animounyam	-13028
▁ansaanaobi	-13029
▁anumuonyam	-13030
▁apolisifoɔ	-13031
▁asobrakyeɛ	-13032
▁assemblies	-13033
▁asuanneɛma	-13034
▁asuobaatan	-13035
▁asɛmketewa	-13036
▁atantandeɛ	-13037
▁atetɛatetɛ	-13038
▁atoawurade	-13039
▁atutroasɛm	-13040
▁atuturafoɔ	-13041
▁awaresɛnea	-13042
▁barimadodo	-13043
▁barimakɔso	-13044
▁basketball	-13045
▁bebirebeyi	-13046
▁bibiaraɛbɛ	-13047
▁borgamaame	-13048
▁breastfeed	-13049
▁daabiarawo	-13050
▁dadadadada	-13051
▁defilement	-13052
▁dislikings	-13053
▁dɛkyɛdɛkyɛ	-13054
▁eeerrrrnnn	-13055
▁eeiawurade	-13056
▁eighthours	-13057
▁firiionipa	-13058
▁firimufiri	-13059
▁ghanafoɔmo	-13060
▁gwaregware	-13061
▁gyaasehene	-13062
▁gyebabiara	-13063
▁gyengyenaa	-13064
▁gyerɛgyerɛ	-13065
▁headkakraa	-13066
▁honambaako	-13067
▁househelps	-13068
▁hyiahyiaeɛ	-13069
▁kakabensɛm	-13070
▁kataasehyɛ	-13071
▁koowakoowa	-13072
▁koraaɛnbue	-13073
▁koronkoron	-13074
▁krakyefiri	-13075
▁kruokɛsɛmu	-13076
▁kuraasenii	-13077
▁kurommafoɔ	-13078
▁kyenkyenaa	-13079
▁kyinkyinaa	-13080
▁kɔkorodɔsɔ	-13081
▁maamesesei	-13082
▁mabusuafoɔ	-13083
▁makomkyere	-13084
▁medaasepaa	-13085
▁meekakyere	-13086
▁mekorakora	-13087
▁menantesea	-13088
▁menihomhom	-13089
▁metirihwii	-13090
▁mmabibiara	-13091
▁mmayɛnkwan	-13092
▁mmɛrimasɛm	-13093
▁mpɛadamfoɔ	-13094
▁nanakansoa	-13095
▁nankawefoɔ	-13096
▁nenfigyire	-13097
▁nkunimdeɛa	-13098
▁nkurasefoɔ	-13099
▁nniadamfoɔ	-13100
▁nobasabasa	-13101
▁nokwarefoɔ	-13102
▁nsɛmsɛmsɛm	-13103
▁ntuntukorm	-13104
▁nyaaadagye	-13105
▁nyamanyama	-13106
▁nyamehyira	-13107
▁nyankomade	-13108
▁obenyankwa	-13109
▁odomankoma	-13110
▁okristonii	-13111
▁ompanimfoɔ	-13112
▁onimnneɛma	-13113
▁problemwɔn	-13114
▁prohibited	-13115
▁rekaakyerɛ	-13116
▁rekanyinaa	-13117
▁rekyekyere	-13118
▁remmakakra	-13119
▁renweenwee	-13120
▁reyɛbiribi	-13121
▁saaɛrenkyɛ	-13122
▁samankoraa	-13123
▁sasabonsam	-13124
▁senahenepa	-13125
▁seseighana	-13126
▁suspension	-13127
▁sɛghanafoɔ	-13128
▁tafrakyɛme	-13129
▁teaseɛawuo	-13130
▁titiriwpaa	-13131
▁twontwonku	-13132
▁tɔntɔkurom	-13133
▁wabusuafoɔ	-13134
▁weiillegal	-13135
▁woayɔnkofa	-13136
▁wobɛhwehwɛ	-13137
▁wobɛkotome	-13138
▁wogyegyere	-13139
▁wokakyerɛɛ	-13140
▁wokekakeka	-13141
▁wotumirika	-13142
▁wowrɛnfiri	-13143
▁woyɛyɛyɛyɛ	-13144
▁wɔsosɔsosɔ	-13145
▁yooansaana	-13146
▁yɛnkorɔfoɔ	-13147
▁yɛnkotwaso	-13148
▁yɛtintinto	-13149
▁ɔhenempong	-13150
▁ɔnkankyere	-13151
▁ɔpawoakyew	-13152
▁ɔrehyiraaw	-13153
▁ɔrekakyerɛ	-13154
▁ɔsomkwafoɔ	-13155
▁ɛnaamanɔne	-13156
▁ɛnyaanteeɛ	-13157
▁ɛpawoakyew	-13158
▁ɛrekakyerɛ	-13159
▁ɛyaahwehwɛ	-13160
mɛmbusawasɛm	-13161
papapapapapa	-13162
tetɛwutetɛwu	-13163
▁abababaawae	-13164
▁abrokyireno	-13165
▁abɔtensofoɔ	-13166
▁afotuokakra	-13167
▁agwerekakro	-13168
▁ahohogyebea	-13169
▁ahomatrofoɔ	-13170
▁akosuankɔsɔ	-13171
▁anifrayɛfoɔ	-13172
▁anuonyamhyɛ	-13173
▁anyambrasɛm	-13174
▁anyasweater	-13175
▁asaasesofoɔ	-13176
▁asetenaadeɛ	-13177
▁asɔreadwuma	-13178
▁ayɛmhyehyeɛ	-13179
▁baabibebree	-13180
▁baseafoɔɔmo	-13181
▁beberebeeee	-13182
▁biaraɛremma	-13183
▁biribibiara	-13184
▁biribikyerɛ	-13185
▁biribikɔyɛɛ	-13186
▁dabiarametu	-13187
▁eduasabaako	-13188
▁eeiiabigail	-13189
▁etirimuoden	-13190
▁fɛfɛɛfɛfɛfɛ	-13191
▁galamseyfoɔ	-13192
▁ghananyinaa	-13193
▁goodmorning	-13194
▁gyimigyimii	-13195
▁hoabrokyire	-13196
▁information	-13197
▁kakraakyerɛ	-13198
▁kakraesansɛ	-13199
▁kokuromotie	-13200
▁kramankoraa	-13201
▁kuromnneɛma	-13202
▁lastwarning	-13203
▁maamebosome	-13204
▁matrimonial	-13205
▁mayɛbibiara	-13206
▁mekuromufoɔ	-13207
▁mempaninfoɔ	-13208
▁mengyaigyai	-13209
▁menkankyerɛ	-13210
▁menyankopɔn	-13211
▁merekakyerɛ	-13212
▁merenbisawo	-13213
▁mpanimfoɔbi	-13214
▁mpontumpunu	-13215
▁mɛkɔnnaaseɛ	-13216
▁nketenketen	-13217
▁nkonuasofoɔ	-13218
▁nkrɔfoɔbɛto	-13219
▁nkunimdifoɔ	-13220
▁nkuraasesɛm	-13221
▁nnebɔneyɛfo	-13222
▁nneɛmaɛrekɔ	-13223
▁nnyasweater	-13224
▁noatwempena	-13225
▁nsamanpɔwmu	-13226
▁nsenkyereni	-13227
▁nsɛmpakanii	-13228
▁nsɛnkyereni	-13229
▁nsɛtwerɛfoɔ	-13230
▁nyambransɛm	-13231
▁nyankomadeɛ	-13232
▁nyinaaɛnbom	-13233
▁opportunity	-13234
▁otirimoɔden	-13235
▁posoposopso	-13236
▁rekyekyekye	-13237
▁renyɛmmienu	-13238
▁responsible	-13239
▁resuanneɛma	-13240
▁sɛbianammɔn	-13241
▁tankuruwamu	-13242
▁wodeɛgyimii	-13243
▁wompaninfoɔ	-13244
▁wotwamentrɔ	-13245
▁ɔrehyiraawo	-13246
▁ɔrekorɔkorɔ	-13247
▁ɛkyerɛkyerɛ	-13248
▁ɛnenamnemam	-13249
▁ɛniayonkofa	-13250
hahaahahahaha	-13251
nkɛntinkɛntin	-13252
onstitutional	-13253
▁abrokyiredeɛ	-13254
▁agyampaimfoɔ	-13255
▁ahomatorofoɔ	-13256
▁akukudurufoɔ	-13257
▁akwankyerɛbi	-13258
▁akɛseɛakɛseɛ	-13259
▁amanpaninfoɔ	-13260
▁animonyamfoɔ	-13261
▁animuonyamno	-13262
▁anyambransɛm	-13263
▁anyenyebiara	-13264
▁atwitwiridie	-13265
▁ayɔnkogorɔsɛ	-13266
▁bebreeanaasɛ	-13267
▁bibiaranyame	-13268
▁bitibitibiti	-13269
▁brɛbrɛbrɛbrɛ	-13270
▁bɛgwaregware	-13271
▁bɛkyerɛkyerɛ	-13272
▁dadaadadrink	-13273
▁deɛmpanimfoɔ	-13274
▁disappointed	-13275
▁doubledouble	-13276
▁hoanimuonyam	-13277
▁hyehyɛhyehyɛ	-13278
▁kaakaamotobi	-13279
▁kyekyɛkyekyɛ	-13280
▁kɔworɔkɔworɔ	-13281
▁maayɔnkogorɔ	-13282
▁mempɛnpɛnsoɔ	-13283
▁mewɔfaasefoɔ	-13284
▁mogyinagyina	-13285
▁narekyekyere	-13286
▁nisuobebrebe	-13287
▁nkontokranee	-13288
▁nneɛmabebree	-13289
▁nyankopɔnmaa	-13290
▁nyankopɔnwei	-13291
▁professional	-13292
▁rekangenesis	-13293
▁sɛbitafrakyɛ	-13294
▁wopekyapekya	-13295
▁yɛkyekyereyɛ	-13296
▁ɔfemfamfemam	-13297
▁ɔnkɔtɔmbrewo	-13298
▁ɛnampanimfoɔ	-13299
▁abrokyireakyɛ	-13300
▁abrokyireɛnyɛ	-13301
▁awerɛkyekyerɛ	-13302
▁ayɔnkogorɔsei	-13303
▁barimatitinto	-13304
▁etwitwatwitwa	-13305
▁kakrakarakara	-13306
▁kwerɛkwerɛfoɔ	-13307
▁kyekyerekurom	-13308
▁kyerɔwkrokron	-13309
▁mmebusɛmetire	-13310
▁nkrakrankakra	-13311
▁nkyerekyeremu	-13312
▁onyankopɔnɛde	-13313
▁reteteebarima	-13314
▁ɔkyerɛkyerɛni	-13315
▁ɛwɔdowɔdowɔdo	-13316
▁ɛyɛayɔnkogorɔ	-13317
▁hɔnkakrankakra	-13318
▁nkuruwankuruwa	-13319
▁nonkakrankakra	-13320
▁papapapapapapa	-13321
▁pɛsɛmenkomenya	-13322
▁deɛnkakrankakra	-13323
▁nkakrankakraɛbɛ	-13324
▁twitwiarediewei	-13325
▁ɔkyerɛwkyerɛfoɔ	-13326
akɛ	-13327
als	-13328
apl	-13329
edw	-13330
ega	-13331
ekm	-13332
gai	-13333
gal	-13334
ils	-13335
irg	-13336
iss	-13337
ldn	-13338
lpo	-13339
oaw	-13340
opo	-13341
oss	-13342
pis	-13343
ply	-13344
ppy	-13345
pɔw	-13346
rdw	-13347
rrn	-13348
rrr	-13349
tɛt	-13350
ukɛ	-13351
yoa	-13352
yɔɔ	-13353
ally	-13354
alpo	-13355
atan	-13356
augh	-13357
beny	-13358
biga	-13359
boni	-13360
busu	-13361
eboo	-13362
eken	-13363
ekmɛ	-13364
ekwo	-13365
emen	-13366
emsɛ	-13367
errn	-13368
eryl	-13369
faas	-13370
firm	-13371
fref	-13372
fren	-13373
gnan	-13374
help	-13375
homh	-13376
hone	-13377
hort	-13378
hyeh	-13379
hyew	-13380
ialo	-13381
ihom	-13382
ilyɛ	-13383
inat	-13384
ioni	-13385
itak	-13386
itii	-13387
kita	-13388
krok	-13389
krɔk	-13390
kumu	-13391
ldre	-13392
leep	-13393
lege	-13394
leyɔ	-13395
lies	-13396
lone	-13397
lood	-13398
lotu	-13399
fɛf	-13400
brak	-13401
dolf	-13402
dwod	-13403
hwew	-13404
ight	-13405
itia	-13406
lowe	-13407
mbra	-13408
mdwo	-13409
menp	-13410
merg	-13411
mfam	-13412
mini	-13413
mooh	-13414
mpon	-13415
mpue	-13416
nhom	-13417
nipp	-13418
nneɛ	-13419
nnom	-13420
noɔm	-13421
nson	-13422
ntie	-13423
ntin	-13424
ntuo	-13425
numɔ	-13426
odwa	-13427
olis	-13428
oodm	-13429
oone	-13430
ooww	-13431
opra	-13432
orge	-13433
orry	-13434
panp	-13435
phet	-13436
piah	-13437
pite	-13438
poin	-13439
poso	-13440
prep	-13441
pson	-13442
pɔmu	-13443
pɛnp	-13444
rder	-13445
rket	-13446
rley	-13447
romf	-13448
rpri	-13449
sent	-13450
shir	-13451
shua	-13452
sidɛ	-13453
sket	-13454
srew	-13455
swer	-13456
temp	-13457
tepo	-13458
tink	-13459
tles	-13460
tomi	-13461
tudy	-13462
tuoa	-13463
tygi	-13464
tɔɔɔ	-13465
tɛtɛ	-13466
tɛwu	-13467
uess	-13468
ufuo	-13469
ukuo	-13470
umpu	-13471
untr	-13472
utes	-13473
utwɔ	-13474
utɔɔ	-13475
wash	-13476
wini	-13477
wodɛ	-13478
yamb	-13479
yans	-13480
yfri	-13481
yiga	-13482
yone	-13483
ɔdin	-13484
ɔtee	-13485
ɔuri	-13486
ɛdwo	-13487
ɛoni	-13488
ɛtwi	-13489
ɛɛdɛ	-13490
ɛɛfɛ	-13491
ɛɛlo	-13492
▁alo	-13493
▁ekr	-13494
▁flo	-13495
▁hɛl	-13496
▁imp	-13497
▁int	-13498
▁iph	-13499
esn	-13500
lik	-13501
lis	-13502
liw	-13503
rks	-13504
tli	-13505
astf	-13506
hour	-13507
isoɔ	-13508
kaaa	-13509
liin	-13510
mong	-13511
nsoɔ	-13512
omli	-13513
shis	-13514
sies	-13515
▁mɔb	-13516
▁mɔf	-13517
▁nur	-13518
▁omp	-13519
▁pet	-13520
▁plo	-13521
▁pod	-13522
▁pos	-13523
▁pow	-13524
▁rai	-13525
▁rou	-13526
▁tae	-13527
▁tak	-13528
▁ɔgy	-13529
▁ɛhw	-13530
▁ɛmp	-13531
aadwo	-13532
aatan	-13533
abiri	-13534
adies	-13535
ahemm	-13536
ampon	-13537
anamo	-13538
anato	-13539
anhwe	-13540
ankuo	-13541
anumo	-13542
arefu	-13543
asoti	-13544
astda	-13545
bankɛ	-13546
bebue	-13547
bepue	-13548
betia	-13549
betie	-13550
bufuo	-13551
ddyne	-13552
depre	-13553
derfu	-13554
droom	-13555
duasa	-13556
dwife	-13557
dwoye	-13558
dɔɔso	-13559
dɛkyɛ	-13560
ebisa	-13561
ebɔne	-13562
eeiii	-13563
ekend	-13564
emfoɔ	-13565
enfam	-13566
ensam	-13567
entan	-13568
entia	-13569
eping	-13570
eryth	-13571
ether	-13572
fempa	-13573
fiisɛ	-13574
fteen	-13575
futor	-13576
futuo	-13577
fɛɛfɛ	-13578
getti	-13579
ghtho	-13580
ghtma	-13581
gyidi	-13582
haron	-13583
henem	-13584
hodan	-13585
hoɔfɛ	-13586
hwini	-13587
hyemu	-13588
iesie	-13589
ikwan	-13590
impie	-13591
impre	-13592
impro	-13593
inese	-13594
inite	-13595
ister	-13596
kaakɔ	-13597
kaayɛ	-13598
kahwe	-13599
shɛ	-13600
aban	-13601
amfo	-13602
anam	-13603
boii	-13604
dolp	-13605
enii	-13606
ethe	-13607
from	-13608
ghsɔ	-13609
iiii	-13610
kbɛn	-13611
krak	-13612
kram	-13613
ollo	-13614
pply	-13615
rand	-13616
rang	-13617
rent	-13618
righ	-13619
sban	-13620
taat	-13621
ɔnam	-13622
▁rub	-13623
amfoɔ	-13624
anteɛ	-13625
aseɛa	-13626
eiiii	-13627
famfe	-13628
haban	-13629
hanai	-13630
hokra	-13631
iedan	-13632
kaase	-13633
kakro	-13634
ketba	-13635
koowa	-13636
kopon	-13637
krane	-13638
krayɛ	-13639
krofu	-13640
kroko	-13641
kromo	-13642
kuamu	-13643
kumaa	-13644
kwani	-13645
kyape	-13646
kyeem	-13647
kɔfaa	-13648
kɛtrɛ	-13649
leywo	-13650
lking	-13651
llage	-13652
llshi	-13653
manpɔ	-13654
mbran	-13655
menfa	-13656
menka	-13657
mensa	-13658
merma	-13659
merɛa	-13660
merɛw	-13661
mhomu	-13662
misen	-13663
mmend	-13664
mmɛbɔ	-13665
mmɛdi	-13666
mmɛpa	-13667
monia	-13668
motia	-13669
mpaim	-13670
mpena	-13671
namfo	-13672
neame	-13673
neymo	-13674
nhoma	-13675
nkbɛn	-13676
nmerɛ	-13677
nonso	-13678
noɔma	-13679
nyini	-13680
nɛama	-13681
okoro	-13682
olisi	-13683
ompan	-13684
onhom	-13685
oomli	-13686
orodɔ	-13687
oroma	-13688
orowo	-13689
ountr	-13690
paemu	-13691
pampa	-13692
pedwa	-13693
pempe	-13694
pense	-13695
pispi	-13696
ppene	-13697
prama	-13698
pusuu	-13699
ahw	-13700
ety	-13701
hsɔ	-13702
hty	-13703
ife	-13704
mfe	-13705
osɔ	-13706
sɔm	-13707
ɔsɔ	-13708
aaah	-13709
abɛd	-13710
abɛh	-13711
ahne	-13712
ahyi	-13713
athe	-13714
dies	-13715
diew	-13716
eisɔ	-13717
errr	-13718
fema	-13719
ferɛ	-13720
hter	-13721
idie	-13722
kraɛ	-13723
kɔsɔ	-13724
ldie	-13725
nsia	-13726
odie	-13727
pusu	-13728
pɛsɔ	-13729
rity	-13730
rofe	-13731
sɔso	-13732
sɔwe	-13733
udie	-13734
unty	-13735
uran	-13736
uter	-13737
wosɔ	-13738
ɛama	-13739
ɛnsɔ	-13740
▁iss	-13741
▁osɔ	-13742
▁sty	-13743
▁tui	-13744
▁ɔfe	-13745
▁ɛdw	-13746
ansaa	-13747
enkan	-13748
ensaa	-13749
fodie	-13750
fosaa	-13751
imdie	-13752
kansa	-13753
pakan	-13754
puter	-13755
pɛbra	-13756
pɛnso	-13757
rabea	-13758
rande	-13759
ranka	-13760
rapra	-13761
rasen	-13762
rateɛ	-13763
rdwor	-13764
reeno	-13765
rehoɔ	-13766
rekan	-13767
renyɛ	-13768
resen	-13769
resuo	-13770
ridin	-13771
rmati	-13772
rokaa	-13773
rough	-13774
round	-13775
rstan	-13776
rstno	-13777
rɔkrɔ	-13778
rɔɔso	-13779
rɛhoɔ	-13780
sabon	-13781
sakra	-13782
sappo	-13783
sayie	-13784
sband	-13785
sekuo	-13786
sembl	-13787
semhu	-13788
sesae	-13789
siada	-13790
sions	-13791
sisie	-13792
soayi	-13793
stion	-13794
suaye	-13795
swers	-13796
sɛkuo	-13797
taaba	-13798
taade	-13799
wt	-13800
amɔ	-13801
big	-13802
dod	-13803
eeh	-13804
eɛm	-13805
gre	-13806
ndo	-13807
odo	-13808
tel	-13809
tɛɛ	-13810
ɛɛf	-13811
ɛɛh	-13812
aado	-13813
aten	-13814
awan	-13815
beee	-13816
benu	-13817
dɔsɔ	-13818
eele	-13819
momɔ	-13820
moye	-13821
mɔmo	-13822
mɔto	-13823
paaa	-13824
rmah	-13825
rodo	-13826
tran	-13827
tten	-13828
tutu	-13829
wamɔ	-13830
wann	-13831
weee	-13832
wpaa	-13833
yeee	-13834
ɛɛfo	-13835
▁dut	-13836
▁dɛɛ	-13837
▁toh	-13838
▁yef	-13839
ansan	-13840
anwan	-13841
eeeii	-13842
eɛpaa	-13843
firii	-13844
kɛsɛm	-13845
lapaa	-13846
mepaa	-13847
mɔden	-13848
mɔdeɛ	-13849
onten	-13850
paawa	-13851
rɔsan	-13852
sande	-13853
sanso	-13854
sansɛ	-13855
taban	-13856
takra	-13857
tanfo	-13858
tasem	-13859
tasuo	-13860
teete	-13861
tenti	-13862
terno	-13863
teɛti	-13864
thday	-13865
thear	-13866
tiati	-13867
tieti	-13868
tikya	-13869
tirih	-13870
tirim	-13871
titin	-13872
tokuo	-13873
tomer	-13874
tuati	-13875
tudie	-13876
tumpu	-13877
tuous	-13878
tɔkro	-13879
tɛate	-13880
uansa	-13881
umpan	-13882
untry	-13883
uoson	-13884
uspen	-13885
wanna	-13886
weety	-13887
werɛk	-13888
woama	-13889
wobre	-13890
wodwo	-13891
wonku	-13892
worom	-13893
wosoɔ	-13894
wtetɛ	-13895
wuieɛ	-13896
wumto	-13897
wuona	-13898
wɔnko	-13899
kb	-13900
ud	-13901
dio	-13902
eaa	-13903
enk	-13904
iag	-13905
inh	-13906
irl	-13907
kat	-13908
mou	-13909
onk	-13910
ont	-13911
ony	-13912
ota	-13913
pte	-13914
rbe	-13915
ria	-13916
uko	-13917
unu	-13918
wet	-13919
yɛw	-13920
▁eu	-13921
bewu	-13922
bɛyi	-13923
damn	-13924
eiia	-13925
gena	-13926
ghts	-13927
gyin	-13928
hyin	-13929
iame	-13930
kaho	-13931
mena	-13932
onkɔ	-13933
onsi	-13934
onwa	-13935
orga	-13936
rant	-13937
rebɛ	-13938
rlie	-13939
sabo	-13940
saon	-13941
sing	-13942
srɛw	-13943
suan	-13944
untu	-13945
wani	-13946
wate	-13947
yink	-13948
yinm	-13949
ɔdeɛ	-13950
ɛbɛn	-13951
▁ayɔ	-13952
▁bɔa	-13953
▁bɔb	-13954
▁ens	-13955
▁mef	-13956
▁red	-13957
▁rus	-13958
▁tol	-13959
▁yɛf	-13960
▁ɔnt	-13961
aadie	-13962
ankwa	-13963
eneho	-13964
enyin	-13965
ffour	-13966
reast	-13967
wudin	-13968
wɛyie	-13969
yaado	-13970
yaena	-13971
yeman	-13972
yenye	-13973
yewai	-13974
yimig	-13975
yindi	-13976
yisɛn	-13977
yiɛyɛ	-13978
yɛsaa	-13979
ɔadeɛ	-13980
ɔnkog	-13981
ɔnten	-13982
ɔwtwe	-13983
ɛnbɛn	-13984
ɛnsoɔ	-13985
ɛntin	-13986
ɛtimi	-13987
▁abew	-13988
▁adaw	-13989
▁afaf	-13990
▁afee	-13991
▁afof	-13992
▁afut	-13993
▁ahan	-13994
▁ahay	-13995
▁ahog	-13996
▁ahom	-13997
▁akop	-13998
▁akos	-13999
ws	-14000
yl	-14001
bɛg	-14002
das	-14003
dik	-14004
dis	-14005
diɛ	-14006
hot	-14007
kwe	-14008
kɛt	-14009
mno	-14010
mob	-14011
noɔ	-14012
nwe	-14013
oan	-14014
onn	-14015
pɛw	-14016
rso	-14017
sib	-14018
sii	-14019
wɛa	-14020
yɛu	-14021
ɔwe	-14022
ɛon	-14023
aabɛ	-14024
aano	-14025
afee	-14026
aned	-14027
aset	-14028
deda	-14029
dera	-14030
dɔkɔ	-14031
eɛyɛ	-14032
huno	-14033
imfo	-14034
ints	-14035
kɔdi	-14036
lent	-14037
madi	-14038
neaɔ	-14039
omin	-14040
rada	-14041
rban	-14042
tese	-14043
tino	-14044
tobi	-14045
uani	-14046
wdie	-14047
weeɛ	-14048
wudi	-14049
wɔdo	-14050
yidi	-14051
▁bet	-14052
▁fad	-14053
▁fak	-14054
▁fao	-14055
▁faɔ	-14056
▁mɛd	-14057
▁mɛs	-14058
▁npa	-14059
▁sah	-14060
▁sɛr	-14061
▁wum	-14062
▁yir	-14063
anuma	-14064
bɔsoɔ	-14065
hethe	-14066
llooo	-14067
nkɔdi	-14068
romma	-14069
rotwa	-14070
rɛkye	-14071
spita	-14072
▁akot	-14073
▁allo	-14074
▁alon	-14075
▁alri	-14076
▁alwa	-14077
▁amam	-14078
▁amoa	-14079
▁anam	-14080
▁anib	-14081
▁anot	-14082
▁anɔp	-14083
▁apat	-14084
▁apol	-14085
▁asad	-14086
▁asɔd	-14087
▁atet	-14088
▁atut	-14089
▁awɔs	-14090
▁baat	-14091
▁banf	-14092
▁blin	-14093
▁bloo	-14094
▁boyf	-14095
▁brem	-14096
▁bron	-14097
▁busu	-14098
▁bɔat	-14099
au	-14100
aɛn	-14101
dab	-14102
dad	-14103
enw	-14104
erg	-14105
fum	-14106
hda	-14107
iwu	-14108
lii	-14109
mar	-14110
mwɔ	-14111
oɛn	-14112
raɛ	-14113
tur	-14114
uti	-14115
wal	-14116
wuu	-14117
yen	-14118
yew	-14119
yif	-14120
ɛng	-14121
ɛnk	-14122
ɛnt	-14123
▁sy	-14124
aada	-14125
aaɛn	-14126
afoɔ	-14127
dabɛ	-14128
daka	-14129
daro	-14130
dase	-14131
daye	-14132
enwu	-14133
ffoɔ	-14134
iawa	-14135
omma	-14136
reda	-14137
rɛɛn	-14138
seda	-14139
sian	-14140
uaye	-14141
ufoɔ	-14142
umia	-14143
wans	-14144
wume	-14145
wumi	-14146
wumo	-14147
wusɛ	-14148
wute	-14149
wɔfa	-14150
yeno	-14151
ɛnbɛ	-14152
ɛnɛn	-14153
▁anp	-14154
▁fia	-14155
▁kof	-14156
▁mal	-14157
▁pah	-14158
▁sɛg	-14159
▁tef	-14160
▁wed	-14161
▁wɔb	-14162
▁ɛsu	-14163
aniwu	-14164
bɛfrɛ	-14165
enfoɔ	-14166
foɔmo	-14167
infoɔ	-14168
maawo	-14169
posop	-14170
reena	-14171
ronma	-14172
sɛmka	-14173
teeba	-14174
umiri	-14175
yefoɔ	-14176
▁abɔm	-14177
▁bɔmo	-14178
▁bɔɔɛ	-14179
▁damp	-14180
▁dwab	-14181
▁dɛsɛ	-14182
▁eati	-14183
▁edwi	-14184
▁efri	-14185
▁eigh	-14186
▁emoo	-14187
▁enou	-14188
▁enpo	-14189
▁enwu	-14190
▁esra	-14191
▁esta	-14192
▁faad	-14193
▁fili	-14194
▁forg	-14195
▁fork	-14196
▁foɔa	-14197
▁fren	-14198
▁fres	-14199
eit	-14200
gwe	-14201
ite	-14202
iwo	-14203
kog	-14204
kon	-14205
lir	-14206
lon	-14207
mmm	-14208
nsi	-14209
nyi	-14210
oad	-14211
ori	-14212
rsa	-14213
rsi	-14214
sid	-14215
sio	-14216
siɛ	-14217
sup	-14218
tsi	-14219
usi	-14220
wud	-14221
wun	-14222
ɔsi	-14223
ɛko	-14224
ɛɛɛ	-14225
▁yu	-14226
akot	-14227
anfɛ	-14228
anko	-14229
bɛko	-14230
dawɔ	-14231
edeɛ	-14232
ensi	-14233
fotu	-14234
fɛso	-14235
iewu	-14236
ieyɛ	-14237
kona	-14238
mɔho	-14239
ndeɛ	-14240
nera	-14241
rako	-14242
reko	-14243
rohi	-14244
rɛko	-14245
sibi	-14246
sifo	-14247
sime	-14248
tiko	-14249
towa	-14250
udeɛ	-14251
unum	-14252
uoka	-14253
wako	-14254
wubi	-14255
yabɔ	-14256
yiah	-14257
ɔnsa	-14258
▁ahw	-14259
▁dwu	-14260
▁hud	-14261
▁kɔr	-14262
▁wit	-14263
▁ɛnp	-14264
baano	-14265
deɛfo	-14266
deɛwo	-14267
imdeɛ	-14268
kadeɛ	-14269
kodeɛ	-14270
madeɛ	-14271
natua	-14272
sigye	-14273
thers	-14274
tufoɔ	-14275
twerɛ	-14276
usuam	-14277
wɛdeɛ	-14278
yideɛ	-14279
yɛdeɛ	-14280
▁baaa	-14281
▁deta	-14282
▁fako	-14283
▁frig	-14284
▁fufo	-14285
▁geor	-14286
▁glor	-14287
▁haah	-14288
▁hoab	-14289
▁hoed	-14290
▁hofa	-14291
▁honh	-14292
▁hwɛɔ	-14293
▁hyeh	-14294
▁insi	-14295
▁insu	-14296
▁isra	-14297
▁kand	-14298
▁kont	-14299
wd	-14300
ɔl	-14301
ɛh	-14302
iɛn	-14303
les	-14304
lia	-14305
owu	-14306
rit	-14307
sod	-14308
tmu	-14309
uak	-14310
uar	-14311
uom	-14312
wɔd	-14313
wɔm	-14314
wɔt	-14315
ymi	-14316
yɛf	-14317
yɛh	-14318
aadi	-14319
anfi	-14320
arad	-14321
btoo	-14322
dɔfo	-14323
enyi	-14324
imwɔ	-14325
inti	-14326
kayy	-14327
korm	-14328
mapa	-14329
menh	-14330
mmam	-14331
nawɔ	-14332
oman	-14333
rɛno	-14334
tiaa	-14335
toko	-14336
uabi	-14337
uaeɛ	-14338
wamo	-14339
wanw	-14340
wɔso	-14341
wɔwo	-14342
yawɔ	-14343
ɛfoɔ	-14344
▁aab	-14345
▁add	-14346
▁bab	-14347
▁bin	-14348
▁dab	-14349
▁seh	-14350
▁seo	-14351
▁sop	-14352
▁yye	-14353
arabɛ	-14354
arame	-14355
bɛsei	-14356
deɛbɛ	-14357
didiɛ	-14358
lanne	-14359
ortan	-14360
riara	-14361
sɛmsɛ	-14362
umano	-14363
wanti	-14364
yerɛk	-14365
▁abɛɛ	-14366
▁bɔse	-14367
▁krat	-14368
▁kris	-14369
▁krug	-14370
▁leag	-14371
▁lili	-14372
▁loon	-14373
▁maad	-14374
▁meli	-14375
▁menf	-14376
▁mfom	-14377
▁minu	-14378
▁mmmh	-14379
▁mmot	-14380
▁mooh	-14381
▁mran	-14382
▁namk	-14383
▁naom	-14384
▁nbrɔ	-14385
▁ndwo	-14386
▁nenp	-14387
▁nfig	-14388
▁nigh	-14389
▁nkɔh	-14390
▁nnoɔ	-14391
▁nnwo	-14392
▁nokw	-14393
▁nsif	-14394
▁nsɔa	-14395
▁nubɔ	-14396
▁nwas	-14397
▁nwor	-14398
▁nyen	-14399
gw	-14400
bab	-14401
bad	-14402
bah	-14403
bal	-14404
bif	-14405
deg	-14406
eid	-14407
eiɛ	-14408
mhu	-14409
nba	-14410
nbi	-14411
oba	-14412
omh	-14413
uab	-14414
uad	-14415
uag	-14416
uam	-14417
udi	-14418
wit	-14419
wos	-14420
ɔfɛ	-14421
ɔnt	-14422
▁og	-14423
aaye	-14424
anba	-14425
baeɛ	-14426
baso	-14427
enhu	-14428
geti	-14429
hubi	-14430
huhu	-14431
husɛ	-14432
huwo	-14433
ifoɔ	-14434
isɛm	-14435
kese	-14436
kɔeɛ	-14437
maeɛ	-14438
nona	-14439
orɔm	-14440
reat	-14441
rehu	-14442
resɛ	-14443
saba	-14444
soba	-14445
suwa	-14446
sɛmn	-14447
tesi	-14448
tiwo	-14449
uaba	-14450
uare	-14451
uaso	-14452
uayɛ	-14453
umba	-14454
weaa	-14455
ween	-14456
yiin	-14457
yɛmu	-14458
▁atɛ	-14459
▁mor	-14460
▁shu	-14461
ansɛm	-14462
enkye	-14463
fadeɛ	-14464
fieha	-14465
fosɛm	-14466
hanks	-14467
hinks	-14468
kyebi	-14469
orɔkɔ	-14470
samfo	-14471
sɛmbi	-14472
sɛmpa	-14473
wanho	-14474
wieya	-14475
yɛsɛm	-14476
▁agor	-14477
▁enro	-14478
▁hwea	-14479
▁kɔɔd	-14480
▁meɛn	-14481
▁nnwɔ	-14482
▁obre	-14483
▁obro	-14484
▁odwa	-14485
▁olum	-14486
▁ompa	-14487
▁onip	-14488
▁opra	-14489
▁othe	-14490
▁pafo	-14491
▁pera	-14492
▁peri	-14493
▁pofo	-14494
▁poin	-14495
▁pote	-14496
▁poti	-14497
▁preg	-14498
▁prop	-14499
ɔo	-14500
efa	-14501
ger	-14502
hin	-14503
ifa	-14504
inm	-14505
inu	-14506
mfa	-14507
min	-14508
mɔn	-14509
non	-14510
omb	-14511
owo	-14512
pap	-14513
pin	-14514
pwo	-14515
rof	-14516
roh	-14517
ske	-14518
tuk	-14519
uin	-14520
wme	-14521
wok	-14522
wwo	-14523
yti	-14524
ɔfa	-14525
ɔwo	-14526
ɛat	-14527
ɛnf	-14528
ɛnw	-14529
ɛwo	-14530
▁pr	-14531
aawo	-14532
daad	-14533
eiiɔ	-14534
eiwo	-14535
enfa	-14536
enwɔ	-14537
fama	-14538
fame	-14539
faso	-14540
guwo	-14541
hono	-14542
iamo	-14543
iasɛ	-14544
inie	-14545
inte	-14546
kyim	-14547
lame	-14548
mawo	-14549
mowo	-14550
odwo	-14551
paas	-14552
pawo	-14553
peak	-14554
piti	-14555
rawo	-14556
rieɛ	-14557
riwo	-14558
rote	-14559
sono	-14560
uati	-14561
wobi	-14562
wobɛ	-14563
wode	-14564
wofo	-14565
yaeɛ	-14566
yaka	-14567
▁bek	-14568
▁enf	-14569
▁kap	-14570
▁nki	-14571
▁nnw	-14572
▁ooy	-14573
▁sig	-14574
▁sob	-14575
asika	-14576
bifoɔ	-14577
bɛhyɛ	-14578
feeli	-14579
irisɛ	-14580
kofoɔ	-14581
kroaa	-14582
wafoɔ	-14583
yinag	-14584
▁noko	-14585
▁ntɛn	-14586
▁pusu	-14587
▁pɔse	-14588
▁pɔtɔ	-14589
▁redo	-14590
▁refe	-14591
▁reno	-14592
▁reti	-14593
▁rule	-14594
▁rumo	-14595
▁saas	-14596
▁saaw	-14597
▁salo	-14598
▁samp	-14599
ip	-14600
bih	-14601
bin	-14602
bum	-14603
dum	-14604
eis	-14605
eɛɔ	-14606
iro	-14607
mof	-14608
mog	-14609
mua	-14610
mwo	-14611
oɔn	-14612
roa	-14613
rok	-14614
roo	-14615
roɔ	-14616
rth	-14617
rɛɛ	-14618
tiw	-14619
tuu	-14620
umd	-14621
umɛ	-14622
yɛd	-14623
yɛt	-14624
anne	-14625
baaa	-14626
bibi	-14627
dieɛ	-14628
enro	-14629
enua	-14630
hwam	-14631
inin	-14632
kode	-14633
kuru	-14634
kɔmo	-14635
manm	-14636
moen	-14637
nibɛ	-14638
onno	-14639
resi	-14640
reti	-14641
rimo	-14642
rimu	-14643
robɛ	-14644
rome	-14645
rɔfo	-14646
rɛsɛ	-14647
seid	-14648
ssio	-14649
sten	-14650
tate	-14651
uako	-14652
umie	-14653
umme	-14654
umyɛ	-14655
uokɛ	-14656
wede	-14657
wubɛ	-14658
yede	-14659
▁fig	-14660
▁hɔe	-14661
▁mpu	-14662
▁rel	-14663
▁ret	-14664
▁rew	-14665
▁sos	-14666
▁teh	-14667
▁wah	-14668
▁war	-14669
▁waw	-14670
▁wod	-14671
andwo	-14672
anida	-14673
iriwo	-14674
kɔfrɛ	-14675
mafoɔ	-14676
reean	-14677
rison	-14678
tafra	-14679
yafoɔ	-14680
▁deɛɔ	-14681
▁kɔro	-14682
▁sand	-14683
▁sant	-14684
▁sean	-14685
▁seri	-14686
▁shis	-14687
▁sise	-14688
▁solo	-14689
▁sorr	-14690
▁soɛn	-14691
▁spri	-14692
▁spɛɛ	-14693
▁stoo	-14694
▁stor	-14695
▁stro	-14696
▁stup	-14697
▁sɛda	-14698
▁tama	-14699
deh	-14700
dek	-14701
deo	-14702
eag	-14703
ede	-14704
hok	-14705
ibo	-14706
imd	-14707
imn	-14708
kol	-14709
mah	-14710
mim	-14711
mod	-14712
mor	-14713
mow	-14714
ndi	-14715
oll	-14716
org	-14717
orr	-14718
rde	-14719
sos	-14720
tab	-14721
tim	-14722
ude	-14723
ufa	-14724
umo	-14725
wea	-14726
woe	-14727
▁ht	-14728
aafo	-14729
ande	-14730
ansi	-14731
araɛ	-14732
boso	-14733
bɛdi	-14734
bɛma	-14735
deka	-14736
east	-14737
ende	-14738
eteɛ	-14739
iayi	-14740
imsɛ	-14741
kade	-14742
mofo	-14743
mono	-14744
paim	-14745
rade	-14746
rede	-14747
rewo	-14748
rior	-14749
roso	-14750
semb	-14751
stor	-14752
thro	-14753
tuen	-14754
wabi	-14755
waku	-14756
wana	-14757
yade	-14758
▁att	-14759
▁deb	-14760
▁def	-14761
▁deh	-14762
▁dek	-14763
▁fan	-14764
▁gif	-14765
▁nes	-14766
▁nny	-14767
▁sub	-14768
▁yan	-14769
damni	-14770
eideɛ	-14771
ensɛm	-14772
tiall	-14773
waadu	-14774
yiame	-14775
▁form	-14776
▁marr	-14777
▁neti	-14778
▁taek	-14779
▁thin	-14780
▁toda	-14781
▁toom	-14782
▁tufo	-14783
▁twit	-14784
▁unde	-14785
▁unti	-14786
▁waal	-14787
▁wapa	-14788
▁wash	-14789
▁wati	-14790
▁wawa	-14791
▁waya	-14792
▁wedd	-14793
▁weii	-14794
▁womp	-14795
▁wonb	-14796
▁wonf	-14797
▁worr	-14798
▁yeng	-14799
beh	-14800
bɛb	-14801
bɛf	-14802
bɛm	-14803
bɛs	-14804
bɛt	-14805
bɛy	-14806
fad	-14807
faw	-14808
gon	-14809
ibɛ	-14810
iim	-14811
img	-14812
lpa	-14813
mbɛ	-14814
nbɛ	-14815
nma	-14816
nou	-14817
npa	-14818
nwo	-14819
obɛ	-14820
odi	-14821
oyi	-14822
pot	-14823
rye	-14824
wte	-14825
wɛb	-14826
wɛd	-14827
wɛw	-14828
wɛɛ	-14829
ɛbo	-14830
▁ss	-14831
aaeɛ	-14832
aako	-14833
abɔd	-14834
biwɔ	-14835
bɔsi	-14836
bɛkɔ	-14837
bɛsa	-14838
bɛso	-14839
bɛte	-14840
bɛye	-14841
ense	-14842
iamɔ	-14843
imno	-14844
info	-14845
mabɛ	-14846
momu	-14847
punu	-14848
rayi	-14849
rɛyɛ	-14850
wɛma	-14851
wɛwo	-14852
yabɛ	-14853
yɛbɛ	-14854
yɛfa	-14855
ɛsɛm	-14856
▁akw	-14857
▁bal	-14858
▁baɛ	-14859
▁ded	-14860
▁fin	-14861
▁isa	-14862
▁mɛh	-14863
▁yek	-14864
▁ɛnw	-14865
eyerɛ	-14866
iafoɔ	-14867
kasɛm	-14868
noara	-14869
rɔdeɛ	-14870
yerɛg	-14871
▁baab	-14872
▁bare	-14873
▁base	-14874
▁kulu	-14875
▁kɔbi	-14876
▁mewɛ	-14877
▁sɛɛn	-14878
▁yebɛ	-14879
▁yoom	-14880
▁yooɛ	-14881
▁yɛad	-14882
▁yɛnf	-14883
▁yɛɛg	-14884
▁yɛɛp	-14885
▁ɔben	-14886
▁ɔbon	-14887
▁ɔbɔt	-14888
▁ɔdas	-14889
▁ɔdwo	-14890
▁ɔdɛɛ	-14891
▁ɔhwe	-14892
▁ɔkɔf	-14893
▁ɔntɔ	-14894
▁ɔpim	-14895
▁ɔtei	-14896
▁ɔtet	-14897
▁ɔtɛɛ	-14898
▁ɔwie	-14899
lw	-14900
sm	-14901
sn	-14902
aat	-14903
diw	-14904
ihu	-14905
kag	-14906
mey	-14907
nag	-14908
nah	-14909
nao	-14910
nap	-14911
pab	-14912
pad	-14913
pak	-14914
pat	-14915
pau	-14916
tna	-14917
▁ɛp	-14918
aabi	-14919
aapa	-14920
anɔn	-14921
bawo	-14922
dere	-14923
eɛti	-14924
kyee	-14925
mabi	-14926
masɛ	-14927
mepa	-14928
mobɔ	-14929
msɛm	-14930
nasa	-14931
paeɛ	-14932
para	-14933
pase	-14934
paso	-14935
rewu	-14936
rowo	-14937
rɛna	-14938
sisɛ	-14939
siwo	-14940
sona	-14941
sopa	-14942
uase	-14943
warɛ	-14944
wɛyɛ	-14945
yapa	-14946
yman	-14947
ɔɔso	-14948
▁bah	-14949
▁eig	-14950
▁epa	-14951
▁hof	-14952
▁hok	-14953
▁hol	-14954
▁hom	-14955
▁hos	-14956
▁hɔn	-14957
▁kno	-14958
▁kɔd	-14959
▁kɔe	-14960
▁kɔf	-14961
▁kɔh	-14962
▁lin	-14963
▁niɔ	-14964
▁sap	-14965
▁tim	-14966
▁tot	-14967
▁yeg	-14968
aming	-14969
foɔkɔ	-14970
hyɛhɔ	-14971
inkan	-14972
kusɛm	-14973
makyi	-14974
nyɛmm	-14975
pɔtee	-14976
wanku	-14977
▁bran	-14978
▁ekum	-14979
▁hona	-14980
▁hoyi	-14981
▁kɔan	-14982
▁maam	-14983
▁mmri	-14984
▁nhom	-14985
▁wɔna	-14986
▁yeti	-14987
▁ɔkɔs	-14988
▁ɛfee	-14989
▁ɛkor	-14990
▁ɛmpe	-14991
▁ɛnon	-14992
▁ɛpra	-14993
▁ɛsaa	-14994
▁ɛten	-14995
▁ɛyɛd	-14996
aagyeɛ	-14997
aaseso	-14998
abaabɛ	-14999
bub	-15000
ehu	-15001
ffo	-15002
fof	-15003
fop	-15004
for	-15005
fot	-15006
gaa	-15007
hya	-15008
kom	-15009
kot	-15010
mna	-15011
naw	-15012
nda	-15013
nde	-15014
oor	-15015
orm	-15016
rig	-15017
rɛk	-15018
sho	-15019
ufo	-15020
ums	-15021
wfo	-15022
yat	-15023
ɔfo	-15024
ɔna	-15025
bɛsi	-15026
eeei	-15027
eina	-15028
eryw	-15029
eɛna	-15030
feri	-15031
foka	-15032
fore	-15033
fosɛ	-15034
foɔɔ	-15035
hotɔ	-15036
kɔko	-15037
mama	-15038
mdwe	-15039
moti	-15040
rabɛ	-15041
refo	-15042
repe	-15043
rɛfo	-15044
safo	-15045
sofo	-15046
toop	-15047
twan	-15048
uoda	-15049
uona	-15050
wafo	-15051
wany	-15052
womo	-15053
yefo	-15054
yifo	-15055
▁des	-15056
▁eih	-15057
▁enb	-15058
▁haɛ	-15059
▁kaf	-15060
▁kah	-15061
▁kas	-15062
▁koh	-15063
▁nem	-15064
▁sup	-15065
▁wak	-15066
▁yeb	-15067
▁yɛe	-15068
▁ɔna	-15069
blemu	-15070
iagye	-15071
manbɔ	-15072
manfo	-15073
panim	-15074
rakye	-15075
sakye	-15076
sɛmmi	-15077
torom	-15078
tuoka	-15079
ueenn	-15080
yerɛɛ	-15081
▁ammɔ	-15082
▁asum	-15083
▁atɔa	-15084
▁mefo	-15085
▁sens	-15086
▁wang	-15087
▁wɔya	-15088
▁yɛwa	-15089
abɛdwa	-15090
amaame	-15091
ampong	-15092
anding	-15093
aneama	-15094
aneɛne	-15095
anhwie	-15096
anibre	-15097
anikor	-15098
aniwuo	-15099
gr	-15100
nt	-15101
ɛd	-15102
bat	-15103
boi	-15104
bor	-15105
bɛd	-15106
epa	-15107
iay	-15108
kɔb	-15109
luu	-15110
pai	-15111
rek	-15112
rih	-15113
sri	-15114
sɛi	-15115
toh	-15116
tot	-15117
uru	-15118
wer	-15119
yet	-15120
ɛri	-15121
ɛwɛ	-15122
▁ef	-15123
anpa	-15124
baat	-15125
bedu	-15126
disɛ	-15127
enna	-15128
eɛwo	-15129
hyɛɛ	-15130
kang	-15131
kɔhɔ	-15132
maah	-15133
niho	-15134
ofoɔ	-15135
orta	-15136
refa	-15137
resa	-15138
ryin	-15139
sapa	-15140
somd	-15141
sori	-15142
teri	-15143
uasa	-15144
unya	-15145
yɛɛn	-15146
▁bei	-15147
▁bod	-15148
▁bɛd	-15149
▁ekɔ	-15150
▁ewa	-15151
▁fro	-15152
▁gen	-15153
▁hin	-15154
▁mum	-15155
▁mus	-15156
▁muw	-15157
▁soe	-15158
▁son	-15159
▁ɔpo	-15160
aafoɔ	-15161
fofie	-15162
foɔhɔ	-15163
kɔtaa	-15164
ldren	-15165
papaa	-15166
sults	-15167
suobe	-15168
wotwe	-15169
wusie	-15170
wɔfie	-15171
yɛkye	-15172
▁atan	-15173
▁boad	-15174
▁hobi	-15175
▁kona	-15176
▁memm	-15177
▁menb	-15178
▁menh	-15179
▁menp	-15180
▁menw	-15181
▁meny	-15182
▁nebo	-15183
▁sesɛ	-15184
▁soyi	-15185
▁thou	-15186
▁wowu	-15187
▁ɔres	-15188
ansafo	-15189
apampa	-15190
aranya	-15191
beduru	-15192
begyae	-15193
behunu	-15194
benyan	-15195
benyin	-15196
berebe	-15197
bisawo	-15198
blemwɔ	-15199
dk	-15200
dr	-15201
wf	-15202
ɔk	-15203
ɛi	-15204
ado	-15205
ang	-15206
anɔ	-15207
enp	-15208
eye	-15209
fok	-15210
hak	-15211
hte	-15212
hwo	-15213
ile	-15214
ind	-15215
mpe	-15216
nad	-15217
nra	-15218
oin	-15219
orn	-15220
sob	-15221
tai	-15222
uon	-15223
yef	-15224
yid	-15225
yit	-15226
ɔan	-15227
ɔnm	-15228
ɛsɛ	-15229
▁ɔb	-15230
aade	-15231
bayɛ	-15232
debe	-15233
eine	-15234
enem	-15235
ente	-15236
eɛyi	-15237
hese	-15238
[...]
