<pad>	0
<unk>	0
<s>	0
</s>	0
▁n	-0
▁m	-1
▁w	-2
▁a	-3
▁me	-4
▁wo	-5
▁s	-6
▁na	-7
▁b	-8
aa	-9
yɛ	-10
▁k	-11
▁d	-12
▁no	-13
▁h	-14
▁ɛ	-15
ye	-16
eɛ	-17
an	-18
▁sɛ	-19
▁ɔ	-20
re	-21
yi	-22
▁t	-23
▁ne	-24
▁o	-25
en	-26
▁yɛ	-27
ra	-28
▁f	-29
ma	-30
ka	-31
rɛ	-32
▁deɛ	-33
▁p	-34
▁ɛn	-35
se	-36
ya	-37
ti	-38
▁bi	-39
me	-40
bi	-41
▁ma	-42
kɔ	-43
▁ad	-44
so	-45
ei	-46
sɛ	-47
▁an	-48
ie	-49
▁ye	-50
▁yi	-51
▁bɛ	-52
wa	-53
te	-54
▁ab	-55
▁wɔ	-56
ri	-57
▁mo	-58
▁e	-59
▁ka	-60
sa	-61
▁g	-62
▁men	-63
▁ho	-64
▁so	-65
▁mu	-66
▁kɔ	-67
na	-68
fo	-69
▁ba	-70
▁de	-71
yerɛ	-72
▁wa	-73
pa	-74
▁ak	-75
▁ha	-76
bɛ	-77
wɛ	-78
or	-79
im	-80
▁re	-81
mo	-82
wo	-83
de	-84
▁nti	-85
um	-86
fa	-87
▁hɔ	-88
▁saa	-89
ro	-90
in	-91
hu	-92
ba	-93
▁se	-94
▁nn	-95
ua	-96
ara	-97
▁maa	-98
no	-99
▁y	-100
▁kor	-101
▁da	-102
▁,	-103
ko	-104
▁won	-105
▁koraa	-106
deɛ	-107
▁mɛ	-108
da	-109
▁be	-110
▁en	-111
▁pa	-112
▁fa	-113
wɔ	-114
sɛm	-115
▁hwɛ	-116
▁wei	-117
si	-118
umi	-119
▁nya	-120
wu	-121
we	-122
foɔ	-123
yin	-124
▁si	-125
▁te	-126
▁fie	-127
om	-128
▁ah	-129
ɛn	-130
▁bɔ	-131
▁oo	-132
▁kyerɛ	-133
▁maame	-134
di	-135
ne	-136
▁to	-137
▁ɛyɛ	-138
▁ɔmo	-139
▁ase	-140
▁nso	-141
baa	-142
▁pɛ	-143
▁ku	-144
▁obi	-145
on	-146
ena	-147
▁baa	-148
iri	-149
▁nan	-150
to	-151
▁ni	-152
wan	-153
▁i	-154
er	-155
▁yo	-156
ia	-157
▁as	-158
▁nyin	-159
▁ag	-160
bɔ	-161
▁ɛna	-162
ho	-163
tumi	-164
▁adeɛ	-165
▁ama	-166
pɛ	-167
▁mm	-168
ani	-169
kye	-170
▁nyame	-171
ene	-172
▁nyinaa	-173
▁l	-174
▁ɛnn	-175
ha	-176
▁nk	-177
▁hu	-178
ane	-179
▁bo	-180
su	-181
▁ɛnyɛ	-182
▁paa	-183
▁asɛm	-184
▁anaa	-185
▁sei	-186
▁nea	-187
▁af	-188
▁he	-189
▁yɛn	-190
▁aba	-191
he	-192
▁you	-193
▁ko	-194
▁akɔ	-195
▁ɛwɔ	-196
▁enti	-197
▁di	-198
hwɛ	-199
▁nka	-200
ll	-201
▁anka	-202
▁ɔbaa	-203
▁ara	-204
ru	-205
▁kak	-206
▁sɔ	-207
daa	-208
tu	-209
▁nkɔ	-210
be	-211
ribi	-212
..	-213
mu	-214
▁yie	-215
▁biribi	-216
nu	-217
▁gye	-218
▁sika	-219
le	-220
mma	-221
sei	-222
▁nim	-223
▁sɛn	-224
▁mma	-225
▁yen	-226
▁kyɛ	-227
▁ɔno	-228
▁akwa	-229
gye	-230
▁deɛn	-231
▁ya	-232
▁abɛ	-233
ta	-234
▁ei	-235
▁ɛno	-236
ku	-237
▁adɛn	-238
wene	-239
tɔ	-240
yae	-241
▁kuro	-242
▁ayɛ	-243
ate	-244
▁mp	-245
▁ɛbɛ	-246
▁biara	-247
▁su	-248
▁daa	-249
ayɛ	-250
▁bu	-251
▁ɔn	-252
▁abo	-253
ad	-254
hyɛ	-255
▁wan	-256
yina	-257
▁papa	-258
la	-259
▁ɔbɛ	-260
kyɛ	-261
ɔn	-262
ahu	-263
dam	-264
▁bɛn	-265
man	-266
▁hwe	-267
▁asem	-268
▁nana	-269
▁nipa	-270
▁kakra	-271
▁do	-272
mi	-273
kyi	-274
▁ɛye	-275
wura	-276
kyerɛ	-277
rima	-278
bo	-279
fi	-280
mm	-281
han	-282
st	-283
▁ɔde	-284
▁on	-285
▁aka	-286
ase	-287
wuma	-288
▁bɔne	-289
▁firi	-290
▁li	-291
▁wai	-292
▁tena	-293
▁bra	-294
eii	-295
▁wobɛ	-296
suo	-297
ing	-298
sɔ	-299
▁kwan	-300
▁wɔfa	-301
th	-302
▁akyerɛ	-303
sh	-304
▁hyɛ	-305
firi	-306
▁at	-307
▁kye	-308
▁daabi	-309
▁ny	-310
▁adu	-311
▁ɛne	-312
▁dɛn	-313
▁kwa	-314
ano	-315
yia	-316
▁nni	-317
▁sesei	-318
bu	-319
▁fo	-320
ware	-321
▁tumi	-322
ol	-323
▁hwee	-324
▁ɛnnyɛ	-325
wie	-326
▁ti	-327
▁frɛ	-328
biara	-329
▁nyɛ	-330
anin	-331
▁srɛ	-332
▁nnyɛ	-333
▁oh	-334
▁aseɛ	-335
▁wonim	-336
gya	-337
▁mpa	-338
▁nsuo	-339
▁woyɛ	-340
anim	-341
▁aso	-342
wen	-343
▁gu	-344
▁kyɛw	-345
▁gyina	-346
▁kasa	-347
▁aa	-348
▁nfa	-349
▁sɔre	-350
▁ɛdeɛ	-351
fie	-352
▁ade	-353
▁neɛ	-354
▁awura	-355
▁gyae	-356
ni	-357
▁we	-358
▁adwuma	-359
du	-360
akɔ	-361
▁fi	-362
▁dan	-363
fu	-364
ke	-365
▁?	-366
anom	-367
shie	-368
▁reyɛ	-369
▁barima	-370
mmo	-371
▁koshie	-372
▁nsa	-373
▁nua	-374
ar	-375
ue	-376
aba	-377
▁nt	-378
▁ɔse	-379
hɔ	-380
oo	-381
kyew	-382
▁nto	-383
▁ɔd	-384
▁the	-385
▁mede	-386
▁reka	-387
▁ɛnnɛ	-388
▁tɔ	-389
▁nko	-390
kay	-391
srɛ	-392
hi	-393
maa	-394
▁mon	-395
▁eeii	-396
▁sa	-397
▁asɔ	-398
yaa	-399
▁nhu	-400
▁akwala	-401
▁akwadaa	-402
▁adi	-403
▁okay	-404
▁baako	-405
use	-406
▁mese	-407
▁nyan	-408
▁nanso	-409
▁awurade	-410
as	-411
frɛ	-412
▁but	-413
aka	-414
hat	-415
reɛ	-416
▁wu	-417
▁man	-418
▁mpo	-419
▁biaa	-420
▁ɔwɔ	-421
▁akyi	-422
▁kunu	-423
ree	-424
▁dɔ	-425
▁gi	-426
ble	-427
▁fɛ	-428
asɛm	-429
▁nkwa	-430
▁yere	-431
▁am	-432
▁ke	-433
▁tu	-434
▁din	-435
▁ɛdeɛn	-436
▁meka	-437
▁boa	-438
▁menim	-439
▁ani	-440
▁wode	-441
rl	-442
▁aane	-443
▁wahu	-444
gu	-445
▁den	-446
▁baabi	-447
wi	-448
sua	-449
twa	-450
▁ɔre	-451
▁agye	-452
...	-453
▁mi	-454
yimi	-455
▁nom	-456
▁sofo	-457
ako	-458
brɛ	-459
san	-460
▁kaa	-461
▁nnim	-462
▁saaa	-463
▁sɔfo	-464
▁obiara	-465
pe	-466
▁bebi	-467
▁nananom	-468
▁wi	-469
tena	-470
▁gya	-471
▁agya	-472
rɔ	-473
▁her	-474
▁nnɛ	-475
fe	-476
den	-477
raa	-478
▁asi	-479
▁ɛkɔ	-480
▁rekɔ	-481
akyi	-482
▁abɔ	-483
▁brɛ	-484
▁mepa	-485
▁mesrɛ	-486
ama	-487
kwa	-488
wia	-489
▁nie	-490
un	-491
▁meyɛ	-492
twe	-493
▁is	-494
▁aho	-495
▁eno	-496
ter	-497
yere	-498
▁aden	-499
▁afei	-500
▁hwan	-501
waa	-502
▁ano	-503
▁she	-504
▁ɔkɔ	-505
▁ɔyɛ	-506
▁girl	-507
ah	-508
▁and	-509
▁nam	-510
▁woho	-511
▁panin	-512
do	-513
mɔ	-514
nyɛ	-515
wɛn	-516
▁kru	-517
▁madam	-518
taa	-519
▁kɛ	-520
▁lina	-521
kan	-522
▁are	-523
▁ɛre	-524
akoma	-525
▁akon	-526
▁wodeɛ	-527
▁biribiara	-528
ag	-529
▁tie	-530
▁bibi	-531
pɔn	-532
sia	-533
▁go	-534
▁ebi	-535
▁rebɛ	-536
orɔ	-537
▁bio	-538
▁ɔye	-539
▁ɛde	-540
▁bisa	-541
boa	-542
woa	-543
kasa	-544
▁aha	-545
▁yaa	-546
▁akua	-547
sie	-548
▁it	-549
▁num	-550
▁ɛmma	-551
▁du	-552
anya	-553
▁asɛ	-554
▁for	-555
▁fri	-556
▁nen	-557
▁ɛba	-558
▁anim	-559
▁obiaa	-560
ɛm	-561
lla	-562
nam	-563
saa	-564
ten	-565
▁my	-566
ause	-567
▁hey	-568
▁wate	-569
▁aduane	-570
▁ankasa	-571
ng	-572
abɛ	-573
▁ru	-574
▁ɛda	-575
▁kete	-576
gh	-577
li	-578
kra	-579
▁ow	-580
▁abu	-581
▁twe	-582
▁akyɛ	-583
▁mmra	-584
enu	-585
som	-586
▁po	-587
▁asa	-588
▁woa	-589
▁ɔdɔ	-590
▁ɛsɛ	-591
▁asore	-592
▁menua	-593
▁nkyerɛ	-594
fra	-595
paa	-596
timi	-597
▁dea	-598
▁abre	-599
▁wote	-600
▁asɔre	-601
▁ɛwɔsɛ	-602
sem	-603
▁ek	-604
▁yoo	-605
ber	-606
ran	-607
▁agu	-608
▁aye	-609
▁kra	-610
▁hyia	-611
▁nsɛm	-612
▁kruom	-613
▁wɔmmo	-614
▁kyerɛsɛ	-615
hana	-616
▁ɛte	-617
▁mate	-618
▁kakyerɛ	-619
sɛn	-620
▁of	-621
▁sp	-622
adam	-623
▁ako	-624
▁ato	-625
daase	-626
kyire	-627
▁menhu	-628
▁nyanko	-629
die	-630
gyae	-631
▁mem	-632
▁ɛnɛ	-633
▁adom	-634
▁mpae	-635
fɛ	-636
ur	-637
seɛ	-638
▁ate	-639
▁mmo	-640
▁nte	-641
▁aman	-642
▁biom	-643
▁kama	-644
▁number	-645
am	-646
▁u	-647
bɛn	-648
▁ɔte	-649
▁ɛma	-650
▁bible	-651
ban	-652
bra	-653
hye	-654
ine	-655
yie	-656
▁aboa	-657
▁mekɔ	-658
dol	-659
rma	-660
duru	-661
papa	-662
ther	-663
yira	-664
▁beb	-665
▁bre	-666
▁twa	-667
▁mene	-668
▁woka	-669
▁wose	-670
adamfo	-671
▁nkɔmɔ	-672
▁rudol	-673
ly	-674
▁fe	-675
▁th	-676
▁don	-677
▁one	-678
▁ella	-679
▁nawo	-680
▁nneɛ	-681
▁reba	-682
et	-683
nea	-684
▁huu	-685
▁mpɛ	-686
▁meba	-687
▁woara	-688
▁ɛnneɛ	-689
▁medaase	-690
pp	-691
hwe	-692
tie	-693
wom	-694
▁dɛ	-695
merɛ	-696
yame	-697
▁awo	-698
▁ple	-699
▁abro	-700
▁ansa	-701
▁that	-702
▁time	-703
▁ɛhyɛ	-704
▁wonso	-705
▁please	-706
ina	-707
▁ee	-708
▁la	-709
▁teɛ	-710
wokyew	-711
▁adwoa	-712
▁efiri	-713
ii	-714
ɛɛ	-715
adi	-716
aso	-717
ust	-718
▁dwa	-719
▁mmɔ	-720
▁ɔbɔ	-721
▁ɔpɛ	-722
dwene	-723
▁whan	-724
▁menkɔ	-725
▁akonwa	-726
ty	-727
▁.	-728
err	-729
teɛ	-730
▁nh	-731
▁nok	-732
▁ntɔ	-733
▁wia	-734
kyere	-735
▁ɛk	-736
adeɛ	-737
sɔre	-738
▁atɔ	-739
▁awa	-740
▁not	-741
▁thi	-742
▁wokɔ	-743
▁kwame	-744
▁menyɛ	-745
▁nanka	-746
nk	-747
soɔ	-748
▁mea	-749
▁pro	-750
▁yɛɛ	-751
▁ahyɛ	-752
▁herh	-753
▁ntoma	-754
▁akyire	-755
ght	-756
tor	-757
aase	-758
▁obaa	-759
▁this	-760
▁ɛneɛ	-761
adwene	-762
tia	-763
▁fu	-764
▁ta	-765
ansa	-766
tion	-767
▁ayi	-768
▁kɔm	-769
▁mmɛ	-770
▁mepɛ	-771
▁ɛnam	-772
▁menso	-773
at	-774
now	-775
▁afa	-776
▁bro	-777
▁know	-778
▁mmaa	-779
▁nyankopɔn	-780
ink	-781
▁ban	-782
▁kɔɔ	-783
yifoɔ	-784
▁awia	-785
▁eerr	-786
▁nkyɛ	-787
▁bebree	-788
▁nokware	-789
tus	-790
kyɛw	-791
▁tua	-792
▁wae	-793
▁wie	-794
▁ɔba	-795
▁name	-796
dɔ	-797
kɔɔ	-798
▁in	-799
ster	-800
▁dabi	-801
▁pamo	-802
▁ɛnna	-803
▁aduro	-804
tee	-805
bisa	-806
▁dua	-807
▁hye	-808
▁pue	-809
▁san	-810
▁mame	-811
▁your	-812
inatus	-813
▁menka	-814
ld	-815
dan	-816
▁bl	-817
hyia	-818
▁kan	-819
▁naa	-820
▁ɛha	-821
▁ɛka	-822
▁wopɛ	-823
▁ɔmmo	-824
▁mensa	-825
▁seisei	-826
▁mentumi	-827
▁mepawokyew	-828
by	-829
es	-830
ɔm	-831
bea	-832
ɛyɛ	-833
▁moa	-834
▁sho	-835
▁efie	-836
▁spen	-837
▁what	-838
agyimi	-839
▁kyere	-840
▁menfa	-841
▁suban	-842
▁rudolp	-843
▁abrokyire	-844
kɛ	-845
oh	-846
kaa	-847
tua	-848
aseɛ	-849
kunu	-850
▁mmi	-851
▁awie	-852
▁twen	-853
▁yɛde	-854
▁afiri	-855
▁menya	-856
▁neama	-857
▁bayifoɔ	-858
▁nkwadaa	-859
rr	-860
rom	-861
sɔfo	-862
▁ada	-863
▁fam	-864
▁ken	-865
anyin	-866
▁dodo	-867
▁berma	-868
aninfoɔ	-869
▁ketewa	-870
po	-871
dwo	-872
▁nno	-873
▁amma	-874
▁asew	-875
▁mehu	-876
▁waye	-877
▁wone	-878
▁ntɔkwa	-879
id	-880
abɔ	-881
ent	-882
rink	-883
▁edi	-884
▁efi	-885
▁sre	-886
ansah	-887
▁abot	-888
▁ante	-889
▁anyɛ	-890
▁baby	-891
▁ware	-892
▁ɛnfa	-893
▁ɛnni	-894
uansah	-895
▁mpaeɛ	-896
▁koraaa	-897
▁metumi	-898
▁nyansa	-899
▁sister	-900
▁rudolph	-901
wra	-902
agye	-903
▁aku	-904
▁han	-905
▁mer	-906
▁eeeii	-907
▁kurom	-908
▁sɛnea	-909
▁tenase	-910
▁dabiara	-911
ww	-912
nim	-913
▁lo	-914
inks	-915
▁fre	-916
▁paw	-917
▁ɔda	-918
▁ɔka	-919
maame	-920
▁abrɛ	-921
▁mete	-922
▁nhwɛ	-923
hwehwɛ	-924
▁agorɔ	-925
▁ghana	-926
▁wonsa	-927
▁asaase	-928
oro	-929
ɔma	-930
some	-931
▁afu	-932
▁boy	-933
▁hia	-934
▁nsi	-935
▁akye	-936
▁meho	-937
▁twɛn	-938
▁adwene	-939
▁onyame	-940
▁mpaninfoɔ	-941
awu	-942
res	-943
rane	-944
▁ahu	-945
▁fɔm	-946
▁guy	-947
▁ooh	-948
▁sta	-949
▁sɛm	-950
▁wɔn	-951
waaba	-952
▁mayɛ	-953
▁nyaa	-954
▁redi	-955
▁woba	-956
▁akwra	-957
▁bebia	-958
▁dwene	-959
▁mente	-960
▁mienu	-961
▁sɛdeɛ	-962
▁blinks	-963
afa	-964
fri	-965
hia	-966
kyɛn	-967
▁gol	-968
▁will	-969
▁baaye	-970
▁bɔkɔɔ	-971
▁ntumi	-972
▁yareɛ	-973
▁meyere	-974
pi	-975
mmɛ	-976
nom	-977
berɛ	-978
blem	-979
▁bia	-980
▁bye	-981
▁emo	-982
kyena	-983
▁hene	-984
▁wore	-985
▁ɛnka	-986
▁ɛyaa	-987
▁kɛseɛ	-988
▁ɛbɛyɛ	-989
▁ɛnniɛ	-990
▁abosom	-991
▁abotrɛ	-992
▁abusua	-993
▁dabiaa	-994
▁nnoɔma	-995
nso	-996
nya	-997
tuo	-998
▁le	-999
twɛn	-1000
▁yem	-1001
▁ɛhɔ	-1002
▁kora	-1003
▁kyea	-1004
▁mere	-1005
▁mmrɛ	-1006
▁year	-1007
▁efisɛ	-1008
▁nkoaa	-1009
▁wiase	-1010
▁ɛrekɔ	-1011
al	-1012
dɛn	-1013
lly	-1014
▁pi	-1015
▁atu	-1016
▁hmm	-1017
▁nna	-1018
gyina	-1019
rofoɔ	-1020
▁abaa	-1021
▁didi	-1022
▁lily	-1023
▁sure	-1024
▁sɛbi	-1025
▁kente	-1026
▁paara	-1027
▁ɛnkyɛ	-1028
▁abrefi	-1029
▁amaneɛ	-1030
▁kyerɛɛ	-1031
▁nneɛma	-1032
▁bibiara	-1033
der	-1034
kuo	-1035
wei	-1036
▁ɛh	-1037
▁ɛm	-1038
mfoɔ	-1039
▁awu	-1040
▁bon	-1041
▁oni	-1042
▁yaw	-1043
▁dane	-1044
▁kyɛn	-1045
▁golia	-1046
▁mempɛ	-1047
▁nkasa	-1048
▁awareɛ	-1049
hom	-1050
nti	-1051
ood	-1052
sea	-1053
sen	-1054
tan	-1055
wum	-1056
▁up	-1057
yare	-1058
▁ebe	-1059
▁egu	-1060
▁faa	-1061
▁god	-1062
▁noa	-1063
▁ɔne	-1064
▁ampa	-1065
▁fine	-1066
▁hunu	-1067
▁mewɔ	-1068
▁nwom	-1069
▁onim	-1070
▁soro	-1071
▁sɛbe	-1072
▁sɛme	-1073
▁want	-1074
▁wɔhɔ	-1075
▁yooo	-1076
▁yɛbɛ	-1077
▁atena	-1078
▁medeɛ	-1079
▁mepaa	-1080
▁ɛsɛsɛ	-1081
▁afrane	-1082
▁ɔkyerɛ	-1083
▁problem	-1084
pɔ	-1085
sam	-1086
oraa	-1087
▁emu	-1088
▁nsɔ	-1089
▁odi	-1090
▁see	-1091
▁sum	-1092
▁too	-1093
▁ahwɛ	-1094
▁berɛ	-1095
▁kofi	-1096
▁maba	-1097
▁nkra	-1098
▁wofa	-1099
▁wona	-1100
▁wowɔ	-1101
▁bosome	-1102
▁mmienu	-1103
▁akwaaba	-1104
ge	-1105
lo	-1106
lt	-1107
awo	-1108
bre	-1109
pue	-1110
ron	-1111
▁afe	-1112
▁afi	-1113
▁ana	-1114
▁dam	-1115
▁foɔ	-1116
▁how	-1117
▁sin	-1118
▁sua	-1119
▁taa	-1120
adwen	-1121
atumi	-1122
▁abra	-1123
▁ahoɔ	-1124
▁bɛyɛ	-1125
▁feli	-1126
▁gyaa	-1127
▁kumi	-1128
▁mebɛ	-1129
▁paaa	-1130
▁sere	-1131
▁some	-1132
▁wawo	-1133
▁wura	-1134
▁yeah	-1135
▁abena	-1136
▁anopa	-1137
▁drink	-1138
▁dwuma	-1139
▁yenkɔ	-1140
▁mentimi	-1141
ga	-1142
fuo	-1143
men	-1144
pon	-1145
tii	-1146
wane	-1147
▁abe	-1148
▁any	-1149
▁bɔɔ	-1150
▁esi	-1151
▁sen	-1152
▁ɛbɔ	-1153
▁ɛfa	-1154
▁mena	-1155
▁mɛkɔ	-1156
▁ntɛm	-1157
▁sesa	-1158
▁waba	-1159
▁ɔnfa	-1160
▁adwen	-1161
▁aware	-1162
▁baayɛ	-1163
▁gyena	-1164
▁gyimi	-1165
▁menni	-1166
▁wonua	-1167
▁young	-1168
▁mother	-1169
▁nhyira	-1170
▁goliath	-1171
▁wontumi	-1172
wn	-1173
dua	-1174
ery	-1175
llo	-1176
twi	-1177
▁mɔ	-1178
ante	-1179
ting	-1180
urse	-1181
▁ata	-1182
▁hɛɛ	-1183
▁kae	-1184
▁mee	-1185
▁two	-1186
kurom	-1187
▁mɛba	-1188
▁ngye	-1189
▁nnya	-1190
▁ahoma	-1191
▁girls	-1192
▁menko	-1193
▁mogya	-1194
▁paapa	-1195
▁ɔsɔfo	-1196
▁ɛkwan	-1197
▁kakraa	-1198
▁mpaebɔ	-1199
kum	-1200
ris	-1201
yim	-1202
▁al	-1203
yewa	-1204
▁mia	-1205
▁woo	-1206
wiase	-1207
▁adwu	-1208
▁atwa	-1209
▁kwasia	-1210
▁ɔkyena	-1211
ee	-1212
nn	-1213
abu	-1214
asy	-1215
bro	-1216
pem	-1217
▁aw	-1218
▁wh	-1219
hone	-1220
hool	-1221
mang	-1222
▁afo	-1223
▁ame	-1224
▁asu	-1225
▁day	-1226
▁let	-1227
▁mmm	-1228
▁pen	-1229
▁som	-1230
▁wre	-1231
▁ɔha	-1232
▁ɛto	-1233
▁baeɛ	-1234
▁good	-1235
▁hwie	-1236
▁oooh	-1237
▁pena	-1238
▁than	-1239
▁yare	-1240
barima	-1241
▁abran	-1242
▁mmerɛ	-1243
▁abofra	-1244
▁pakyew	-1245
▁wokunu	-1246
▁mepaakyɛw	-1247
ayi	-1248
din	-1249
dwe	-1250
hou	-1251
oni	-1252
pɛɛ	-1253
ɔso	-1254
▁..	-1255
▁un	-1256
adwo	-1257
ying	-1258
▁fee	-1259
▁nwu	-1260
▁wow	-1261
kakra	-1262
▁abɔn	-1263
▁duru	-1264
▁kura	-1265
▁meda	-1266
▁mmom	-1267
▁mɛyɛ	-1268
▁wohu	-1269
▁yesu	-1270
▁ɔden	-1271
▁ɛbaa	-1272
▁dabɛn	-1273
▁womma	-1274
▁awiase	-1275
▁ewiase	-1276
▁hwehwɛ	-1277
▁mmarima	-1278
dd	-1279
ed	-1280
lk	-1281
ada	-1282
ade	-1283
fre	-1284
tin	-1285
ɔmo	-1286
ɛwɔ	-1287
▁op	-1288
abrɛ	-1289
bɔne	-1290
duro	-1291
hene	-1292
kwan	-1293
sesa	-1294
▁app	-1295
▁guu	-1296
▁nda	-1297
▁sti	-1298
yinaa	-1299
▁ataa	-1300
▁here	-1301
▁kɛkɛ	-1302
▁last	-1303
▁lati	-1304
▁life	-1305
▁mema	-1306
▁rebɔ	-1307
▁sore	-1308
▁tiri	-1309
▁wobe	-1310
▁ɛnoa	-1311
▁ennyɛ	-1312
▁hello	-1313
▁nansa	-1314
▁ntena	-1315
▁sisie	-1316
▁adwubi	-1317
▁anadwo	-1318
▁bankye	-1319
▁retwɛn	-1320
▁abɔnten	-1321
▁bebiree	-1322
adu	-1323
are	-1324
atu	-1325
way	-1326
agya	-1327
akye	-1328
amma	-1329
anka	-1330
atɛm	-1331
awie	-1332
keka	-1333
suro	-1334
ɔbaa	-1335
▁bue	-1336
▁nfi	-1337
▁babi	-1338
▁ebia	-1339
▁keka	-1340
▁kɔkɔ	-1341
▁mɔbɔ	-1342
▁nano	-1343
▁tire	-1344
▁woni	-1345
▁meboa	-1346
▁mpena	-1347
▁wonhu	-1348
▁ɛhyɛn	-1349
▁anaasɛ	-1350
▁bɛtumi	-1351
▁panyin	-1352
▁wotumi	-1353
▁agyeman	-1354
▁kyeresɛ	-1355
tɛ	-1356
ana	-1357
bue	-1358
faa	-1359
iah	-1360
mmy	-1361
tal	-1362
yam	-1363
▁eh	-1364
▁pe	-1365
▁st	-1366
▁ɔm	-1367
anko	-1368
anyɛ	-1369
hyeɛ	-1370
kama	-1371
mmra	-1372
orso	-1373
pamo	-1374
sion	-1375
▁huh	-1376
▁hyi	-1377
▁nha	-1378
▁nku	-1379
▁sɛɛ	-1380
▁waa	-1381
▁yes	-1382
▁ɔso	-1383
gyimi	-1384
pɛɛpɛ	-1385
thing	-1386
▁down	-1387
▁easy	-1388
▁mama	-1389
▁medɔ	-1390
▁meso	-1391
▁tell	-1392
▁they	-1393
▁wada	-1394
▁wobɔ	-1395
▁wodi	-1396
▁hemaa	-1397
▁house	-1398
▁mehwɛ	-1399
▁nurse	-1400
▁still	-1401
▁tilly	-1402
▁abrabɔ	-1403
▁appiah	-1404
▁bebiaa	-1405
▁menhwɛ	-1406
▁menkoaa	-1407
▁nkrabea	-1408
▁pɛpɛɛpɛ	-1409
▁mepakyew	-1410
▁rehwehwɛ	-1411
dɛ	-1412
atɔ	-1413
ieɛ	-1414
▁nu	-1415
▁or	-1416
afrɛ	-1417
deɛn	-1418
hwan	-1419
mere	-1420
▁bie	-1421
▁eei	-1422
▁fir	-1423
▁mom	-1424
▁soa	-1425
▁twi	-1426
▁ɛsi	-1427
koraa	-1428
pagya	-1429
▁adwa	-1430
▁bedi	-1431
▁bɛkɔ	-1432
▁etwa	-1433
▁kuma	-1434
▁makɔ	-1435
▁nhuu	-1436
▁susu	-1437
▁thou	-1438
▁ɔhyɛ	-1439
▁ɛdɛn	-1440
▁ababa	-1441
▁dibrɛ	-1442
▁akɔmfoɔ	-1443
hoɔ	-1444
ita	-1445
kuu	-1446
mpa	-1447
ney	-1448
oli	-1449
ort	-1450
ren	-1451
yɔn	-1452
ɛna	-1453
▁if	-1454
▁ɔt	-1455
amɔn	-1456
eiti	-1457
ensa	-1458
hwie	-1459
tiri	-1460
▁ahh	-1461
▁amo	-1462
▁awɔ	-1463
▁bɛs	-1464
▁dwo	-1465
▁now	-1466
▁ooo	-1467
▁oww	-1468
▁pii	-1469
▁shi	-1470
▁wom	-1471
▁yei	-1472
▁ɔbo	-1473
▁ɔwo	-1474
▁ɛso	-1475
adidi	-1476
ahunu	-1477
brabɔ	-1478
dding	-1479
hanti	-1480
▁ahwe	-1481
▁amen	-1482
▁enni	-1483
▁meme	-1484
▁milk	-1485
▁nnam	-1486
▁nsem	-1487
▁side	-1488
▁sɛwo	-1489
▁take	-1490
▁tesɛ	-1491
▁wabɛ	-1492
▁wawu	-1493
▁werɛ	-1494
▁with	-1495
▁ɔnkɔ	-1496
▁ɛnte	-1497
seasɛm	-1498
▁anwum	-1499
▁eduru	-1500
▁fakyɛ	-1501
▁first	-1502
▁hɔnom	-1503
▁mummy	-1504
▁nensa	-1505
▁pagya	-1506
▁phone	-1507
▁sisia	-1508
▁suman	-1509
▁wanim	-1510
▁wanyɛ	-1511
▁ɔhene	-1512
▁ɛberɛ	-1513
▁ababaa	-1514
▁bonsam	-1515
▁dehyeɛ	-1516
▁latino	-1517
▁wanwan	-1518
▁ɛkorso	-1519
▁ababawa	-1520
▁ashanti	-1521
▁wedding	-1522
▁penamang	-1523
el	-1524
ss	-1525
yɔ	-1526
eno	-1527
hie	-1528
nka	-1529
spi	-1530
▁ok	-1531
ahwe	-1532
didi	-1533
funu	-1534
mmrɛ	-1535
rist	-1536
tire	-1537
▁fof	-1538
▁haw	-1539
▁kro	-1540
▁nsu	-1541
▁nwo	-1542
▁tan	-1543
▁tia	-1544
▁tuo	-1545
▁yia	-1546
baako	-1547
risto	-1548
sansɛ	-1549
▁dede	-1550
▁fofo	-1551
▁kɛsɛ	-1552
▁mire	-1553
▁mɛka	-1554
▁pono	-1555
▁sane	-1556
▁sisi	-1557
▁wora	-1558
▁wowo	-1559
▁yɛno	-1560
▁ɔnyɛ	-1561
▁ɛteɛ	-1562
▁emomu	-1563
▁naano	-1564
▁nkyɛn	-1565
▁years	-1566
▁betumi	-1567
▁deɛbɛn	-1568
▁kristo	-1569
▁kyerɛw	-1570
▁rudolf	-1571
▁nkrofoɔ	-1572
▁nyinsɛn	-1573
▁ababaawa	-1574
▁gyimifoɔ	-1575
ek	-1576
ep	-1577
gn	-1578
hm	-1579
us	-1580
ini	-1581
ohm	-1582
pan	-1583
sre	-1584
tɔɔ	-1585
▁pu	-1586
▁pɔ	-1587
▁ɛt	-1588
essi	-1589
kura	-1590
kyen	-1591
onti	-1592
ueen	-1593
wder	-1594
▁anɔ	-1595
▁did	-1596
▁fas	-1597
▁hon	-1598
▁kum	-1599
▁lea	-1600
▁naw	-1601
▁naɔ	-1602
▁osi	-1603
▁sie	-1604
▁way	-1605
▁why	-1606
▁wuo	-1607
▁ɔbe	-1608
▁ɛho	-1609
▁ɛya	-1610
ghana	-1611
onyam	-1612
right	-1613
uadeɛ	-1614
ɛɛfoɔ	-1615
▁ahen	-1616
▁braa	-1617
▁frɛɛ	-1618
▁kasɛ	-1619
▁neho	-1620
▁nfrɛ	-1621
▁repɛ	-1622
▁star	-1623
▁suro	-1624
▁yɛse	-1625
▁ɔmma	-1626
▁ɔnoa	-1627
adwuma	-1628
manfoɔ	-1629
▁ahyia	-1630
▁akasa	-1631
▁basaa	-1632
▁dadaa	-1633
▁fitaa	-1634
▁menpɛ	-1635
▁nasem	-1636
▁neɛma	-1637
▁nkwan	-1638
▁tease	-1639
▁thank	-1640
▁wobaa	-1641
▁woman	-1642
▁ɛreba	-1643
bibiara	-1644
▁adɛnna	-1645
▁anamɔn	-1646
▁asɔfoɔ	-1647
▁daakye	-1648
▁mireku	-1649
▁neɛmma	-1650
▁powder	-1651
▁rekasa	-1652
▁brother	-1653
▁fasting	-1654
▁menkyɛn	-1655
▁wantumi	-1656
▁abranteɛ	-1657
▁kamakama	-1658
▁nkwaseasɛm	-1659
ak	-1660
mɛ	-1661
asɛ	-1662
ben	-1663
dwa	-1664
mmɔ	-1665
obi	-1666
one	-1667
our	-1668
shi	-1669
▁er	-1670
▁ro	-1671
tene	-1672
▁die	-1673
▁dii	-1674
▁eii	-1675
▁hei	-1676
▁kɔn	-1677
▁obe	-1678
▁pre	-1679
▁sra	-1680
▁tea	-1681
▁yɛm	-1682
▁ɛhe	-1683
aniso	-1684
▁anom	-1685
▁besi	-1686
▁from	-1687
▁kyen	-1688
▁medi	-1689
▁more	-1690
▁nasɛ	-1691
▁nono	-1692
▁wobo	-1693
▁ɔbɔɔ	-1694
▁ɛnti	-1695
antumi	-1696
▁anɔpa	-1697
▁broni	-1698
▁kwaku	-1699
▁meeba	-1700
▁mefrɛ	-1701
▁there	-1702
▁twene	-1703
▁twerɛ	-1704
▁yɛnkɔ	-1705
▁ɛkɔso	-1706
▁akosua	-1707
▁berima	-1708
▁nkoara	-1709
▁efirisɛ	-1710
▁madwene	-1711
▁ɔdɛɛfoɔ	-1712
em	-1713
rn	-1714
ut	-1715
afe	-1716
aha	-1717
end	-1718
ful	-1719
ies	-1720
oma	-1721
pre	-1722
too	-1723
adom	-1724
ahwɛ	-1725
anfa	-1726
eɛma	-1727
here	-1728
homa	-1729
kete	-1730
kora	-1731
ress	-1732
rmal	-1733
roma	-1734
werɛ	-1735
▁adɔ	-1736
▁ahe	-1737
▁bag	-1738
▁brɔ	-1739
▁ehu	-1740
▁par	-1741
▁rep	-1742
▁sle	-1743
▁sur	-1744
▁ten	-1745
▁tɔn	-1746
▁uhm	-1747
▁wor	-1748
▁yɛa	-1749
▁ɛmo	-1750
▁ɛtɔ	-1751
fofoɔ	-1752
rning	-1753
ɔnfoɔ	-1754
▁adan	-1755
▁ahye	-1756
▁ankɔ	-1757
▁asan	-1758
▁basa	-1759
▁baye	-1760
▁bɛfa	-1761
▁dada	-1762
▁egya	-1763
▁korɔ	-1764
▁like	-1765
▁line	-1766
▁make	-1767
▁meni	-1768
▁meno	-1769
▁nfie	-1770
▁nsia	-1771
▁ntia	-1772
▁poli	-1773
▁retu	-1774
▁wama	-1775
▁week	-1776
▁woso	-1777
▁yiee	-1778
▁yɛyɛ	-1779
▁ɛyɛɛ	-1780
spital	-1781
▁bayie	-1782
▁bibia	-1783
▁dɔɔso	-1784
▁enniɛ	-1785
▁feeli	-1786
▁honam	-1787
▁hweee	-1788
▁hyiaa	-1789
▁manka	-1790
▁memma	-1791
▁month	-1792
▁ofiri	-1793
▁oooww	-1794
▁regye	-1795
▁sukuu	-1796
▁wanya	-1797
▁wonte	-1798
ahwehwɛ	-1799
animfoɔ	-1800
ristoni	-1801
▁bibiaa	-1802
▁hyehyɛ	-1803
▁normal	-1804
▁ɛnkasa	-1805
▁abaayewa	-1806
▁hospital	-1807
mp	-1808
ry	-1809
apa	-1810
bia	-1811
kro	-1812
mon	-1813
nwa	-1814
pri	-1815
ugh	-1816
▁mr	-1817
fuom	-1818
kyea	-1819
onso	-1820
pena	-1821
rebe	-1822
seia	-1823
terɛ	-1824
unim	-1825
ways	-1826
▁aaa	-1827
▁aga	-1828
▁all	-1829
▁boɔ	-1830
▁edu	-1831
▁foo	-1832
▁mrɛ	-1833
▁nta	-1834
▁sii	-1835
▁ɛko	-1836
awura	-1837
daabi	-1838
dware	-1839
frama	-1840
hemaa	-1841
hyɛda	-1842
irika	-1843
yanko	-1844
▁abon	-1845
▁afie	-1846
▁akoa	-1847
▁akor	-1848
▁asom	-1849
▁bɛka	-1850
▁hmmm	-1851
▁hyɛɛ	-1852
▁kɔfa	-1853
▁masa	-1854
▁mesi	-1855
▁nayɛ	-1856
▁shia	-1857
▁tete	-1858
▁ɛnkɔ	-1859
abɔdam	-1860
buadeɛ	-1861
▁aduru	-1862
▁akura	-1863
▁aseda	-1864
▁daase	-1865
▁fofro	-1866
▁kyena	-1867
▁manim	-1868
▁megye	-1869
▁monfa	-1870
▁nkron	-1871
▁nsoso	-1872
▁nsɔre	-1873
▁saana	-1874
▁sekan	-1875
▁wohwɛ	-1876
▁wonkɔ	-1877
▁yiara	-1878
▁abrewa	-1879
▁ahoɔfɛ	-1880
▁kɔmfoɔ	-1881
▁mennim	-1882
▁nkunim	-1883
▁seseia	-1884
▁woyere	-1885
▁ɛneama	-1886
▁amanfoɔ	-1887
▁kyerɛwo	-1888
▁papapapa	-1889
▁wobɛtumi	-1890
▁ɔkakyerɛ	-1891
dy	-1892
gi	-1893
go	-1894
ady	-1895
afu	-1896
alm	-1897
and	-1898
asi	-1899
ato	-1900
bio	-1901
day	-1902
fii	-1903
ist	-1904
ker	-1905
ome	-1906
omu	-1907
ous	-1908
pie	-1909
rry	-1910
son	-1911
top	-1912
tum	-1913
ult	-1914
unt	-1915
uro	-1916
wre	-1917
ɛbɛ	-1918
▁by	-1919
dent	-1920
harl	-1921
hild	-1922
kuro	-1923
pene	-1924
pong	-1925
sand	-1926
sɛbi	-1927
tare	-1928
ture	-1929
▁agi	-1930
▁dom	-1931
▁ebu	-1932
▁ede	-1933
▁get	-1934
▁mam	-1935
▁nfu	-1936
▁nne	-1937
▁ntu	-1938
▁owu	-1939
▁pie	-1940
▁ren	-1941
▁yii	-1942
▁ɔdi	-1943
▁ɔfa	-1944
atena	-1945
danfo	-1946
intin	-1947
pping	-1948
rious	-1949
wanwa	-1950
yɔnko	-1951
▁afrɛ	-1952
▁agoo	-1953
▁anya	-1954
▁atwe	-1955
▁boys	-1956
▁deda	-1957
▁enka	-1958
▁gate	-1959
▁hyɛn	-1960
▁kruo	-1961
▁kɔeɛ	-1962
▁mapa	-1963
▁maye	-1964
▁mesɛ	-1965
▁mmoa	-1966
▁need	-1967
▁noma	-1968
▁nona	-1969
▁nsan	-1970
▁poma	-1971
▁resu	-1972
▁shop	-1973
▁stay	-1974
▁stop	-1975
▁tene	-1976
▁waka	-1977
▁wani	-1978
▁wife	-1979
▁wild	-1980
▁yiaa	-1981
▁ɔmoa	-1982
▁ɔnni	-1983
▁ɛnso	-1984
abrabɔ	-1985
akyire	-1986
harlie	-1987
raasen	-1988
▁after	-1989
▁akwan	-1990
▁asala	-1991
▁bɔdam	-1992
▁etumi	-1993
▁going	-1994
▁hanom	-1995
▁light	-1996
▁mebaa	-1997
▁money	-1998
▁mɛsrɛ	-1999
▁nenka	-2000
▁nyira	-2001
▁party	-2002
▁ready	-2003
▁right	-2004
▁saara	-2005
▁sleep	-2006
▁thing	-2007
▁three	-2008
▁wasem	-2009
▁yɛfrɛ	-2010
▁yɛnfa	-2011
▁ɔmmra	-2012
▁ɔnnyɛ	-2013
▁ɛfiri	-2014
▁ɛndeɛ	-2015
▁ɛnwom	-2016
▁ɛtwen	-2017
▁always	-2018
▁anigye	-2019
▁eeeiii	-2020
▁firisɛ	-2021
▁foforɔ	-2022
▁metimi	-2023
▁rebɛdi	-2024
▁saying	-2025
▁ɔnonso	-2026
▁ɛkyerɛ	-2027
▁ɛnoara	-2028
▁ɛtesɛn	-2029
kyekyere	-2030
▁dadaada	-2031
▁kakyere	-2032
▁ketewaa	-2033
▁kuromha	-2034
▁mentena	-2035
▁serious	-2036
▁warning	-2037
▁ɛrekɔso	-2038
▁kuraasen	-2039
▁shopping	-2040
▁thousand	-2041
▁ɔrekyerɛ	-2042
▁akorɔnfoɔ	-2043
hɛ	-2044
lu	-2045
buo	-2046
eni	-2047
int	-2048
pra	-2049
suu	-2050
toɔ	-2051
ɛnɛ	-2052
▁ns	-2053
▁yɔ	-2054
anum	-2055
asan	-2056
bobɔ	-2057
kran	-2058
mhom	-2059
ɛnyɛ	-2060
▁fii	-2061
▁kom	-2062
▁koo	-2063
▁min	-2064
▁mmu	-2065
▁mra	-2066
▁mua	-2067
▁nfo	-2068
▁nsɛ	-2069
▁obɛ	-2070
▁sɔɔ	-2071
▁tee	-2072
▁ɛbe	-2073
▁ɛdi	-2074
agyae	-2075
asesa	-2076
gyena	-2077
nyame	-2078
saana	-2079
todwe	-2080
wareɛ	-2081
▁adua	-2082
▁adwo	-2083
▁awoɔ	-2084
▁awre	-2085
▁bɛba	-2086
▁dinn	-2087
▁mani	-2088
▁mawo	-2089
▁metu	-2090
▁nhia	-2091
▁nome	-2092
▁noyɛ	-2093
▁ntro	-2094
▁soma	-2095
▁wosɛ	-2096
▁wɔha	-2097
▁yɛkɔ	-2098
▁ɔtaa	-2099
▁ɛden	-2100
▁ɛnha	-2101
▁ɛnne	-2102
hyehyɛ	-2103
yinsɛn	-2104
▁annyɛ	-2105
▁atumi	-2106
▁awɔse	-2107
▁ayare	-2108
▁ewura	-2109
▁fufuo	-2110
▁medie	-2111
▁monim	-2112
▁ntobo	-2113
▁owura	-2114
▁sɛneɛ	-2115
▁whana	-2116
▁wokaa	-2117
▁wonfa	-2118
▁wonya	-2119
▁abɔfra	-2120
▁afutuo	-2121
▁agyerɛ	-2122
▁homhom	-2123
▁mframa	-2124
▁nkwasi	-2125
▁teaseɛ	-2126
▁tirimu	-2127
▁wopapa	-2128
▁abotare	-2129
▁aboterɛ	-2130
▁ahoɔden	-2131
krankakra	-2132
▁abosomfoɔ	-2133
ir	-2134
fty	-2135
hut	-2136
kya	-2137
lan	-2138
ley	-2139
mia	-2140
naa	-2141
num	-2142
pro	-2143
pɛn	-2144
red	-2145
rth	-2146
uld	-2147
urs	-2148
ɔse	-2149
ɛma	-2150
▁nɛ	-2151
adaw	-2152
anaa	-2153
anhu	-2154
ankɔ	-2155
anso	-2156
asem	-2157
atwa	-2158
dwen	-2159
gorɔ	-2160
hawo	-2161
hunu	-2162
kono	-2163
korɔ	-2164
mmoa	-2165
ount	-2166
ring	-2167
rɛko	-2168
side	-2169
▁aah	-2170
▁apo	-2171
▁bel	-2172
▁bɔn	-2173
▁ete	-2174
▁hɔa	-2175
▁its	-2176
▁may	-2177
▁mre	-2178
▁ndi	-2179
▁pam	-2180
▁pun	-2181
▁rea	-2182
▁say	-2183
▁sha	-2184
▁stu	-2185
▁sɛw	-2186
▁toa	-2187
▁tɔɔ	-2188
▁was	-2189
▁who	-2190
▁wɔm	-2191
▁yea	-2192
▁ɛwo	-2193
anhwɛ	-2194
derst	-2195
drink	-2196
gyerɛ	-2197
hyira	-2198
ident	-2199
kyera	-2200
moden	-2201
prise	-2202
▁aban	-2203
▁afri	-2204
▁anfa	-2205
▁baba	-2206
▁bill	-2207
▁dwom	-2208
▁enfa	-2209
▁four	-2210
▁hand	-2211
▁kɔtɔ	-2212
▁lets	-2213
▁maka	-2214
▁mbra	-2215
▁mebɔ	-2216
▁mmre	-2217
▁mmue	-2218
▁mode	-2219
▁mpem	-2220
▁neme	-2221
▁newo	-2222
▁nkoa	-2223
▁nnye	-2224
▁nowo	-2225
▁ntem	-2226
▁obia	-2227
▁pɛsɛ	-2228
▁refa	-2229
▁shut	-2230
▁then	-2231
▁thro	-2232
▁wabu	-2233
▁wehe	-2234
▁wɔhe	-2235
▁yamu	-2236
▁ɔhwɛ	-2237
▁ɔhye	-2238
▁ɔnim	-2239
▁ɔtwe	-2240
▁ɛnya	-2241
awareɛ	-2242
krofoɔ	-2243
tenase	-2244
uonyam	-2245
▁abɛfa	-2246
▁abɛto	-2247
▁akoma	-2248
▁asukɔ	-2249
▁asɔfo	-2250
▁birth	-2251
▁bosom	-2252
▁busua	-2253
▁dware	-2254
▁gyerɛ	-2255
▁gyesɛ	-2256
▁hwene	-2257
▁kafra	-2258
▁konti	-2259
▁kɔmfo	-2260
▁menie	-2261
▁menye	-2262
▁mmere	-2263
▁monka	-2264
▁nenam	-2265
▁nfiri	-2266
▁nhyia	-2267
▁ntina	-2268
▁nwura	-2269
▁payin	-2270
▁prɛko	-2271
▁rebrɛ	-2272
▁rekum	-2273
▁think	-2274
▁wakyi	-2275
▁wanfa	-2276
▁watia	-2277
▁where	-2278
▁wogye	-2279
▁wɔfie	-2280
▁yenfa	-2281
▁yɛama	-2282
▁yɛnka	-2283
▁ɔhyɛn	-2284
▁ɔreka	-2285
▁ɔsoro	-2286
▁ɔyare	-2287
▁ɛreka	-2288
ateaseɛ	-2289
intinto	-2290
▁anidie	-2291
▁antumi	-2292
▁ashawo	-2293
▁atareɛ	-2294
▁bremen	-2295
▁honhom	-2296
▁kankan	-2297
▁mennyɛ	-2298
▁mentwa	-2299
▁months	-2300
▁rebisa	-2301
▁report	-2302
▁wokasa	-2303
▁wonnim	-2304
▁yefunu	-2305
brokyire	-2306
derstand	-2307
▁abonten	-2308
▁akontaa	-2309
▁bɔmoden	-2310
▁madanfo	-2311
▁pension	-2312
▁wadwene	-2313
▁womaame	-2314
yɔnkogorɔ	-2315
▁anything	-2316
▁mentease	-2317
▁sleeping	-2318
▁surprise	-2319
▁tintinto	-2320
▁wadaroma	-2321
▁anwummerɛ	-2322
▁kuraaseni	-2323
▁nnamfofoɔ	-2324
▁understand	-2325
it	-2326
nɛ	-2327
ame	-2328
ata	-2329
boɔ	-2330
dea	-2331
edi	-2332
fan	-2333
huu	-2334
nie	-2335
yii	-2336
▁ed	-2337
ahyɛ	-2338
ataa	-2339
basa	-2340
busa	-2341
dane	-2342
enam	-2343
sana	-2344
wiri	-2345
yidi	-2346
yire	-2347
▁abi	-2348
▁apa	-2349
▁awe	-2350
▁eni	-2351
▁fom	-2352
▁hoɔ	-2353
▁mat	-2354
▁mfa	-2355
▁nse	-2356
▁nyi	-2357
▁pae	-2358
▁ɔsɛ	-2359
▁ɛmm	-2360
aagye	-2361
aduru	-2362
ahyia	-2363
bɔdam	-2364
oroma	-2365
sesei	-2366
wɔtwe	-2367
▁adam	-2368
▁anan	-2369
▁atɛm	-2370
▁ensi	-2371
▁gyee	-2372
▁kata	-2373
▁mobɛ	-2374
▁mono	-2375
▁nson	-2376
▁ntie	-2377
▁onni	-2378
▁waha	-2379
▁worɔ	-2380
▁wɔyɛ	-2381
▁yɛte	-2382
▁yɛwɔ	-2383
▁ɛmme	-2384
▁ɛnsɛ	-2385
ankasa	-2386
▁adane	-2387
▁akyɛw	-2388
▁akɔfa	-2389
▁asoma	-2390
▁dodoɔ	-2391
▁ebesi	-2392
▁gyama	-2393
▁mefie	-2394
▁menda	-2395
▁menma	-2396
▁metua	-2397
▁monyɛ	-2398
▁nenkɔ	-2399
▁nware	-2400
▁onipa	-2401
▁otumi	-2402
▁point	-2403
▁sesie	-2404
▁tebea	-2405
▁wonyɛ	-2406
▁ɔbɛba	-2407
▁ɔtumi	-2408
▁ɛbɛba	-2409
▁abufuo	-2410
▁awadeɛ	-2411
▁edikan	-2412
▁komfoɔ	-2413
▁kumasi	-2414
▁maakuo	-2415
▁megyae	-2416
▁mekunu	-2417
▁mirika	-2418
▁nansei	-2419
▁nkakra	-2420
▁opanin	-2421
▁wobɛkɔ	-2422
▁wofiri	-2423
▁ɛkyena	-2424
yankopɔn	-2425
▁abɛtena	-2426
▁adaagye	-2427
▁adwaman	-2428
▁ansaana	-2429
▁asetena	-2430
▁medwene	-2431
▁sakyera	-2432
▁ghanafoɔ	-2433
ab	-2434
dm	-2435
il	-2436
nd	-2437
rm	-2438
all	-2439
apɔ	-2440
bag	-2441
dom	-2442
eka	-2443
ill	-2444
kae	-2445
oin	-2446
ong	-2447
pen	-2448
sue	-2449
sɛɛ	-2450
ted	-2451
tem	-2452
und	-2453
wae	-2454
weɛ	-2455
ɔdɔ	-2456
ɛfɛ	-2457
ɛno	-2458
▁aɔ	-2459
▁es	-2460
▁hɛ	-2461
▁im	-2462
▁ra	-2463
▁uk	-2464
▁us	-2465
▁ɔg	-2466
asom	-2467
aste	-2468
biaa	-2469
dmum	-2470
dwoa	-2471
dwoe	-2472
illa	-2473
king	-2474
kraa	-2475
mete	-2476
oner	-2477
pepe	-2478
rite	-2479
room	-2480
time	-2481
uros	-2482
weet	-2483
wieɛ	-2484
wife	-2485
ɛnsa	-2486
ɛyaa	-2487
▁bom	-2488
▁dif	-2489
▁gra	-2490
▁lad	-2491
▁mɛn	-2492
▁nae	-2493
▁new	-2494
▁out	-2495
▁pra	-2496
▁pɛn	-2497
▁tom	-2498
▁tum	-2499
▁tuu	-2500
▁use	-2501
▁whi	-2502
▁woɔ	-2503
▁ɔhu	-2504
▁ɔma	-2505
▁ɛse	-2506
akɔfa	-2507
depɔn	-2508
ision	-2509
ndred	-2510
neɛma	-2511
olour	-2512
onsor	-2513
range	-2514
rebee	-2515
riker	-2516
rying	-2517
sabea	-2518
suani	-2519
tidua	-2520
▁adea	-2521
▁adwe	-2522
▁ahin	-2523
▁ahon	-2524
▁ayie	-2525
▁bank	-2526
▁been	-2527
▁bere	-2528
▁biri	-2529
▁body	-2530
▁bɛto	-2531
▁bɛye	-2532
▁dekɛ	-2533
▁deɛa	-2534
▁dwen	-2535
▁eiii	-2536
▁endi	-2537
▁enso	-2538
▁fast	-2539
▁funu	-2540
▁fɛfɛ	-2541
▁fɛre	-2542
▁gran	-2543
▁happ	-2544
▁huri	-2545
▁kame	-2546
▁kudi	-2547
▁kyin	-2548
▁mefa	-2549
▁meye	-2550
▁mfie	-2551
▁moyɛ	-2552
▁musi	-2553
▁niso	-2554
▁nnom	-2555
▁odii	-2556
▁ohia	-2557
▁otua	-2558
▁plan	-2559
▁rede	-2560
▁rela	-2561
▁rema	-2562
▁resi	-2563
▁rete	-2564
▁sign	-2565
▁sokɔ	-2566
▁tutu	-2567
▁wafa	-2568
▁wakɔ	-2569
▁wayi	-2570
▁went	-2571
▁were	-2572
▁wono	-2573
▁wɔde	-2574
▁wɔkɔ	-2575
▁ɔmmu	-2576
▁ɔmmɛ	-2577
▁ɔmpɛ	-2578
▁ɔsan	-2579
▁ɔsom	-2580
▁ɛdan	-2581
▁ɛkɔm	-2582
▁ɛsan	-2583
abusua	-2584
areful	-2585
biribi	-2586
sioner	-2587
wiensa	-2588
▁adidi	-2589
▁again	-2590
▁agoro	-2591
▁akokɔ	-2592
▁asafo	-2593
▁belie	-2594
▁bɛsin	-2595
▁deɛme	-2596
▁dikan	-2597
▁dress	-2598
▁dwane	-2599
▁eduro	-2600
▁egume	-2601
▁ekura	-2602
▁fight	-2603
▁hyɛda	-2604
▁least	-2605
▁makyi	-2606
▁mante	-2607
▁maybe	-2608
▁memfa	-2609
▁menoa	-2610
▁menwo	-2611
▁momma	-2612
▁mɛhwɛ	-2613
▁naɔre	-2614
▁naɛyɛ	-2615
▁nnyae	-2616
▁noara	-2617
▁ntwɛn	-2618
▁nyane	-2619
▁nyina	-2620
▁pitii	-2621
▁rehwɛ	-2622
▁rehyɛ	-2623
▁sweet	-2624
▁taste	-2625
▁wamma	-2626
▁water	-2627
▁yɛɛka	-2628
▁ɔfiri	-2629
▁ɔrebɛ	-2630
▁ɔrekɔ	-2631
▁ɔreyɛ	-2632
▁ɛmmrɛ	-2633
hildren	-2634
▁agyina	-2635
▁akwamu	-2636
▁anante	-2637
▁ankame	-2638
▁anyway	-2639
▁atadeɛ	-2640
▁awieyɛ	-2641
▁berɛwo	-2642
▁father	-2643
▁inside	-2644
▁ladies	-2645
▁mereka	-2646
▁rekeka	-2647
▁twenty	-2648
▁twitwa	-2649
▁wannya	-2650
▁yɛhwan	-2651
▁ɔntumi	-2652
▁ɛnɛdeɛ	-2653
▁ɛsansɛ	-2654
▁abayewa	-2655
▁ahenfie	-2656
▁akurase	-2657
▁ankyerɛ	-2658
▁ewuraba	-2659
▁hundred	-2660
▁maadwoa	-2661
▁mensuro	-2662
▁nawotwe	-2663
▁nkwasea	-2664
▁nyinaaa	-2665
▁sponsor	-2666
▁wobɛgye	-2667
▁wɔghana	-2668
▁ɛdeɛbɛn	-2669
abrokyire	-2670
▁ahomakye	-2671
▁dressing	-2672
▁grandmum	-2673
▁ketekete	-2674
▁korakora	-2675
▁nkyerɛmu	-2676
▁sintidua	-2677
▁ɔbedepɔn	-2678
▁mpanimfoɔ	-2679
▁nsiakyire	-2680
▁nyankopon	-2681
▁okristoni	-2682
▁pensioner	-2683
▁ayaresabea	-2684
ap	-2685
pu	-2686
rt	-2687
abe	-2688
apɛ	-2689
ati	-2690
boo	-2691
esu	-2692
fam	-2693
gua	-2694
ken	-2695
ses	-2696
tle	-2697
wee	-2698
won	-2699
www	-2700
yɛn	-2701
▁od	-2702
▁ɔp	-2703
bena	-2704
enti	-2705
hwee	-2706
iwaa	-2707
korɛ	-2708
rekɔ	-2709
ruwa	-2710
sane	-2711
sena	-2712
wase	-2713
yini	-2714
▁ago	-2715
▁ape	-2716
▁ati	-2717
▁bea	-2718
▁ben	-2719
▁dum	-2720
▁dɛm	-2721
▁haa	-2722
▁kab	-2723
▁kuu	-2724
▁non	-2725
▁nwa	-2726
▁nye	-2727
▁ohu	-2728
▁pan	-2729
▁ɛyi	-2730
afere	-2731
akasa	-2732
aware	-2733
koara	-2734
tɔkwa	-2735
▁afia	-2736
▁ahia	-2737
▁ansi	-2738
▁anto	-2739
▁area	-2740
▁atum	-2741
▁bɛdi	-2742
▁deɛɛ	-2743
▁duro	-2744
▁emom	-2745
▁enyɛ	-2746
▁kane	-2747
▁kwae	-2748
▁kyem	-2749
▁many	-2750
▁mmmm	-2751
▁mɛbɔ	-2752
▁mɛfa	-2753
▁nani	-2754
▁neno	-2755
▁nkrɔ	-2756
▁ntaa	-2757
▁ntwa	-2758
▁nyim	-2759
▁obuo	-2760
▁onya	-2761
▁otwa	-2762
▁wobu	-2763
▁woda	-2764
▁wofɛ	-2765
▁wont	-2766
▁wɔmo	-2767
▁yɛda	-2768
▁yɛka	-2769
▁ɛnno	-2770
▁abɛka	-2771
▁adɔyɛ	-2772
▁afira	-2773
▁akuku	-2774
▁anhwɛ	-2775
▁asesa	-2776
▁bɔfoɔ	-2777
▁fieha	-2778
▁kumaa	-2779
▁kɔkɔɔ	-2780
▁mehyɛ	-2781
▁menti	-2782
▁musuo	-2783
▁nakyi	-2784
▁nante	-2785
▁nkɔso	-2786
▁somaa	-2787
▁wagya	-2788
▁wonan	-2789
▁wonka	-2790
▁wotee	-2791
▁wotwe	-2792
▁yadeɛ	-2793
▁yɛnso	-2794
▁ɛfuom	-2795
▁ɛnoaa	-2796
▁ɛyɛme	-2797
awurade	-2798
▁abɔsoɔ	-2799
▁abɔten	-2800
▁adwane	-2801
▁amanfo	-2802
▁apagya	-2803
▁atwene	-2804
▁brɔdeɛ	-2805
▁denden	-2806
▁esansɛ	-2807
▁mebɔne	-2808
▁mennya	-2809
▁mepawo	-2810
▁mepɛsɛ	-2811
▁mewura	-2812
▁miensa	-2813
▁mɛtumi	-2814
▁neyere	-2815
▁nkonwa	-2816
▁nsɔhwɛ	-2817
▁siesie	-2818
▁weideɛ	-2819
▁ɔhemaa	-2820
▁ɛbɛyaa	-2821
wanwasɛm	-2822
▁abeduru	-2823
▁ahomete	-2824
▁animgua	-2825
▁mekyerɛ	-2826
▁menhunu	-2827
▁nkwasia	-2828
▁wogyina	-2829
▁abrantie	-2830
▁kyekyere	-2831
▁menkyerɛ	-2832
▁dwamanfoɔ	-2833
▁kyerɛwsɛm	-2834
▁ntoboaseɛ	-2835
▁wonbuadeɛ	-2836
▁nkwasiasɛm	-2837
lf	-2838
lɛ	-2839
uu	-2840
yy	-2841
age	-2842
agu	-2843
ant	-2844
art	-2845
ast	-2846
bon	-2847
boy	-2848
but	-2849
doɔ	-2850
egu	-2851
eli	-2852
fei	-2853
get	-2854
ham	-2855
hen	-2856
imu	-2857
krɔ	-2858
lim	-2859
lub	-2860
mom	-2861
ona	-2862
ook	-2863
ool	-2864
pae	-2865
rim	-2866
see	-2867
ssa	-2868
ste	-2869
tea	-2870
toa	-2871
wrɛ	-2872
wuo	-2873
yea	-2874
ɛka	-2875
▁et	-2876
▁fɔ	-2877
▁gy	-2878
▁sh	-2879
adɛn	-2880
ague	-2881
asɛe	-2882
atwe	-2883
band	-2884
dome	-2885
eeii	-2886
esse	-2887
esus	-2888
eɛne	-2889
fini	-2890
frɛɛ	-2891
guso	-2892
koma	-2893
kosɛ	-2894
kuta	-2895
mall	-2896
mily	-2897
neyɛ	-2898
ntum	-2899
onko	-2900
onna	-2901
pany	-2902
peat	-2903
rael	-2904
rana	-2905
rrrr	-2906
sani	-2907
sapp	-2908
ship	-2909
teen	-2910
tely	-2911
tors	-2912
tory	-2913
ttle	-2914
umaa	-2915
unds	-2916
wire	-2917
worɔ	-2918
woso	-2919
yale	-2920
ɛɛlɛ	-2921
▁ado	-2922
▁aun	-2923
▁aya	-2924
▁aɛn	-2925
▁bla	-2926
▁efa	-2927
▁ena	-2928
▁erh	-2929
▁err	-2930
▁esu	-2931
▁ewɔ	-2932
▁has	-2933
▁hus	-2934
▁lot	-2935
▁meh	-2936
▁mfe	-2937
▁mme	-2938
▁ngo	-2939
▁ngu	-2940
▁off	-2941
▁pap	-2942
▁pet	-2943
▁pla	-2944
▁poo	-2945
▁soo	-2946
▁soɔ	-2947
▁spe	-2948
▁sɛɔ	-2949
▁tam	-2950
▁toe	-2951
▁tou	-2952
▁toɔ	-2953
▁try	-2954
▁wat	-2955
▁yam	-2956
▁yew	-2957
▁yim	-2958
▁yɔn	-2959
▁ɔko	-2960
▁ɛme	-2961
▁ɛpo	-2962
abati	-2963
adeɛn	-2964
apamo	-2965
asene	-2966
etumi	-2967
faase	-2968
gnant	-2969
haley	-2970
hange	-2971
heart	-2972
maneɛ	-2973
mesrɛ	-2974
mofoɔ	-2975
phone	-2976
rital	-2977
sɛnea	-2978
tions	-2979
uafoɔ	-2980
wodeɛ	-2981
▁abrɔ	-2982
▁aduo	-2983
▁alha	-2984
▁ammɛ	-2985
▁andi	-2986
▁anha	-2987
▁ania	-2988
▁apue	-2989
▁asie	-2990
▁atie	-2991
▁atua	-2992
▁away	-2993
▁awuo	-2994
▁aɔmo	-2995
▁aɛbɛ	-2996
▁aɛwɔ	-2997
▁bebe	-2998
▁beer	-2999
▁buew	-3000
▁busa	-3001
▁bɛda	-3002
▁bɛsi	-3003
▁bɛso	-3004
▁bɛtɔ	-3005
▁days	-3006
▁debɛ	-3007
▁didn	-3008
▁dire	-3009
▁dɔno	-3010
▁ekru	-3011
▁enkɔ	-3012
▁ente	-3013
▁fano	-3014
▁fosu	-3015
▁free	-3016
▁ghan	-3017
▁gyim	-3018
▁head	-3019
▁hold	-3020
▁home	-3021
▁husɛ	-3022
▁hwɛɛ	-3023
▁kaeɛ	-3024
▁kita	-3025
▁kosi	-3026
▁kosɛ	-3027
▁lala	-3028
▁look	-3029
▁mabu	-3030
▁maga	-3031
▁mahu	-3032
▁mase	-3033
▁mean	-3034
▁mind	-3035
▁mokɔ	-3036
▁mpre	-3037
▁mpue	-3038
▁nakɔ	-3039
▁nase	-3040
▁nboa	-3041
▁nent	-3042
▁nfaa	-3043
▁nifa	-3044
▁nosɛ	-3045
▁ntam	-3046
▁offi	-3047
▁osei	-3048
▁piii	-3049
▁pris	-3050
▁reto	-3051
▁said	-3052
▁sena	-3053
▁sene	-3054
▁shes	-3055
▁show	-3056
▁slim	-3057
▁supp	-3058
▁sɛyɛ	-3059
▁tare	-3060
▁tuwo	-3061
▁wake	-3062
▁wato	-3063
▁wayɛ	-3064
▁weni	-3065
▁woak	-3066
▁wofo	-3067
▁womu	-3068
▁yani	-3069
▁yede	-3070
▁yefu	-3071
▁yimu	-3072
▁yɛeɛ	-3073
▁yɛwo	-3074
▁ɔboa	-3075
▁ɔkaa	-3076
▁ɔnbɛ	-3077
▁ɔnwu	-3078
▁ɛbɔɔ	-3079
▁ɛfri	-3080
▁ɛhye	-3081
▁ɛhɔa	-3082
▁ɛkaa	-3083
▁ɛkam	-3084
▁ɛkyɛ	-3085
▁ɛnde	-3086
aduane	-3087
anaasɛ	-3088
damfoɔ	-3089
frakyɛ	-3090
kwasea	-3091
ompany	-3092
ronfoɔ	-3093
▁about	-3094
▁abɛbɔ	-3095
▁adeɛa	-3096
▁adeɛn	-3097
▁agyae	-3098
▁ahana	-3099
▁asofo	-3100
▁awieɛ	-3101
▁biaaa	-3102
▁bills	-3103
▁break	-3104
▁brɔfo	-3105
▁bɔhyɛ	-3106
▁bɛgye	-3107
▁bɛɛma	-3108
▁diffi	-3109
▁doing	-3110
▁dɛnna	-3111
▁euros	-3112
▁fasoɔ	-3113
▁fault	-3114
▁fifty	-3115
▁firii	-3116
▁gonna	-3117
▁gramo	-3118
▁gyidi	-3119
▁hohoɔ	-3120
▁honey	-3121
▁issue	-3122
▁kaawo	-3123
▁mabrɛ	-3124
▁mekɔɔ	-3125
▁memmɛ	-3126
▁mendi	-3127
▁menin	-3128
▁mesre	-3129
▁metwa	-3130
▁nagya	-3131
▁nanim	-3132
▁natem	-3133
▁nduru	-3134
▁nebag	-3135
▁nisuo	-3136
▁nkola	-3137
▁nnyɛɛ	-3138
▁nsesa	-3139
▁pusuu	-3140
▁rekan	-3141
▁retie	-3142
▁retwa	-3143
▁situa	-3144
▁small	-3145
▁story	-3146
▁sumie	-3147
▁sɛsɛn	-3148
▁tetee	-3149
▁wanwu	-3150
▁wanyi	-3151
▁wawie	-3152
▁wohia	-3153
▁wohyɛ	-3154
▁wompɛ	-3155
▁wonti	-3156
▁worry	-3157
▁yenso	-3158
▁yɛden	-3159
▁yɛnyɛ	-3160
▁ɔbɛka	-3161
▁ɔgyɔn	-3162
▁ɔpapa	-3163
▁ɔsɔre	-3164
▁ɛduru	-3165
▁ɛmawo	-3166
sappoin	-3167
▁abotre	-3168
▁abrɛwo	-3169
▁adanko	-3170
▁adapaa	-3171
▁afotuo	-3172
▁agyimi	-3173
▁ahaban	-3174
▁akuraa	-3175
▁akwara	-3176
▁anibre	-3177
▁asɛmbi	-3178
▁ataade	-3179
▁bermah	-3180
▁brodeɛ	-3181
▁bɛkasa	-3182
▁bɛsene	-3183
▁bɛtena	-3184
▁defini	-3185
▁dɔkono	-3186
▁emoohm	-3187
▁entiwo	-3188
▁family	-3189
▁friend	-3190
▁handle	-3191
▁kenten	-3192
▁koonti	-3193
▁kraman	-3194
▁kurase	-3195
▁kwasea	-3196
▁league	-3197
▁maadwo	-3198
▁medase	-3199
▁meduru	-3200
▁mempie	-3201
▁menfre	-3202
▁menkae	-3203
▁mensɛm	-3204
▁mesɔre	-3205
▁naemom	-3206
▁nkoaaa	-3207
▁nsakra	-3208
▁nsekuo	-3209
▁option	-3210
▁really	-3211
▁repeat	-3212
▁rounds	-3213
▁should	-3214
▁sprite	-3215
▁tantan	-3216
▁things	-3217
▁tuntum	-3218
▁wanhwɛ	-3219
▁wasɔre	-3220
▁watumi	-3221
▁wayere	-3222
▁wontie	-3223
▁wopɛsɛ	-3224
▁yɛbisa	-3225
▁ɔmaame	-3226
▁ɔpagya	-3227
▁ɔteiti	-3228
▁ɔtɛɛlɛ	-3229
▁ɛkyire	-3230
▁ɛmmema	-3231
▁ɛmmerɛ	-3232
▁ɛmoohm	-3233
▁ɛnfiri	-3234
▁ɛwɔsɛɛ	-3235
ahwiensa	-3236
▁ahonhom	-3237
▁ahyɛnso	-3238
▁asukɔno	-3239
▁babiara	-3240
▁bayefoɔ	-3241
▁drinkno	-3242
▁fɛfɛɛfɛ	-3243
▁husband	-3244
▁kotodwe	-3245
▁kyeiwaa	-3246
▁marital	-3247
▁nhyiamu	-3248
▁nkrɔfoɔ	-3249
▁nnimdeɛ	-3250
▁nsɔadeɛ	-3251
▁payinmu	-3252
▁strange	-3253
▁through	-3254
▁wɔkurom	-3255
▁yaaagya	-3256
▁ɛyɛasɛm	-3257
adaworoma	-3258
▁akwahyia	-3259
▁awuraden	-3260
▁baabiara	-3261
▁birthday	-3262
▁drinkbɛn	-3263
▁gyaegyae	-3264
▁kosɛkosɛ	-3265
▁kristoni	-3266
▁mapakyew	-3267
▁medawase	-3268
▁naawɔtwe	-3269
▁pregnant	-3270
▁regyegye	-3271
▁wonkoara	-3272
▁yɛnyinaa	-3273
▁animonyam	-3274
▁disappoin	-3275
▁menkrofoɔ	-3276
▁nyameadom	-3277
▁situation	-3278
▁sɔfomaame	-3279
▁sɛbibiara	-3280
▁woakwaaba	-3281
▁akwadaawei	-3282
▁ayɔnkogorɔ	-3283
▁definitely	-3284
▁mapawokyew	-3285
▁onyankopɔn	-3286
▁sweetheart	-3287
nkakrankakra	-3288
rs	-3289
afo	-3290
asɔ	-3291
brɔ	-3292
bɔɔ	-3293
ete	-3294
fuɔ	-3295
hew	-3296
mmi	-3297
mrɛ	-3298
omi	-3299
ret	-3300
tɔn	-3301
woo	-3302
wɔn	-3303
ɔbɛ	-3304
ɛfo	-3305
▁ob	-3306
abaa	-3307
ahye	-3308
akra	-3309
asua	-3310
bedi	-3311
bɛto	-3312
haha	-3313
koro	-3314
lass	-3315
mpae	-3316
mpɔn	-3317
nkɛn	-3318
pepa	-3319
reka	-3320
rong	-3321
sore	-3322
tura	-3323
ɛnkɔ	-3324
▁api	-3325
▁apɔ	-3326
▁beg	-3327
▁bem	-3328
▁dɔm	-3329
▁enn	-3330
▁ewu	-3331
▁hwi	-3332
▁kim	-3333
▁nii	-3334
▁oso	-3335
▁oye	-3336
▁pem	-3337
▁pɔn	-3338
▁seɛ	-3339
▁wha	-3340
▁wrɛ	-3341
▁ɔpa	-3342
▁ɛfɛ	-3343
abɛfa	-3344
fitaa	-3345
kwasi	-3346
kɛseɛ	-3347
lomon	-3348
mpaso	-3349
sefoɔ	-3350
sofoɔ	-3351
tiriw	-3352
▁abue	-3353
▁ahna	-3354
▁akɔm	-3355
▁akɔn	-3356
▁apem	-3357
▁asua	-3358
▁behu	-3359
▁boro	-3360
▁bɔmɔ	-3361
▁bɔtɔ	-3362
▁bɛhu	-3363
▁daye	-3364
▁dene	-3365
▁edum	-3366
▁huhu	-3367
▁mada	-3368
▁mane	-3369
▁mebo	-3370
▁mebu	-3371
▁mesa	-3372
▁modi	-3373
▁moka	-3374
▁mpoa	-3375
▁mɛpɛ	-3376
▁nesɛ	-3377
▁nfii	-3378
▁nnaa	-3379
▁nsie	-3380
▁nyae	-3381
▁ogya	-3382
▁pata	-3383
▁pawo	-3384
▁pina	-3385
▁pres	-3386
▁serɛ	-3387
▁sima	-3388
▁sini	-3389
▁sono	-3390
▁tetɛ	-3391
▁wɔwɔ	-3392
▁ɔhaw	-3393
▁ɔman	-3394
▁ɔmon	-3395
▁ɔteɛ	-3396
▁ɛbrɛ	-3397
▁ɛkɔɔ	-3398
▁ɛmaa	-3399
▁ɛmmɛ	-3400
▁ɛnsɔ	-3401
▁ɛtoɔ	-3402
akyerɛ	-3403
amaneɛ	-3404
anigye	-3405
asɛdeɛ	-3406
gyimii	-3407
mmienu	-3408
tirimu	-3409
twitwa	-3410
▁adeko	-3411
▁afono	-3412
▁ahunu	-3413
▁akata	-3414
▁akɔdi	-3415
▁amane	-3416
▁amono	-3417
▁anyaa	-3418
▁aunte	-3419
▁awerɛ	-3420
▁brabɔ	-3421
▁brɛme	-3422
▁bɛhwɛ	-3423
▁bɛnya	-3424
▁bɛsen	-3425
▁dabia	-3426
▁ebiaa	-3427
▁edeɛn	-3428
▁ekita	-3429
▁ekuro	-3430
▁hyira	-3431
▁kabum	-3432
▁kɔpem	-3433
▁madeɛ	-3434
▁mamba	-3435
▁mamen	-3436
▁mankɔ	-3437
▁manyɛ	-3438
▁medin	-3439
▁megya	-3440
▁mehuu	-3441
▁mento	-3442
▁menwu	-3443
▁mepaw	-3444
▁meyɛɛ	-3445
▁mmɔbɔ	-3446
▁moahu	-3447
▁moani	-3448
▁monkɔ	-3449
▁monte	-3450
▁nhunu	-3451
▁nnipa	-3452
▁ntiwo	-3453
▁ntorɔ	-3454
▁nwene	-3455
▁nwuma	-3456
▁okunu	-3457
▁papaa	-3458
▁saman	-3459
▁takyi	-3460
▁woboa	-3461
▁wodea	-3462
▁wofrɛ	-3463
▁wohuu	-3464
▁wokyɛ	-3465
▁wonsi	-3466
▁yɛbaa	-3467
▁yɛnho	-3468
▁yɛɛyɛ	-3469
▁ɔkwan	-3470
▁ɔnyim	-3471
▁ɔpepe	-3472
▁ɛmmaa	-3473
▁ɛnhyɛ	-3474
▁ɛnora	-3475
▁ɛtete	-3476
▁ɛwɔhɔ	-3477
adamfoɔ	-3478
▁abɛɛfo	-3479
▁aduasa	-3480
▁adwere	-3481
▁ahinta	-3482
▁akyere	-3483
▁ansana	-3484
▁awuraa	-3485
▁dwodwo	-3486
▁firime	-3487
▁foforo	-3488
▁fomsoɔ	-3489
▁kaekae	-3490
▁kuromu	-3491
▁maadeɛ	-3492
▁mebɛdi	-3493
▁mekasa	-3494
▁menhuu	-3495
▁menyae	-3496
▁metwɛn	-3497
▁nanteɛ	-3498
▁nfasoɔ	-3499
▁nhyɛda	-3500
▁nimdeɛ	-3501
▁nkyere	-3502
▁nokorɛ	-3503
▁nwanwa	-3504
▁taataa	-3505
▁teetee	-3506
▁tenten	-3507
▁twitwi	-3508
▁waduru	-3509
▁wobisa	-3510
▁wobɛyɛ	-3511
▁ɔbaayi	-3512
▁ɛnonso	-3513
▁ɛnyɛsɛ	-3514
apampaso	-3515
paninfoɔ	-3516
▁adanseɛ	-3517
▁ahyehyɛ	-3518
▁akyerɛw	-3519
▁atutura	-3520
▁beberee	-3521
▁kwabena	-3522
▁megyedi	-3523
▁memaame	-3524
▁mengyae	-3525
▁mmiɛnsa	-3526
▁mɛkyerɛ	-3527
▁prɛkopɛ	-3528
▁solomon	-3529
▁ɔbaatan	-3530
▁ɔbɛsesa	-3531
▁ɔkomfoɔ	-3532
▁asomdwoe	-3533
▁basabasa	-3534
▁bebrebee	-3535
▁hwanhwan	-3536
▁nkotodwe	-3537
▁tenetene	-3538
▁akukuduro	-3539
▁animguaseɛ	-3540
▁anwanwasɛm	-3541
▁daabidaabi	-3542
▁mepawokyɛw	-3543
?,	-3544
bl	-3545
hw	-3546
lp	-3547
oi	-3548
os	-3549
ot	-3550
rk	-3551
ts	-3552
wg	-3553
▁'	-3554
aaa	-3555
ago	-3556
aho	-3557
anu	-3558
awe	-3559
beb	-3560
bom	-3561
ddy	-3562
ded	-3563
dii	-3564
dit	-3565
eeɛ	-3566
ehi	-3567
ess	-3568
fla	-3569
fou	-3570
fti	-3571
fɔm	-3572
gin	-3573
gro	-3574
hap	-3575
har	-3576
hon	-3577
hoo	-3578
hyi	-3579
iga	-3580
ino	-3581
ith	-3582
koo	-3583
led	-3584
let	-3585
lot	-3586
lts	-3587
lum	-3588
mfo	-3589
mie	-3590
moa	-3591
mpo	-3592
nto	-3593
ond	-3594
ons	-3595
onu	-3596
ooo	-3597
pid	-3598
por	-3599
ake	-3600
ard	-3601
foo	-3602
hua	-3603
rae	-3604
rbi	-3605
rue	-3606
sho	-3607
sis	-3608
soa	-3609
spe	-3610
sra	-3611
sɔɔ	-3612
tba	-3613
tra	-3614
uda	-3615
umu	-3616
uth	-3617
uti	-3618
wam	-3619
woɔ	-3620
yan	-3621
yer	-3622
yoo	-3623
yɛɛ	-3624
ɔfɛ	-3625
ɔne	-3626
ɔre	-3627
ɛde	-3628
ɛfa	-3629
▁ly	-3630
▁ng	-3631
▁tɛ	-3632
▁ɛd	-3633
aame	-3634
adaa	-3635
adwa	-3636
afom	-3637
ahan	-3638
akum	-3639
akyɛ	-3640
amen	-3641
anwo	-3642
apue	-3643
ason	-3644
asɔn	-3645
atae	-3646
aten	-3647
ater	-3648
atra	-3649
biti	-3650
book	-3651
bɛfa	-3652
deam	-3653
dini	-3654
dwoɔ	-3655
easy	-3656
eiii	-3657
erse	-3658
feed	-3659
fono	-3660
gail	-3661
hiaa	-3662
hill	-3663
hout	-3664
kani	-3665
kano	-3666
kere	-3667
mase	-3668
mekɔ	-3669
more	-3670
mɔna	-3671
nadu	-3672
nkum	-3673
nkyi	-3674
noon	-3675
nyin	-3676
onal	-3677
ondi	-3678
onfi	-3679
onku	-3680
onne	-3681
oodi	-3682
pere	-3683
pɛsɛ	-3684
ratu	-3685
ream	-3686
rial	-3687
ries	-3688
rown	-3689
sein	-3690
self	-3691
sika	-3692
sisi	-3693
soso	-3694
supp	-3695
sɛwo	-3696
tete	-3697
tuom	-3698
tyle	-3699
ept	-3700
ffe	-3701
hɔɔ	-3702
rɔw	-3703
sum	-3704
life	-3705
okay	-3706
taan	-3707
tter	-3708
twem	-3709
uayɛ	-3710
uble	-3711
wahu	-3712
wewe	-3713
yeyɛ	-3714
ɛneɛ	-3715
▁...	-3716
▁age	-3717
▁aky	-3718
▁ala	-3719
▁ank	-3720
▁bae	-3721
▁bed	-3722
▁big	-3723
▁blo	-3724
▁bor	-3725
▁dee	-3726
▁dem	-3727
▁duu	-3728
▁erm	-3729
▁fed	-3730
▁fen	-3731
▁fif	-3732
▁fon	-3733
▁gyɛ	-3734
▁ham	-3735
▁hoa	-3736
▁hoo	-3737
▁hot	-3738
▁kai	-3739
▁kin	-3740
▁kit	-3741
▁kur	-3742
▁kyi	-3743
▁law	-3744
▁lie	-3745
▁mek	-3746
▁mfi	-3747
▁mid	-3748
▁muk	-3749
▁mɛt	-3750
▁naɛ	-3751
▁nde	-3752
▁ner	-3753
▁noɔ	-3754
▁nwɔ	-3755
▁omo	-3756
▁ono	-3757
▁own	-3758
▁pas	-3759
▁pon	-3760
▁ser	-3761
▁sir	-3762
▁tra	-3763
▁tri	-3764
▁tro	-3765
▁wad	-3766
▁whe	-3767
▁wit	-3768
▁woy	-3769
▁wuu	-3770
▁wɔa	-3771
▁yee	-3772
▁yeg	-3773
▁ɔfɛ	-3774
▁ɔpi	-3775
▁ɔwe	-3776
▁ɔwu	-3777
▁ɛdɔ	-3778
▁ɛdɛ	-3779
▁ɛni	-3780
aapae	-3781
abamu	-3782
abobɔ	-3783
abubu	-3784
abɛdu	-3785
afiri	-3786
akwan	-3787
akyea	-3788
amale	-3789
anfri	-3790
anoyi	-3791
asuro	-3792
asɛma	-3793
ayɛno	-3794
benya	-3795
broni	-3796
dasoɔ	-3797
duako	-3798
dwesɛ	-3799
ebook	-3800
ement	-3801
entle	-3802
fasoɔ	-3803
frisɛ	-3804
gware	-3805
gyere	-3806
hatte	-3807
hodie	-3808
honam	-3809
huuhu	-3810
hyehɛ	-3811
hyɛmu	-3812
imfoɔ	-3813
inger	-3814
irgin	-3815
kaben	-3816
kafoɔ	-3817
kwala	-3818
massa	-3819
mmerɛ	-3820
mpong	-3821
mpson	-3822
nanso	-3823
olish	-3824
onipa	-3825
oowww	-3826
oshua	-3827
ourse	-3828
panin	-3829
pause	-3830
prede	-3831
redit	-3832
rette	-3833
rimaa	-3834
shing	-3835
sifoɔ	-3836
srɛwo	-3837
tball	-3838
ttime	-3839
tures	-3840
tween	-3841
wadeɛ	-3842
where	-3843
wieyɛ	-3844
yadeɛ	-3845
ɛnnyɛ	-3846
▁aahh	-3847
▁abia	-3848
▁afim	-3849
▁agua	-3850
▁ahya	-3851
▁akam	-3852
▁anni	-3853
▁anso	-3854
▁apaw	-3855
▁asaa	-3856
▁asei	-3857
▁atra	-3858
▁awoa	-3859
▁aɛyɛ	-3860
▁bana	-3861
▁bano	-3862
▁beat	-3863
▁belt	-3864
▁best	-3865
▁biar	-3866
▁bina	-3867
▁bobɔ	-3868
▁borɔ	-3869
▁brɛɛ	-3870
▁bɛbi	-3871
▁bɛbɔ	-3872
▁bɛdɔ	-3873
▁bɛma	-3874
▁bɛte	-3875
▁dawg	-3876
▁dear	-3877
▁deli	-3878
▁dema	-3879
▁does	-3880
▁doso	-3881
▁dres	-3882
▁duku	-3883
▁dwam	-3884
▁dɔfo	-3885
▁edin	-3886
▁ehen	-3887
▁ehia	-3888
▁enam	-3889
▁enim	-3890
▁enoa	-3891
▁esan	-3892
▁esua	-3893
▁etuo	-3894
▁fawo	-3895
▁feel	-3896
▁fiti	-3897
▁guso	-3898
▁hana	-3899
▁hano	-3900
▁hear	-3901
▁hell	-3902
▁holy	-3903
▁horo	-3904
▁hyeɛ	-3905
▁idea	-3906
▁kaho	-3907
▁koko	-3908
▁koro	-3909
▁kraa	-3910
▁kraw	-3911
▁kyew	-3912
▁kɔsi	-3913
▁kɔso	-3914
▁kɔɔɔ	-3915
▁long	-3916
▁mabe	-3917
▁mabɔ	-3918
▁mafe	-3919
▁mako	-3920
▁malt	-3921
▁manu	-3922
▁mark	-3923
▁mawu	-3924
▁mefi	-3925
▁menu	-3926
▁meti	-3927
▁mieɛ	-3928
▁mmam	-3929
▁mofa	-3930
▁moma	-3931
▁mowɔ	-3932
▁mprɔ	-3933
▁mumu	-3934
▁muna	-3935
▁mɛhu	-3936
▁naba	-3937
▁nasi	-3938
▁nawu	-3939
▁nehɔ	-3940
▁neye	-3941
▁nfom	-3942
▁nhyɛ	-3943
▁niye	-3944
▁nkye	-3945
▁nkɔm	-3946
▁nnan	-3947
▁nnyi	-3948
▁nobi	-3949
▁nomu	-3950
▁nsen	-3951
▁nsɛn	-3952
▁ntua	-3953
▁nurs	-3954
▁nwie	-3955
▁nwre	-3956
▁nwum	-3957
▁nyɛɛ	-3958
▁only	-3959
▁oome	-3960
▁ooww	-3961
▁osua	-3962
▁otwe	-3963
▁oyii	-3964
▁pepa	-3965
▁plot	-3966
▁regi	-3967
▁regu	-3968
▁reko	-3969
▁resɛ	-3970
▁rewa	-3971
▁rush	-3972
▁seyɛ	-3973
▁site	-3974
▁sona	-3975
▁sowo	-3976
▁stri	-3977
▁talk	-3978
▁teeɛ	-3979
▁true	-3980
▁twee	-3981
▁tɔnn	-3982
▁wano	-3983
▁wasi	-3984
▁watu	-3985
▁wehu	-3986
▁when	-3987
▁wohɔ	-3988
▁woma	-3989
▁work	-3990
▁woti	-3991
▁woto	-3992
▁woyi	-3993
▁wɔno	-3994
▁wɔse	-3995
▁yabɔ	-3996
▁yakɔ	-3997
▁yaye	-3998
▁yeee	-3999
▁yera	-4000
▁yetu	-4001
▁yɛbo	-4002
▁yɛne	-4003
▁yɛtu	-4004
▁ɔbon	-4005
▁ɔboo	-4006
▁ɔbra	-4007
▁ɔkɔa	-4008
▁ɔkɔɔ	-4009
▁ɔnam	-4010
▁ɔnhu	-4011
▁ɔnom	-4012
▁ɔnya	-4013
▁ɔtea	-4014
▁ɔɔfɛ	-4015
▁ɛboa	-4016
▁ɛboɔ	-4017
▁ɛbro	-4018
▁ɛgro	-4019
▁ɛhen	-4020
▁ɛhwɛ	-4021
▁ɛkye	-4022
▁ɛmba	-4023
▁ɛmom	-4024
▁ɛnaa	-4025
▁ɛndi	-4026
▁ɛntɔ	-4027
▁ɛnɛn	-4028
▁ɛtoa	-4029
▁ɛtwa	-4030
▁ɛyea	-4031
▁ɛyɛn	-4032
agyeyɛ	-4033
akodeɛ	-4034
andome	-4035
angyae	-4036
ansesa	-4037
anyini	-4038
apɛdeɛ	-4039
asefoɔ	-4040
asɔneɛ	-4041
atemaa	-4042
awodeɛ	-4043
ayɛade	-4044
bebree	-4045
enesis	-4046
fanfri	-4047
friend	-4048
hapter	-4049
harley	-4050
homaso	-4051
hyiraa	-4052
illage	-4053
kakraa	-4054
krakye	-4055
kuruwa	-4056
kyekye	-4057
kyekyɛ	-4058
mpadeɛ	-4059
nkyibɔ	-4060
nneɛma	-4061
obiara	-4062
ortion	-4063
penses	-4064
ratula	-4065
resane	-4066
siesie	-4067
utiful	-4068
▁aberɛ	-4069
▁abisa	-4070
▁abusu	-4071
▁abɔme	-4072
▁abɛti	-4073
▁adaka	-4074
▁adeɛw	-4075
▁afena	-4076
▁agyaw	-4077
▁ahayi	-4078
▁ahyɛn	-4079
▁akama	-4080
▁akyim	-4081
▁akɔka	-4082
▁akɔyɛ	-4083
▁ampaa	-4084
▁anipa	-4085
▁ankyɛ	-4086
▁arana	-4087
▁arawo	-4088
▁asɔwo	-4089
▁atare	-4090
▁atene	-4091
▁atopa	-4092
▁awahu	-4093
▁ayera	-4094
▁ayere	-4095
▁ayɛfɛ	-4096
▁aɛntɔ	-4097
▁baaeɛ	-4098
▁bebre	-4099
▁blood	-4100
▁boase	-4101
▁browo	-4102
▁bɛbia	-4103
▁bɛfaa	-4104
▁bɛhyɛ	-4105
▁bɛnna	-4106
▁bɛtoo	-4107
▁daddy	-4108
▁dadeɛ	-4109
▁deasi	-4110
▁deɛma	-4111
▁deɛwo	-4112
▁dibre	-4113
▁dompe	-4114
▁ebubu	-4115
▁eeiii	-4116
▁ehiaa	-4117
▁eight	-4118
▁ekruo	-4119
▁endeɛ	-4120
▁enkyɛ	-4121
▁entia	-4122
▁etimi	-4123
▁faith	-4124
▁fansa	-4125
▁fofrɔ	-4126
▁forty	-4127
▁frɛeɛ	-4128
▁fufou	-4129
▁gifty	-4130
▁goodi	-4131
▁gyata	-4132
▁gyedi	-4133
▁gyeeɛ	-4134
▁happy	-4135
▁hmmmm	-4136
▁hours	-4137
▁huieɛ	-4138
▁hwere	-4139
▁hwɛwo	-4140
▁hɔhoɔ	-4141
▁impro	-4142
▁kaasɛ	-4143
▁kaayy	-4144
▁katwi	-4145
▁knows	-4146
▁kosie	-4147
▁kruga	-4148
▁kyene	-4149
▁kɛtii	-4150
▁lybia	-4151
▁mahwɛ	-4152
▁manfa	-4153
▁manom	-4154
▁manya	-4155
▁masem	-4156
▁mayɛn	-4157
▁means	-4158
▁meara	-4159
▁mebio	-4160
▁mekae	-4161
▁menam	-4162
▁menom	-4163
▁mesee	-4164
▁metaa	-4165
▁metia	-4166
▁mewrɛ	-4167
▁mmano	-4168
▁mmisa	-4169
▁monso	-4170
▁moohm	-4171
▁motuo	-4172
▁mpaso	-4173
▁mufti	-4174
▁mɛsan	-4175
▁nadeɛ	-4176
▁nagye	-4177
▁naɔmo	-4178
▁naɔno	-4179
▁nente	-4180
▁neɛsɛ	-4181
▁nfofo	-4182
▁nhuwo	-4183
▁night	-4184
▁nimsɛ	-4185
▁nkɔsi	-4186
▁nnepa	-4187
▁nnyaa	-4188
▁nobra	-4189
▁nonso	-4190
▁noyie	-4191
▁npene	-4192
▁nsuro	-4193
▁ntino	-4194
▁ntwaa	-4195
▁nufoɔ	-4196
▁oboni	-4197
▁oguso	-4198
▁oprae	-4199
▁osɔfo	-4200
▁otimi	-4201
▁petee	-4202
▁petre	-4203
▁poole	-4204
▁promi	-4205
▁refrɛ	-4206
▁rekaa	-4207
▁renam	-4208
▁resua	-4209
▁reweɛ	-4210
▁rough	-4211
▁ruled	-4212
▁saano	-4213
▁shame	-4214
▁short	-4215
▁sisei	-4216
▁sodeɛ	-4217
▁sorry	-4218
▁start	-4219
▁style	-4220
▁suffe	-4221
▁sɔfoɔ	-4222
▁sɛsaa	-4223
▁teiti	-4224
▁tesɛn	-4225
▁throw	-4226
▁tipɛn	-4227
▁tired	-4228
▁toaso	-4229
▁today	-4230
▁twere	-4231
▁wadeɛ	-4232
▁wafri	-4233
▁wandi	-4234
▁wanhu	-4235
▁wanka	-4236
▁wante	-4237
▁waree	-4238
▁wawuo	-4239
▁weeks	-4240
▁weina	-4241
▁whate	-4242
▁whats	-4243
▁white	-4244
▁woaba	-4245
▁wodin	-4246
▁wokɔɔ	-4247
▁wonam	-4248
▁wonni	-4249
▁worse	-4250
▁wosaa	-4251
▁would	-4252
▁woyɛm	-4253
▁woyɛɛ	-4254
▁wɔnka	-4255
▁yenim	-4256
▁yonko	-4257
▁yɔnko	-4258
▁yɛgye	-4259
▁yɛnim	-4260
▁ɔbaye	-4261
▁ɔbɔdɔ	-4262
▁ɔdeno	-4263
▁ɔfrɛɛ	-4264
▁ɔndeɛ	-4265
▁ɔnhwɛ	-4266
▁ɔntie	-4267
▁ɔreba	-4268
▁ɔtehɔ	-4269
▁ɔtwee	-4270
▁ɛbɛkɔ	-4271
▁ɛbɛsi	-4272
▁ɛbɛsɔ	-4273
▁ɛbɛtɔ	-4274
▁ɛhefa	-4275
▁ɛkyɛn	-4276
▁ɛmerɛ	-4277
▁ɛmesɛ	-4278
▁ɛnera	-4279
▁ɛnfie	-4280
▁ɛnhwɛ	-4281
▁ɛnnye	-4282
▁ɛnoso	-4283
▁ɛntwa	-4284
▁ɛpono	-4285
▁ɛreyɛ	-4286
▁ɛsane	-4287
▁ɛtɔso	-4288
aapaemu	-4289
ahandan	-4290
ahyehyɛ	-4291
akomamu	-4292
anhyɛda	-4293
anneɛma	-4294
ataadeɛ	-4295
atɔabrɛ	-4296
duampɔn	-4297
kyereni	-4298
problem	-4299
striker	-4300
woakyew	-4301
▁abaawa	-4302
▁abahyɛ	-4303
▁adekye	-4304
▁adeɛma	-4305
▁aduonu	-4306
▁adwabɔ	-4307
▁agyame	-4308
▁ahenfo	-4309
▁ahodoɔ	-4310
▁ahyira	-4311
▁akatua	-4312
▁akoraa	-4313
▁akɔpem	-4314
▁amamrɛ	-4315
▁aniamo	-4316
▁asante	-4317
▁ateete	-4318
▁atufoɔ	-4319
▁atwamu	-4320
▁awreho	-4321
▁babies	-4322
▁bankum	-4323
▁better	-4324
▁bonyin	-4325
▁breast	-4326
▁bɔatra	-4327
▁bɛgyae	-4328
▁bɛsane	-4329
▁dakoro	-4330
▁ebewie	-4331
▁eduane	-4332
▁eerrnn	-4333
▁enfiri	-4334
▁enkasɛ	-4335
▁fenfam	-4336
▁finger	-4337
▁forget	-4338
▁gentle	-4339
▁gyeadi	-4340
▁gyedie	-4341
▁gyegye	-4342
▁gyinaa	-4343
▁hofiri	-4344
▁hyiaeɛ	-4345
▁hyiame	-4346
▁hyɛbrɛ	-4347
▁hyɛɛda	-4348
▁iphone	-4349
▁israel	-4350
▁kantii	-4351
▁kekere	-4352
▁konadu	-4353
▁krakye	-4354
▁kunkum	-4355
▁kurokɛ	-4356
▁kyensi	-4357
▁kɔhwie	-4358
▁mafuom	-4359
▁mathew	-4360
▁mebisa	-4361
▁melife	-4362
▁menfrɛ	-4363
▁mengye	-4364
▁menhyɛ	-4365
▁menkoa	-4366
▁mensam	-4367
▁mensre	-4368
▁mensuo	-4369
▁mentie	-4370
▁miamia	-4371
▁mmonaa	-4372
▁mmɔden	-4373
▁moanim	-4374
▁moankɔ	-4375
▁mpaboa	-4376
▁mpadeɛ	-4377
▁nanɛna	-4378
▁nensɛm	-4379
▁nnahɔɔ	-4380
▁nnyina	-4381
▁nsuwae	-4382
▁nwuram	-4383
▁nyamen	-4384
▁obiaaa	-4385
▁obroni	-4386
▁odware	-4387
▁onyina	-4388
▁ooowww	-4389
▁panpan	-4390
▁penten	-4391
▁reason	-4392
▁rebɛsi	-4393
▁redidi	-4394
▁reworɔ	-4395
▁saasaa	-4396
▁settle	-4397
▁sharon	-4398
▁soɛnyɛ	-4399
▁stupid	-4400
▁supply	-4401
▁sɛanka	-4402
▁tamale	-4403
▁thanks	-4404
▁trokaa	-4405
▁tɔadeɛ	-4406
▁wagyae	-4407
▁wahuri	-4408
▁wahyia	-4409
▁wakoma	-4410
▁watena	-4411
▁watimi	-4412
▁wobedi	-4413
▁wobɛfa	-4414
▁wokyew	-4415
▁wokyɛw	-4416
▁wokɔfa	-4417
▁wonyaa	-4418
▁woresu	-4419
▁wosɔre	-4420
▁yafunu	-4421
▁yawdie	-4422
▁yoowei	-4423
▁ɔbaano	-4424
▁ɔbaayɛ	-4425
▁ɔgyina	-4426
▁ɔrefrɛ	-4427
▁ɔtetwi	-4428
▁ɛkɔyie	-4429
▁ɛnaɛma	-4430
▁ɛndera	-4431
▁ɛnfata	-4432
▁ɛnhoma	-4433
▁ɛnkyɛɛ	-4434
▁ɛnnera	-4435
▁ɛntumi	-4436
▁ɛyaana	-4437
asanhwie	-4438
deampong	-4439
igarette	-4440
ondition	-4441
ountries	-4442
papapapa	-4443
yankopon	-4444
▁abaatan	-4445
▁abosome	-4446
▁adekode	-4447
▁adeɛwei	-4448
▁aduoson	-4449
▁afanfri	-4450
▁against	-4451
▁ahoɔyaa	-4452
▁akonkwa	-4453
▁akyɛdeɛ	-4454
▁akɔtena	-4455
▁alright	-4456
▁anamɔna	-4457
▁andwene	-4458
▁anuafoɔ	-4459
▁anwumrɛ	-4460
▁anyaado	-4461
▁anymore	-4462
▁asomdwe	-4463
▁ataadeɛ	-4464
▁awuraba	-4465
▁ayɛadom	-4466
▁barimaa	-4467
▁barimah	-4468
▁bedroom	-4469
▁beduako	-4470
▁between	-4471
▁biblese	-4472
▁biribia	-4473
▁borɔdeɛ	-4474
▁bɔnefoɔ	-4475
▁deɛgyae	-4476
▁dwatire	-4477
▁fifteen	-4478
▁foolish	-4479
▁gyimini	-4480
▁huhuuhu	-4481
▁hyiaobi	-4482
▁kakraka	-4483
▁koraame	-4484
▁koraana	-4485
▁koraasɛ	-4486
▁kronfoɔ	-4487
▁kyerɛme	-4488
▁kɔkurom	-4489
▁kɔɔdwoɔ	-4490
▁mabɔdam	-4491
▁manigye	-4492
▁mankasɛ	-4493
▁masrɛwo	-4494
▁metease	-4495
▁midwife	-4496
▁mpanyin	-4497
▁mukaase	-4498
▁mukoraa	-4499
▁mɛteiti	-4500
▁nabrabɔ	-4501
▁nankasa	-4502
▁nansein	-4503
▁nawodeɛ	-4504
▁nboadeɛ	-4505
▁nfitaan	-4506
▁nkyerɛw	-4507
▁nothing	-4508
▁ntaafoɔ	-4509
▁nteaseɛ	-4510
▁nursing	-4511
▁oooowww	-4512
▁rekyerɛ	-4513
▁sampson	-4514
▁sikasɛm	-4515
▁striker	-4516
▁telling	-4517
▁thought	-4518
▁wabɔdam	-4519
▁wagyimi	-4520
▁waniwuo	-4521
▁washing	-4522
▁wayadeɛ	-4523
▁without	-4524
▁wokaasɛ	-4525
▁wokyerɛ	-4526
▁worship	-4527
▁wɔfaase	-4528
▁yefunum	-4529
▁yentimi	-4530
▁yoosɔfo	-4531
▁yɛntumi	-4532
▁ɔbonsam	-4533
▁ɔbɛtumi	-4534
▁ɔnkyerɛ	-4535
▁ɔrekeka	-4536
▁ɔtaataa	-4537
▁ɛfirisɛ	-4538
▁ɛndwene	-4539
dwamanfoɔ	-4540
kwasiasem	-4541
mpanimfoɔ	-4542
ongratula	-4543
▁abayifoɔ	-4544
▁adeɛkyen	-4545
▁adwoberɛ	-4546
▁afirifie	-4547
▁ahokyerɛ	-4548
▁anfanfri	-4549
▁barimabɛ	-4550
▁biribira	-4551
▁boatemaa	-4552
▁busuafoɔ	-4553
▁deɛkyerɛ	-4554
▁eeiisɔfo	-4555
▁goodidea	-4556
▁houseboy	-4557
▁hyehyɛhɔ	-4558
▁hyiahyia	-4559
▁kwasiada	-4560
▁naɔrehwe	-4561
▁nentwene	-4562
▁ntoboase	-4563
▁nursefoɔ	-4564
▁nyamesom	-4565
▁register	-4566
▁rekɔhwie	-4567
▁sɛbarima	-4568
▁sɛbisɛbi	-4569
▁tafrakyɛ	-4570
▁takyiwaa	-4571
▁teasefoɔ	-4572
▁wobetumi	-4573
▁yourself	-4574
▁yɛhyehyɛ	-4575
▁ɔbomofoɔ	-4576
▁ɔnbuadeɛ	-4577
▁ɛnyɛeasy	-4578
▁adansefoɔ	-4579
▁adeɛbaako	-4580
▁afternoon	-4581
▁ahoɔfɛfoɔ	-4582
▁anwummere	-4583
▁asukɔnoma	-4584
▁atenetene	-4585
▁beautiful	-4586
▁bibiaramɛ	-4587
▁dendenden	-4588
▁mabusuani	-4589
▁makɔkurom	-4590
▁menopause	-4591
▁metumiaka	-4592
▁mpaapaemu	-4593
▁rekakyerɛ	-4594
▁something	-4595
▁suffering	-4596
▁wobibiara	-4597
▁ɔbaabiara	-4598
▁ɔbaahemaa	-4599
▁ɔrehyiraa	-4600
▁animuonyam	-4601
▁atuturasɛm	-4602
▁dwenedwene	-4603
▁fasoɔbiara	-4604
▁gyimifoɔkɔ	-4605
▁kyerɛkyerɛ	-4606
▁nfaadamfoɔ	-4607
▁nkwasiasem	-4608
▁abrokyireha	-4609
▁adwoahomaso	-4610
▁disappointe	-4611
▁nyamenhyira	-4612
▁otweduampɔn	-4613
▁twedeampong	-4614
▁wonsaresane	-4615
▁baaabrokyire	-4616
▁kamakamakama	-4617
▁monkwasiasem	-4618
▁nfitaanfitaa	-4619
▁papapapapapa	-4620
ongratulations	-4621
▁gyimifoɔbarima	-4622
aw	-4623
ms	-4624
oe	-4625
aku	-4626
bae	-4627
eee	-4628
eyi	-4629
fem	-4630
haa	-4631
haw	-4632
her	-4633
idi	-4634
ise	-4635
kɔm	-4636
mam	-4637
mer	-4638
muɔ	-4639
nni	-4640
noa	-4641
nsa	-4642
nua	-4643
nye	-4644
poa	-4645
ram	-4646
til	-4647
tro	-4648
uri	-4649
whɛ	-4650
wor	-4651
ɔno	-4652
ɔte	-4653
▁ae	-4654
▁eg	-4655
▁ga	-4656
▁ɛɛ	-4657
aboa	-4658
abra	-4659
abrɔ	-4660
agyi	-4661
akae	-4662
akan	-4663
akoa	-4664
ammɛ	-4665
anan	-4666
anee	-4667
ania	-4668
anye	-4669
asoɔ	-4670
asum	-4671
atua	-4672
awia	-4673
ayie	-4674
bɛyɛ	-4675
dana	-4676
dowɔ	-4677
enim	-4678
enka	-4679
gyai	-4680
horo	-4681
ings	-4682
kata	-4683
kopɛ	-4684
koto	-4685
kumi	-4686
kwaa	-4687
kyɛm	-4688
ment	-4689
mman	-4690
mmen	-4691
nkye	-4692
ntia	-4693
nyam	-4694
omte	-4695
pano	-4696
posa	-4697
rika	-4698
riwa	-4699
rɛma	-4700
siaa	-4701
sima	-4702
simu	-4703
sini	-4704
stor	-4705
sɛmu	-4706
tere	-4707
tten	-4708
tumu	-4709
wers	-4710
yɔko	-4711
ɛmma	-4712
▁adɛ	-4713
▁afɔ	-4714
▁ahi	-4715
▁akɛ	-4716
▁anu	-4717
▁bii	-4718
▁drɔ	-4719
▁due	-4720
▁dun	-4721
▁dwɛ	-4722
▁eda	-4723
▁ehe	-4724
▁eti	-4725
▁eye	-4726
▁eyi	-4727
▁gyi	-4728
▁kon	-4729
▁krɔ	-4730
▁noi	-4731
▁nyɔ	-4732
▁nɔn	-4733
▁old	-4734
▁ote	-4735
▁otu	-4736
▁sim	-4737
▁tɛm	-4738
▁ɔto	-4739
▁ɔya	-4740
▁ɔyɔ	-4741
▁ɛfi	-4742
▁ɛsa	-4743
abisa	-4744
ahome	-4745
akyin	-4746
anfoɔ	-4747
asoma	-4748
asore	-4749
atete	-4750
atutu	-4751
atwɛn	-4752
daada	-4753
dwane	-4754
entan	-4755
gyire	-4756
hwere	-4757
masɛm	-4758
memma	-4759
payin	-4760
pesie	-4761
tirew	-4762
urity	-4763
yakya	-4764
yiamu	-4765
yɛfoɔ	-4766
ɛdeɛn	-4767
▁abɛn	-4768
▁agwa	-4769
▁akaa	-4770
▁ansu	-4771
▁ansɛ	-4772
▁anwu	-4773
▁anye	-4774
▁anyi	-4775
▁asɔm	-4776
▁asɛw	-4777
▁atia	-4778
▁atuu	-4779
▁atwi	-4780
▁awan	-4781
▁begu	-4782
▁bone	-4783
▁daso	-4784
▁dɔba	-4785
▁eneɛ	-4786
▁enie	-4787
▁ento	-4788
▁fakɔ	-4789
▁fata	-4790
▁fiaa	-4791
▁fira	-4792
▁fufu	-4793
▁hann	-4794
▁hyee	-4795
▁kawa	-4796
▁kohw	-4797
▁koma	-4798
▁koto	-4799
▁kwam	-4800
▁kɔma	-4801
▁kɔpɛ	-4802
▁mano	-4803
▁maso	-4804
▁mato	-4805
▁meku	-4806
▁memo	-4807
▁meto	-4808
▁meyi	-4809
▁mobe	-4810
▁moho	-4811
▁mona	-4812
▁mote	-4813
▁mɛye	-4814
▁nena	-4815
▁nene	-4816
▁nhwe	-4817
▁nkaa	-4818
▁nnɔn	-4819
▁nsam	-4820
▁nsii	-4821
▁nteɛ	-4822
▁ntrɔ	-4823
▁ntɔɔ	-4824
▁nufu	-4825
▁onua	-4826
▁onwu	-4827
▁otia	-4828
▁owuo	-4829
▁rehu	-4830
▁safo	-4831
▁sɛne	-4832
▁sɛsɛ	-4833
▁wiam	-4834
▁wobi	-4835
▁wɔda	-4836
▁wɔhu	-4837
▁wɔso	-4838
▁wɔte	-4839
▁yɛbe	-4840
▁yɛre	-4841
▁yɛso	-4842
▁ɔbrɛ	-4843
▁ɔfaa	-4844
▁ɔkwa	-4845
▁ɛbɔn	-4846
▁ɛkɔn	-4847
▁ɛnra	-4848
▁ɛnto	-4849
▁ɛsre	-4850
▁ɛtoo	-4851
adwane	-4852
akonwa	-4853
atamfo	-4854
boaboa	-4855
buebue	-4856
kansɛm	-4857
monyam	-4858
mpaebɔ	-4859
pɔnkye	-4860
ranteɛ	-4861
teetee	-4862
waadaa	-4863
woroma	-4864
▁abakɔ	-4865
▁abedi	-4866
▁abobɔ	-4867
▁abufu	-4868
▁abɔso	-4869
▁adeda	-4870
▁adowa	-4871
▁agyaa	-4872
▁ahoho	-4873
▁ahotɔ	-4874
▁akeka	-4875
▁akora	-4876
▁akyrɛ	-4877
▁akɔnɔ	-4878
▁akɔsi	-4879
▁akɔso	-4880
▁amawo	-4881
▁ammoa	-4882
▁ammrɛ	-4883
▁animo	-4884
▁antie	-4885
▁apamo	-4886
▁asaso	-4887
▁atete	-4888
▁bafan	-4889
▁bosaa	-4890
▁bɛmma	-4891
▁daada	-4892
▁didie	-4893
▁ebunu	-4894
▁entie	-4895
▁etwaa	-4896
▁faako	-4897
▁gware	-4898
▁korom	-4899
▁kwadu	-4900
▁kyina	-4901
▁kyiri	-4902
▁kɔgye	-4903
▁matɛm	-4904
▁meboɔ	-4905
▁mebue	-4906
▁mefri	-4907
▁mehia	-4908
▁mekaa	-4909
▁mekye	-4910
▁mekyɛ	-4911
▁membɛ	-4912
▁menna	-4913
▁mensi	-4914
▁mesua	-4915
▁metɔɔ	-4916
▁moaka	-4917
▁moakɔ	-4918
▁moayɛ	-4919
▁mokaa	-4920
▁monam	-4921
▁moses	-4922
▁motia	-4923
▁mɛhyɛ	-4924
▁mɛmma	-4925
▁mɛnyɛ	-4926
▁naomi	-4927
▁ndidi	-4928
▁nenti	-4929
▁nhoma	-4930
▁nkasɛ	-4931
▁nkwra	-4932
▁nsɔkɔ	-4933
▁ntete	-4934
▁ntoto	-4935
▁nwoma	-4936
▁nwunu	-4937
▁obebu	-4938
▁odwan	-4939
▁okita	-4940
▁order	-4941
▁osofo	-4942
▁paano	-4943
▁paebɔ	-4944
▁seneɛ	-4945
▁sesia	-4946
▁sofoɔ	-4947
▁tiawa	-4948
▁twamu	-4949
▁until	-4950
▁wareɛ	-4951
▁wobɛn	-4952
▁wofaa	-4953
▁wofie	-4954
▁wonne	-4955
▁worek	-4956
▁woteɛ	-4957
▁wotwa	-4958
▁wotwi	-4959
▁wotɔɔ	-4960
▁wrong	-4961
▁wɔmma	-4962
▁wɔnyɛ	-4963
▁yegyi	-4964
▁yenua	-4965
▁yieee	-4966
▁yiwan	-4967
▁yɛhyɛ	-4968
▁yɛnhu	-4969
▁yɛnko	-4970
▁yɛnoa	-4971
▁yɛntu	-4972
▁yɛnya	-4973
▁yɛɛbɛ	-4974
▁ɔbɛfa	-4975
▁ɔbɛyɛ	-4976
▁ɔhata	-4977
▁ɔkyɛn	-4978
▁ɔmmrɛ	-4979
▁ɔsore	-4980
▁ɔtete	-4981
▁ɔware	-4982
▁ɔyere	-4983
▁ɛbɛma	-4984
▁ɛkasa	-4985
▁ɛmmoa	-4986
▁ɛmmre	-4987
▁ɛnawo	-4988
▁ɛtumi	-4989
▁ɛware	-4990
asetena	-4991
dabiara	-4992
paakyɛw	-4993
wontumi	-4994
▁abatoɔ	-4995
▁abroso	-4996
▁abɛgye	-4997
▁abɛhyɛ	-4998
▁abɛpue	-4999
▁adikan	-5000
▁adware	-5001
▁adɔɔso	-5002
▁agyesɛ	-5003
▁ahwere	-5004
▁ahyɛda	-5005
▁akonya	-5006
▁akwada	-5007
▁amamen	-5008
▁asobra	-5009
▁ataare	-5010
▁baatan	-5011
▁boaboa	-5012
▁boafoɔ	-5013
▁boakye	-5014
▁dedede	-5015
▁fafiri	-5016
▁firihɔ	-5017
▁hwɛdeɛ	-5018
▁krɔkrɔ	-5019
▁kuruwa	-5020
▁kwamoa	-5021
▁kwanso	-5022
▁kɔfakɔ	-5023
▁maakye	-5024
▁mefiri	-5025
▁mehunu	-5026
▁mekura	-5027
▁mekɔfa	-5028
▁mensan	-5029
▁menyim	-5030
▁mereba	-5031
▁merekɔ	-5032
▁mesesa	-5033
▁mesrɛw	-5034
▁meɛnsa	-5035
▁mieɛsa	-5036
▁mifiri	-5037
▁mmuayɛ	-5038
▁mofiri	-5039
▁mommra	-5040
▁mosɔre	-5041
▁nkukuo	-5042
▁nsɛmpa	-5043
▁nwusie	-5044
▁pastor	-5045
▁poster	-5046
▁sikani	-5047
▁though	-5048
▁wobehu	-5049
▁wobɛba	-5050
▁wobɛda	-5051
▁wobɛhu	-5052
▁wogyae	-5053
▁wohunu	-5054
▁wokeka	-5055
▁wokwan	-5056
▁wonhwɛ	-5057
▁wonnya	-5058
▁wonnyɛ	-5059
▁wopamo	-5060
▁woreka	-5061
▁wotumu	-5062
▁ɔkaayɛ	-5063
▁ɔpanin	-5064
▁ɛdwene	-5065
▁ɛkɔpem	-5066
▁ɛnenam	-5067
akakyerɛ	-5068
kabensɛm	-5069
▁abonsam	-5070
▁abrokyi	-5071
▁adansie	-5072
▁ahwehwɛ	-5073
▁ahwɛyie	-5074
▁ahyaseɛ	-5075
▁akɔdane	-5076
▁akɔhyia	-5077
▁akɔkora	-5078
▁ampesie	-5079
▁asoneyɛ	-5080
▁asɔneyɛ	-5081
▁atwetwe	-5082
▁bonwire	-5083
▁bɔmɔden	-5084
▁bɛkyerɛ	-5085
▁dedaada	-5086
▁ebetumi	-5087
▁etwitwa	-5088
▁goliate	-5089
▁kagyerɛ	-5090
▁kuromma	-5091
▁makyerɛ	-5092
▁manenka	-5093
▁manibre	-5094
▁mempɛsɛ	-5095
▁menhyia	-5096
▁menimsɛ	-5097
▁mensono	-5098
▁menware	-5099
▁mmiensa	-5100
▁nakyerɛ	-5101
▁nenpena	-5102
▁nfomsoɔ	-5103
▁nneɛmma	-5104
▁ntentan	-5105
▁nwuramu	-5106
▁penaman	-5107
▁pinaman	-5108
▁prekopɛ	-5109
▁theresa	-5110
▁titiriw	-5111
▁wobɛnya	-5112
▁wodwene	-5113
▁wonkyɛn	-5114
▁yɛntena	-5115
▁ɔpepepe	-5116
▁ɛnyɛsaa	-5117
abusuafoɔ	-5118
▁akyerɛwo	-5119
▁anidasoɔ	-5120
▁atitirew	-5121
▁baakofoɔ	-5122
▁bɔdamfoɔ	-5123
▁bɛtenase	-5124
▁efiewura	-5125
▁moadwuma	-5126
▁nyankopɔ	-5127
▁woteaseɛ	-5128
animuonyam	-5129
▁abusuafoɔ	-5130
▁akasakasa	-5131
▁akatakata	-5132
▁akwanhyia	-5133
▁anigyesɛm	-5134
▁bebirebee	-5135
▁mekakyerɛ	-5136
▁mepaakyew	-5137
▁mepawkyɛw	-5138
▁ababaawayi	-5139
▁ahoɔdenfoɔ	-5140
▁kakrakakra	-5141
▁odwamanfoɔ	-5142
▁yɛkyekyere	-5143
▁keteketekete	-5144
▁nkakrankakra	-5145
ail	-5146
ils	-5147
lps	-5148
mpt	-5149
rms	-5150
try	-5151
ablo	-5152
afei	-5153
ahoɔ	-5154
anhɛ	-5155
atɔn	-5156
edis	-5157
ered	-5158
gets	-5159
girl	-5160
heap	-5161
hets	-5162
ided	-5163
kita	-5164
less	-5165
mper	-5166
mshi	-5167
ners	-5168
ness	-5169
oins	-5170
puie	-5171
raml	-5172
shop	-5173
spen	-5174
sɔɔɔ	-5175
tetɛ	-5176
tomi	-5177
tweɛ	-5178
wint	-5179
wuuu	-5180
ɔbrɔ	-5181
ɛren	-5182
ɛɛdɛ	-5183
▁imp	-5184
▁nɛa	-5185
▁nɛk	-5186
▁peo	-5187
▁ɔtɛ	-5188
abedi	-5189
abeti	-5190
adome	-5191
aking	-5192
akuma	-5193
anato	-5194
ateng	-5195
atian	-5196
atifi	-5197
atoto	-5198
birim	-5199
nnn	-5200
eegu	-5201
wonn	-5202
ɔson	-5203
andon	-5204
bited	-5205
blies	-5206
browa	-5207
brɔfo	-5208
dodoɔ	-5209
domee	-5210
dɛɛdɛ	-5211
ebiaa	-5212
eeiii	-5213
enwee	-5214
erylu	-5215
feren	-5216
flash	-5217
hampi	-5218
helps	-5219
henie	-5220
hille	-5221
honya	-5222
hoobo	-5223
hoose	-5224
hours	-5225
hyire	-5226
iller	-5227
inted	-5228
itaho	-5229
kerba	-5230
kings	-5231
kness	-5232
koowa	-5233
kɔnsa	-5234
least	-5235
liino	-5236
luman	-5237
lumba	-5238
mesee	-5239
mmyme	-5240
mmɔho	-5241
mpath	-5242
nsɛwo	-5243
nɛama	-5244
ommon	-5245
onsti	-5246
ontum	-5247
paren	-5248
pekya	-5249
pensi	-5250
posal	-5251
renkɔ	-5252
rensa	-5253
rials	-5254
rinka	-5255
rrnnn	-5256
spite	-5257
suwae	-5258
tails	-5259
tinto	-5260
tomer	-5261
toopi	-5262
trɛma	-5263
waste	-5264
worry	-5265
ɔrebu	-5266
ɛkwan	-5267
ɛnbom	-5268
▁afoo	-5269
▁afor	-5270
▁also	-5271
▁apra	-5272
▁apro	-5273
▁awua	-5274
▁aɔbɛ	-5275
▁aɔse	-5276
▁aɔte	-5277
▁aɔyi	-5278
▁bomb	-5279
▁bomu	-5280
▁born	-5281
▁dwoo	-5282
▁edwa	-5283
▁egom	-5284
▁ennɛ	-5285
▁espe	-5286
▁esta	-5287
▁etwɛ	-5288
▁gari	-5289
▁hair	-5290
▁harm	-5291
▁help	-5292
▁hoed	-5293
▁hwam	-5294
▁mess	-5295
▁minu	-5296
▁nbue	-5297
▁nshi	-5298
▁nsɛe	-5299
gero	-5300
llof	-5301
loon	-5302
orge	-5303
sage	-5304
▁alo	-5305
▁flo	-5306
ayɛpɔ	-5307
duasa	-5308
eorge	-5309
menya	-5310
naasɛ	-5311
ollof	-5312
padua	-5313
round	-5314
tting	-5315
uting	-5316
▁bɔɔɛ	-5317
▁emuo	-5318
▁esii	-5319
▁fron	-5320
▁hɛɛɛ	-5321
▁iron	-5322
▁kalo	-5323
▁mbre	-5324
▁okum	-5325
▁ooyɔ	-5326
▁opie	-5327
▁osuu	-5328
▁owuu	-5329
▁park	-5330
▁peop	-5331
▁play	-5332
▁pueɛ	-5333
▁puie	-5334
▁pull	-5335
▁pɔwo	-5336
▁radi	-5337
▁rain	-5338
▁rent	-5339
▁road	-5340
▁room	-5341
▁self	-5342
▁ship	-5343
▁shit	-5344
▁shiɛ	-5345
▁somw	-5346
▁sonn	-5347
▁sort	-5348
▁stra	-5349
▁taan	-5350
▁toit	-5351
▁tomu	-5352
▁tumu	-5353
▁twit	-5354
▁whoe	-5355
▁yɛpɔ	-5356
▁ɔboɔ	-5357
▁ɔfre	-5358
▁ɔkuu	-5359
▁ɔtɔɔ	-5360
▁ɔwre	-5361
▁ɛbre	-5362
▁ɛfaa	-5363
▁ɛfre	-5364
▁ɛkom	-5365
▁ɛsii	-5366
▁ɛsoa	-5367
▁ɛyii	-5368
▁ɛɛfɛ	-5369
abaaha	-5370
adgets	-5371
afeeli	-5372
ahomea	-5373
ahoɔfɛ	-5374
ahwiri	-5375
ahyɛda	-5376
akumaa	-5377
anamon	-5378
aneɛne	-5379
anhubi	-5380
anibɔɔ	-5381
anners	-5382
anpene	-5383
ansoso	-5384
anyɛne	-5385
asenea	-5386
atenaa	-5387
atɛmsɛ	-5388
awofoɔ	-5389
bigail	-5390
bɔneyɛ	-5391
derful	-5392
eadeɛn	-5393
eeiiii	-5394
efrisɛ	-5395
esansɛ	-5396
foɔɔmo	-5397
gerous	-5398
gether	-5399
gal	-5400
oal	-5401
egal	-5402
ropi	-5403
aberɛ	-5404
flata	-5405
ially	-5406
masea	-5407
nonso	-5408
oalpo	-5409
senii	-5410
umdwe	-5411
wonso	-5412
wuman	-5413
▁boni	-5414
▁kbon	-5415
▁lest	-5416
▁nsra	-5417
▁piti	-5418
▁ɛmbɛ	-5419
diewei	-5420
gotten	-5421
henepa	-5422
hwewhɛ	-5423
inglet	-5424
ingsfo	-5425
isions	-5426
kansoa	-5427
kekano	-5428
kenkan	-5429
ketewa	-5430
krokoo	-5431
kwaasa	-5432
lassma	-5433
lparen	-5434
manɔne	-5435
mpathy	-5436
nkyene	-5437
nokono	-5438
nokorɛ	-5439
ntinto	-5440
ntɔkwa	-5441
oalpot	-5442
omaame	-5443
onfirm	-5444
onkofa	-5445
orting	-5446
pofono	-5447
prepra	-5448
randed	-5449
rewuuu	-5450
rrrrrr	-5451
sional	-5452
sowoso	-5453
soɔben	-5454
suppor	-5455
tetɛwu	-5456
tially	-5457
tional	-5458
tirewɔ	-5459
tomire	-5460
ueenna	-5461
wieegu	-5462
wirime	-5463
yɔkofa	-5464
yɛyeyɛ	-5465
ɛɛadɛn	-5466
▁aaaah	-5467
▁aaane	-5468
▁aabae	-5469
▁abana	-5470
▁abera	-5471
▁abere	-5472
▁abigu	-5473
▁afotu	-5474
▁ahayɔ	-5475
▁ahead	-5476
▁alone	-5477
▁anksa	-5478
▁anomu	-5479
▁anwre	-5480
▁anwun	-5481
▁anyam	-5482
▁aseno	-5483
▁asuro	-5484
▁atetɛ	-5485
▁atwam	-5486
▁awreɛ	-5487
▁ayada	-5488
▁aɛyaa	-5489
▁badwa	-5490
▁baebi	-5491
▁basea	-5492
▁bedii	-5493
▁befri	-5494
▁belgi	-5495
▁benya	-5496
▁biibi	-5497
▁biooo	-5498
▁blame	-5499
apo	-5500
prr	-5501
awuo	-5502
boro	-5503
prrr	-5504
▁aww	-5505
▁low	-5506
▁npo	-5507
dwoma	-5508
feeli	-5509
resse	-5510
▁boym	-5511
▁ediw	-5512
▁hang	-5513
▁toro	-5514
▁ɔdae	-5515
dwodwo	-5516
inatua	-5517
prrrri	-5518
ressed	-5519
teaseɛ	-5520
▁afuom	-5521
▁afuru	-5522
▁ahusɛ	-5523
▁akyew	-5524
▁bonia	-5525
▁borga	-5526
▁bɔmmɔ	-5527
▁bɔtra	-5528
▁bɔɔɛd	-5529
▁bɛkum	-5530
▁bɛnnn	-5531
▁deɛmɛ	-5532
▁dream	-5533
▁dropi	-5534
▁easyo	-5535
▁ebedi	-5536
▁ebeku	-5537
▁edidi	-5538
▁eeiia	-5539
▁efuom	-5540
▁eguwo	-5541
▁ehuri	-5542
▁ehwie	-5543
▁enneɛ	-5544
▁enpoa	-5545
▁entry	-5546
▁enwum	-5547
▁estab	-5548
▁etiko	-5549
▁feele	-5550
▁feesɛ	-5551
▁fifre	-5552
▁fiieɛ	-5553
▁forge	-5554
▁fotoɔ	-5555
▁fresh	-5556
▁front	-5557
▁gyiga	-5558
▁gying	-5559
▁hanna	-5560
▁hanso	-5561
▁haɔmo	-5562
▁haɛwɔ	-5563
▁hodwo	-5564
▁hwiee	-5565
▁hɛɛlo	-5566
▁impor	-5567
▁intro	-5568
▁kasɛe	-5569
▁komfo	-5570
▁kooma	-5571
▁koowa	-5572
▁kraaa	-5573
▁krono	-5574
▁kroum	-5575
▁kukum	-5576
▁kwerɛ	-5577
▁kyire	-5578
▁kɔeeɛ	-5579
▁kɔtɔn	-5580
▁later	-5581
▁lilly	-5582
▁madom	-5583
▁marry	-5584
▁masew	-5585
▁massa	-5586
▁mawoɔ	-5587
▁maɔmo	-5588
▁mepue	-5589
▁metiɛ	-5590
▁meyii	-5591
▁meɛwɔ	-5592
▁mfono	-5593
▁mmien	-5594
▁mmmhm	-5595
▁mofri	-5596
▁mores	-5597
▁muaye	-5598
▁mɛfre	-5599
bby	-5600
ges	-5601
nsum	-5602
wild	-5603
▁ini	-5604
▁tal	-5605
kaasa	-5606
kages	-5607
nbisa	-5608
ordan	-5609
stion	-5610
ɔmfoɔ	-5611
▁etua	-5612
▁kana	-5613
akatua	-5614
ataade	-5615
bebisa	-5616
danfoɔ	-5617
enhyia	-5618
hyiayi	-5619
▁akyea	-5620
▁broso	-5621
▁hyeeɛ	-5622
▁kobby	-5623
▁kɛtee	-5624
▁metee	-5625
▁moada	-5626
▁mɛtɔn	-5627
▁nadom	-5628
▁nafei	-5629
▁naobi	-5630
▁naɔbɛ	-5631
▁naɛte	-5632
▁nepue	-5633
▁nfrɛɛ	-5634
▁ngyin	-5635
▁nhame	-5636
▁niɔdɔ	-5637
▁nkeka	-5638
▁nkyen	-5639
▁nkyɛw	-5640
▁nnoma	-5641
▁nnora	-5642
▁nobut	-5643
▁noegu	-5644
▁noɛnɛ	-5645
▁noɛyɛ	-5646
▁nsano	-5647
▁nseku	-5648
▁nsuta	-5649
▁nufuɔ	-5650
▁nwonn	-5651
▁nyɔko	-5652
▁obɛhu	-5653
▁odidi	-5654
▁onnim	-5655
▁osime	-5656
▁osono	-5657
▁pampe	-5658
▁paper	-5659
▁pegya	-5660
▁pemsɛ	-5661
▁pofoo	-5662
▁potin	-5663
▁praye	-5664
▁prayɛ	-5665
▁pueyɛ	-5666
▁purse	-5667
▁pɔtɔɔ	-5668
▁radio	-5669
▁range	-5670
▁realy	-5671
▁redwa	-5672
▁renfu	-5673
▁renom	-5674
▁renwe	-5675
▁repem	-5676
▁respe	-5677
▁reste	-5678
▁resɛe	-5679
▁retwi	-5680
▁sapor	-5681
▁seems	-5682
▁sendi	-5683
▁sense	-5684
▁shake	-5685
▁shine	-5686
▁shodi	-5687
▁sisea	-5688
▁soade	-5689
▁south	-5690
▁spent	-5691
▁stair	-5692
▁stars	-5693
▁strai	-5694
▁study	-5695
▁suieɛ	-5696
▁sɛmpa	-5697
▁sɛɔmo	-5698
▁sɛɛwo	-5699
ity	-5700
atia	-5701
eerr	-5702
inii	-5703
liii	-5704
seno	-5705
▁eee	-5706
▁fuo	-5707
aring	-5708
asɔre	-5709
ument	-5710
wenty	-5711
▁dɛen	-5712
▁eeei	-5713
▁full	-5714
▁insu	-5715
▁mmɔɔ	-5716
▁proo	-5717
▁prop	-5718
▁prou	-5719
▁sees	-5720
mkyere	-5721
tietie	-5722
▁adore	-5723
▁apɔmu	-5724
▁awobɛ	-5725
▁dunum	-5726
▁eeerr	-5727
▁fufoɔ	-5728
▁mɔden	-5729
▁naaso	-5730
▁neerr	-5731
▁nhyie	-5732
▁profe	-5733
▁prohi	-5734
▁proud	-5735
▁raise	-5736
▁sɛɛyɛ	-5737
▁tanwo	-5738
▁tenka	-5739
▁terms	-5740
▁times	-5741
▁trimu	-5742
▁tuieɛ	-5743
▁wadom	-5744
▁wadum	-5745
▁wapie	-5746
▁wasum	-5747
▁watwi	-5748
▁whose	-5749
▁wiaeɛ	-5750
▁wiepɛ	-5751
▁wommu	-5752
▁wonpɔ	-5753
▁wowrɛ	-5754
▁woyea	-5755
▁woɛna	-5756
▁wuieɛ	-5757
▁wunim	-5758
▁wunya	-5759
▁wɔade	-5760
▁wɔfre	-5761
▁wɔnim	-5762
▁yanso	-5763
▁yawre	-5764
▁yibio	-5765
▁yɛeyi	-5766
▁yɛmmɛ	-5767
▁yɛtea	-5768
▁yɛɛba	-5769
▁ɔbaeɛ	-5770
▁ɔbɔeɛ	-5771
▁ɔbɔsi	-5772
▁ɔhyew	-5773
▁ɔkyen	-5774
▁ɔmang	-5775
▁ɔneno	-5776
▁ɔnfii	-5777
▁ɔpamo	-5778
▁ɔpere	-5779
▁ɔpiti	-5780
▁ɔpɛsɛ	-5781
▁ɔsane	-5782
▁ɔsoma	-5783
▁ɔtoso	-5784
▁ɔtwaa	-5785
▁ɔwehe	-5786
▁ɔyale	-5787
▁ɛdidi	-5788
▁ɛdien	-5789
▁ɛdɔso	-5790
▁ɛeerr	-5791
▁ɛfeed	-5792
▁ɛfrɛɛ	-5793
▁ɛhawo	-5794
▁ɛkawo	-5795
▁ɛneno	-5796
▁ɛnkro	-5797
▁ɛnmie	-5798
▁ɛnsɔm	-5799
ely	-5800
amfa	-5801
atie	-5802
gine	-5803
hine	-5804
llet	-5805
muee	-5806
toam	-5807
ɛntɛ	-5808
afuru	-5809
dabɛn	-5810
seɛbɔ	-5811
yiine	-5812
▁eyie	-5813
▁ferɛ	-5814
▁foam	-5815
▁hasn	-5816
▁hour	-5817
▁hyie	-5818
▁nefɛ	-5819
▁obre	-5820
▁ɔtee	-5821
ansana	-5822
asomaa	-5823
bɛbiaa	-5824
magine	-5825
mɔtoam	-5826
weeiii	-5827
weɛpaa	-5828
wumerɛ	-5829
▁adomw	-5830
▁amano	-5831
▁apapa	-5832
▁bohye	-5833
▁bɔbra	-5834
▁keseɛ	-5835
▁meeka	-5836
▁memrɛ	-5837
▁metie	-5838
▁naana	-5839
▁ngyae	-5840
▁sonea	-5841
▁soyie	-5842
▁wabra	-5843
▁ɛdana	-5844
▁ɛmomɔ	-5845
▁ɛmpri	-5846
▁ɛnsɛi	-5847
▁ɛpuie	-5848
▁ɛtoeɛ	-5849
▁ɛtwem	-5850
▁ɛwosɛ	-5851
adwenwɔ	-5852
akotene	-5853
akɔmfoɔ	-5854
ananteɛ	-5855
aniagye	-5856
anisosɛ	-5857
antesea	-5858
anyinaa	-5859
apɔnkye	-5860
asanato	-5861
atiedeɛ	-5862
daflata	-5863
genesis	-5864
grewuuu	-5865
hampion	-5866
hooboii	-5867
ingsfor	-5868
ketball	-5869
kyeremu	-5870
lephone	-5871
mshishi	-5872
nkɛntin	-5873
onstitu	-5874
ontumpu	-5875
prrrrii	-5876
rehyɛmu	-5877
riatian	-5878
ssional	-5879
tention	-5880
titinto	-5881
uestion	-5882
umaafoɔ	-5883
ustomer	-5884
wintwan	-5885
yinasoɔ	-5886
yinnyin	-5887
ympathy	-5888
yonkofa	-5889
yɔnkofa	-5890
ɛrenkyɛ	-5891
▁abaaya	-5892
▁abatan	-5893
▁abrome	-5894
▁abrɔbɛ	-5895
▁abrɔfo	-5896
▁abɛnya	-5897
▁adadaa	-5898
▁adekro	-5899
oa	-5900
arry	-5901
bber	-5902
bran	-5903
dier	-5904
dies	-5905
forɔ	-5906
into	-5907
rber	-5908
▁eks	-5909
▁nfe	-5910
▁pim	-5911
kyɛwo	-5912
ldier	-5913
prama	-5914
▁aran	-5915
▁ateɛ	-5916
▁deal	-5917
▁euro	-5918
▁hena	-5919
▁nfra	-5920
▁nkro	-5921
▁spon	-5922
▁spor	-5923
▁wadɔ	-5924
▁wodɛ	-5925
▁word	-5926
▁yenɔ	-5927
▁ɛnbu	-5928
gailyɛ	-5929
▁abrew	-5930
▁akola	-5931
▁akoto	-5932
▁apata	-5933
▁atoto	-5934
▁atotɔ	-5935
▁begye	-5936
▁bɛseɛ	-5937
▁deato	-5938
▁krado	-5939
▁mmaeɛ	-5940
▁nesem	-5941
▁nfeel	-5942
▁spiri	-5943
▁state	-5944
▁sɔɔme	-5945
▁woada	-5946
▁yooan	-5947
▁ɛtese	-5948
abatiri	-5949
bransɛm	-5950
medaase	-5951
tininto	-5952
▁adeyie	-5953
▁adidie	-5954
▁adiyie	-5955
▁aduaba	-5956
▁aduruo	-5957
▁afieyi	-5958
▁afofei	-5959
▁afofie	-5960
▁aguagu	-5961
▁aguare	-5962
▁agyidi	-5963
▁ahohoɔ	-5964
▁ahomte	-5965
▁ahonho	-5966
▁akɛseɛ	-5967
▁alapaa	-5968
▁amanea	-5969
▁amanɔn	-5970
▁ampara	-5971
▁ananmu	-5972
▁anisoɔ	-5973
▁ansɔre	-5974
▁antwɛn	-5975
▁anyame	-5976
▁anɔpae	-5977
▁apedwa	-5978
▁aranti	-5979
▁around	-5980
▁asabea	-5981
▁asagya	-5982
▁asɛasɔ	-5983
▁ateiti	-5984
▁atɔfoɔ	-5985
▁awadaa	-5986
▁awieeɛ	-5987
▁awofoɔ	-5988
▁ayeyia	-5989
▁barber	-5990
▁bashop	-5991
▁berɛme	-5992
▁biafem	-5993
▁blames	-5994
▁bomtwe	-5995
▁boɔdin	-5996
▁brabra	-5997
▁brɛyɛn	-5998
▁brɛɛme	-5999
anf	-6000
lis	-6001
mmm	-6002
ned	-6003
new	-6004
omp	-6005
ose	-6006
sii	-6007
swe	-6008
tɛn	-6009
efoɔ	-6010
kɔno	-6011
obaa	-6012
swer	-6013
wesi	-6014
▁fei	-6015
▁kɛn	-6016
▁nlo	-6017
▁nnu	-6018
▁nwe	-6019
▁ɔsa	-6020
adawg	-6021
anfin	-6022
angye	-6023
anieɛ	-6024
difoɔ	-6025
eyere	-6026
hello	-6027
lishe	-6028
ompla	-6029
saman	-6030
▁ahyi	-6031
▁bɛne	-6032
▁dado	-6033
▁knew	-6034
▁memu	-6035
▁mɛwe	-6036
▁nane	-6037
▁otea	-6038
▁prea	-6039
▁test	-6040
▁towo	-6041
▁yabɛ	-6042
▁yedi	-6043
▁yɛma	-6044
▁ɔsii	-6045
▁ɔwoa	-6046
▁ɛnye	-6047
▁ɛtaa	-6048
asiano	-6049
bosome	-6050
lished	-6051
▁adepa	-6052
▁aobaa	-6053
▁etire	-6054
▁hwɛne	-6055
▁mafrɛ	-6056
▁naɔde	-6057
▁noyɛɛ	-6058
▁obisa	-6059
▁soara	-6060
▁tests	-6061
▁wafre	-6062
▁wapra	-6063
▁wɔnfa	-6064
▁yoomo	-6065
▁ɛmbra	-6066
▁ɛyɛsɛ	-6067
adwensɛ	-6068
kɔnomaa	-6069
omplain	-6070
▁answer	-6071
▁asefoɔ	-6072
▁bɔmpae	-6073
▁bɛhyia	-6074
▁daberɛ	-6075
▁dabira	-6076
▁dabɔne	-6077
▁dadowa	-6078
▁dadwen	-6079
▁dating	-6080
▁debiaa	-6081
▁deɛɔmo	-6082
▁deɛɛna	-6083
▁deɛɛwɔ	-6084
▁deɛɛyɛ	-6085
▁double	-6086
▁drinka	-6087
▁drɔɔso	-6088
▁dubena	-6089
▁dwaben	-6090
▁ebiame	-6091
▁eduasa	-6092
▁edware	-6093
▁eeiama	-6094
▁efieha	-6095
▁efirii	-6096
▁either	-6097
▁ekruom	-6098
▁ekurom	-6099
sit	-6100
wna	-6101
yda	-6102
aasi	-6103
isit	-6104
▁ask	-6105
▁fao	-6106
▁hwɔ	-6107
▁mba	-6108
▁tem	-6109
aasɛm	-6110
ahyda	-6111
bɔkɔɔ	-6112
bɔsoɔ	-6113
karaa	-6114
wɛdeɛ	-6115
▁aakɔ	-6116
▁aebu	-6117
▁anwɔ	-6118
▁beba	-6119
▁befo	-6120
▁ensɛ	-6121
▁fame	-6122
▁fiea	-6123
▁hwɛn	-6124
▁kɔda	-6125
▁megu	-6126
▁muwɔ	-6127
▁paye	-6128
▁suit	-6129
▁thei	-6130
▁wabe	-6131
▁wagu	-6132
▁yɛɛn	-6133
▁ɛnsi	-6134
agyina	-6135
kyerɛɛ	-6136
▁boawo	-6137
▁moase	-6138
▁modeɛ	-6139
▁noaeɛ	-6140
▁paabɛ	-6141
▁renkɔ	-6142
▁repun	-6143
▁sɛɔde	-6144
▁their	-6145
▁weiwo	-6146
▁yɛnam	-6147
▁yɛuse	-6148
▁ɔdamu	-6149
▁ɔkata	-6150
▁ɔmoyɛ	-6151
abrafoɔ	-6152
duyɛfoɔ	-6153
▁ammɔho	-6154
▁before	-6155
▁delila	-6156
▁enndeɛ	-6157
▁ennɛra	-6158
▁enough	-6159
▁epagya	-6160
▁esrael	-6161
▁etwamu	-6162
▁ewuraa	-6163
▁faobuo	-6164
▁fitaaa	-6165
▁fofroɔ	-6166
▁forken	-6167
▁foɔade	-6168
▁ghanai	-6169
▁gyemie	-6170
▁gyimie	-6171
▁gyware	-6172
▁hannah	-6173
▁heanaa	-6174
▁heater	-6175
▁honhon	-6176
▁huuieɛ	-6177
▁hweaaa	-6178
▁hwieyɛ	-6179
▁kaabom	-6180
▁kalomo	-6181
▁kbonsu	-6182
▁killer	-6183
▁koofie	-6184
▁koraao	-6185
▁koromu	-6186
▁kosisɛ	-6187
▁krakra	-6188
▁krataa	-6189
▁krofoɔ	-6190
▁kruokɛ	-6191
▁kruomu	-6192
▁kununa	-6193
▁kwadwo	-6194
▁kɔbisa	-6195
▁kɔtɔkɔ	-6196
▁madwen	-6197
▁mafunu	-6198
▁makoko	-6199
bs	-6200
is	-6201
bad	-6202
dem	-6203
rte	-6204
uar	-6205
uni	-6206
anni	-6207
uasi	-6208
▁nah	-6209
▁net	-6210
▁nnɔ	-6211
▁sew	-6212
arawo	-6213
damfo	-6214
tarte	-6215
unior	-6216
yɛsɛm	-6217
▁aara	-6218
▁anba	-6219
▁anno	-6220
▁dade	-6221
▁daeɛ	-6222
▁dako	-6223
▁dayi	-6224
▁kusi	-6225
▁kɔdi	-6226
▁miaa	-6227
▁nwee	-6228
▁pɛno	-6229
▁saal	-6230
▁seen	-6231
▁shat	-6232
▁subs	-6233
▁tugu	-6234
▁ɔnwo	-6235
▁ɛsei	-6236
anuasi	-6237
aranni	-6238
suafoɔ	-6239
uarter	-6240
▁akɔtɔ	-6241
▁asisi	-6242
▁barim	-6243
▁bipɛn	-6244
▁death	-6245
▁hwana	-6246
▁hyɛno	-6247
▁manba	-6248
▁menba	-6249
▁nahin	-6250
▁nesɛɛ	-6251
▁nsone	-6252
▁ntimo	-6253
▁sereɛ	-6254
▁sikaa	-6255
▁wonie	-6256
▁wonma	-6257
▁ɔdidi	-6258
▁ɛnona	-6259
animɛfa	-6260
uarters	-6261
ɔnyinaa	-6262
▁adeade	-6263
▁announ	-6264
▁betimi	-6265
▁burial	-6266
▁faɔbaa	-6267
▁george	-6268
▁magyae	-6269
▁makoma	-6270
▁mamane	-6271
▁manida	-6272
▁maniso	-6273
▁masisi	-6274
▁matter	-6275
▁maware	-6276
▁mayɛno	-6277
▁mebɛfa	-6278
▁medidi	-6279
▁mefira	-6280
▁mehmmm	-6281
▁mehuru	-6282
▁mekuta	-6283
▁menbɛn	-6284
▁meneno	-6285
▁menewo	-6286
▁menhia	-6287
▁menpue	-6288
▁mensem	-6289
▁mentee	-6290
▁menyɛɛ	-6291
▁mesisi	-6292
▁mesoma	-6293
▁mesore	-6294
▁mesupp	-6295
▁metehɔ	-6296
▁metete	-6297
▁mewerɛ	-6298
▁mewife	-6299
awɔ	-6300
deo	-6301
ins	-6302
koa	-6303
win	-6304
anke	-6305
ideo	-6306
misa	-6307
pete	-6308
reat	-6309
rokɔ	-6310
soro	-6311
sten	-6312
uali	-6313
▁bee	-6314
▁noe	-6315
▁sde	-6316
▁sem	-6317
▁tso	-6318
▁wɔw	-6319
ankee	-6320
bɛsia	-6321
msoro	-6322
rison	-6323
▁beef	-6324
▁boun	-6325
▁enbɛ	-6326
▁ewin	-6327
▁fiem	-6328
▁hawo	-6329
▁hɔaa	-6330
▁hɔre	-6331
▁hɔyi	-6332
▁kurɔ	-6333
▁kɔhu	-6334
▁late	-6335
▁nama	-6336
▁tsoo	-6337
▁ɔnto	-6338
▁ɛnhu	-6339
aseɛnɛ	-6340
hohoro	-6341
uality	-6342
wopɛsɛ	-6343
▁brawo	-6344
▁damfo	-6345
▁demon	-6346
▁dende	-6347
▁faɔmo	-6348
▁frokɔ	-6349
▁hyɛne	-6350
▁manbɛ	-6351
▁mommɔ	-6352
▁monhu	-6353
▁naade	-6354
▁nkorɔ	-6355
▁nkura	-6356
▁ntime	-6357
▁potee	-6358
▁saaaa	-6359
▁saakɔ	-6360
▁taadi	-6361
▁treat	-6362
▁wobrɛ	-6363
▁yɛtwa	-6364
▁ɔbɛda	-6365
▁ɛsere	-6366
aniberɛ	-6367
nkrofoɔ	-6368
▁aboabi	-6369
▁hwɛnea	-6370
▁hɔreto	-6371
▁latest	-6372
▁listen	-6373
▁mfasoɔ	-6374
▁minute	-6375
▁mmaano	-6376
▁mmerma	-6377
▁mmerɛw	-6378
▁mmotuo	-6379
▁moakyɛ	-6380
▁mobisa	-6381
▁mobɛka	-6382
▁momgye	-6383
▁monbra	-6384
▁monfri	-6385
▁mpayin	-6386
▁mɛsesa	-6387
▁mɛyɛdɛ	-6388
▁naduro	-6389
▁nanise	-6390
▁nawahu	-6391
▁naɛyaa	-6392
▁nbrɔfo	-6393
▁neadeɛ	-6394
▁nentɛm	-6395
▁neɔbaa	-6396
▁nflash	-6397
▁ngyena	-6398
▁nhaban	-6399
ub	-6400
lor	-6401
rye	-6402
tuu	-6403
ubt	-6404
ɛba	-6405
lory	-6406
oadi	-6407
ommo	-6408
siaw	-6409
yaan	-6410
▁ake	-6411
▁ali	-6412
▁bas	-6413
▁ger	-6414
▁had	-6415
▁him	-6416
▁mbɛ	-6417
▁wag	-6418
▁ɛpa	-6419
tweek	-6420
▁akan	-6421
▁anbɛ	-6422
▁arye	-6423
▁ayin	-6424
▁dasɛ	-6425
▁debi	-6426
▁deno	-6427
▁deso	-6428
▁kɔka	-6429
▁nkam	-6430
▁rese	-6431
▁reso	-6432
▁sopa	-6433
▁wein	-6434
▁wɔbɛ	-6435
▁yebɛ	-6436
▁ɛnwo	-6437
▁ɛyie	-6438
awiase	-6439
mireka	-6440
tibiti	-6441
yaante	-6442
▁akeda	-6443
▁assem	-6444
▁dinku	-6445
▁doubt	-6446
▁ehefa	-6447
▁glory	-6448
▁maɛba	-6449
▁menbɛ	-6450
▁nnuro	-6451
▁nnwom	-6452
▁nsoba	-6453
▁nsode	-6454
▁odimu	-6455
▁resol	-6456
▁resɛi	-6457
▁tweee	-6458
▁wagad	-6459
▁wonba	-6460
▁yɛɛkɔ	-6461
▁ɔmone	-6462
likings	-6463
▁aseten	-6464
▁aseɛfi	-6465
▁german	-6466
▁gyidiɛ	-6467
▁kyekyɛ	-6468
▁kyereɛ	-6469
▁mebɛyɛ	-6470
▁mesika	-6471
▁moawia	-6472
▁nekunu	-6473
▁nhwene	-6474
▁nkonim	-6475
▁nkuraa	-6476
▁nkuran	-6477
▁nkusie	-6478
▁nkɔmmɔ	-6479
▁nnaano	-6480
▁nnante	-6481
▁nnompe	-6482
▁nobasa	-6483
▁nobɔne	-6484
▁nokwre	-6485
▁nokwrɛ	-6486
▁nonnom	-6487
▁noraml	-6488
▁npanin	-6489
▁nsakuo	-6490
▁nsanee	-6491
▁nsesae	-6492
▁nsroma	-6493
▁nsuomu	-6494
▁nsɔade	-6495
▁nsɛkuo	-6496
▁ntasuo	-6497
▁ntawan	-6498
▁ntetee	-6499
boi	-6500
foa	-6501
twɛ	-6502
ugu	-6503
▁gh	-6504
abue	-6505
andi	-6506
bafa	-6507
dere	-6508
gyei	-6509
iesa	-6510
▁bei	-6511
▁bri	-6512
▁hop	-6513
▁kɔa	-6514
▁ɛyɔ	-6515
guugu	-6516
inatu	-6517
papaa	-6518
pusuu	-6519
ueenn	-6520
▁enya	-6521
▁grab	-6522
▁hurt	-6523
▁kɔna	-6524
▁kɔyi	-6525
▁kɔyɛ	-6526
▁mewe	-6527
▁musɛ	-6528
▁mɛse	-6529
▁nnti	-6530
▁pira	-6531
▁seti	-6532
▁soaa	-6533
▁soso	-6534
▁tale	-6535
▁woha	-6536
▁ɛmuɔ	-6537
hemman	-6538
indere	-6539
▁atuuu	-6540
▁being	-6541
▁deɛna	-6542
▁hweeɛ	-6543
▁kwasi	-6544
▁nnibi	-6545
▁nsome	-6546
▁whene	-6547
▁ɛbɛka	-6548
ahemman	-6549
guguugu	-6550
▁aagyei	-6551
▁akatii	-6552
▁bɛkyea	-6553
▁dayone	-6554
▁gyedeɛ	-6555
▁happen	-6556
▁hoping	-6557
▁mmiesa	-6558
▁nasɛbi	-6559
▁nkraka	-6560
▁ntiɛyɛ	-6561
▁ntoose	-6562
▁ntotoɛ	-6563
▁ntwene	-6564
▁nubɔne	-6565
▁nwaste	-6566
▁nworry	-6567
▁nwuieɛ	-6568
▁nyaaka	-6569
▁nyenye	-6570
▁nyiamu	-6571
▁nyisɛn	-6572
▁obaabi	-6573
▁obaana	-6574
▁obaano	-6575
▁odikan	-6576
▁odwane	-6577
▁ogyena	-6578
▁ohwahu	-6579
▁oluman	-6580
▁onhunu	-6581
▁onokwa	-6582
▁ontimi	-6583
▁otwamu	-6584
▁outing	-6585
▁owuona	-6586
▁paanie	-6587
▁paapaa	-6588
▁pahwan	-6589
▁pampes	-6590
▁papano	-6591
▁people	-6592
▁pintin	-6593
▁plains	-6594
▁points	-6595
▁prapra	-6596
▁prayer	-6597
▁presen	-6598
▁prison	-6599
hn	-6600
hwi	-6601
ype	-6602
ɔpɛ	-6603
ɛre	-6604
anda	-6605
anna	-6606
fose	-6607
pɔkɔ	-6608
▁hoh	-6609
▁hua	-6610
▁ose	-6611
▁oyɛ	-6612
▁soɛ	-6613
▁sɛe	-6614
▁toi	-6615
▁uhn	-6616
▁ɛns	-6617
afawo	-6618
ahume	-6619
annyɛ	-6620
maama	-6621
sɛmen	-6622
▁asɛg	-6623
▁boto	-6624
▁defi	-6625
▁errm	-6626
▁fɛna	-6627
▁hooo	-6628
▁kayɛ	-6629
▁kyɛm	-6630
▁mɛma	-6631
▁nare	-6632
▁naye	-6633
▁nokɔ	-6634
▁npre	-6635
▁payɛ	-6636
▁type	-6637
▁warm	-6638
▁yiii	-6639
▁ɔtua	-6640
▁ɛdea	-6641
▁ɛnom	-6642
adress	-6643
daadaa	-6644
ɛremma	-6645
▁abira	-6646
▁anwie	-6647
▁deɛwɔ	-6648
▁hanti	-6649
▁nkɔfa	-6650
▁repue	-6651
▁spean	-6652
▁suspe	-6653
▁women	-6654
▁wɔyɛɛ	-6655
▁yenka	-6656
▁ɔrepa	-6657
▁ɔwɔmu	-6658
▁ɛnsɔn	-6659
▁ɛtesɛ	-6660
▁ɛyare	-6661
ayɛpapa	-6662
sɛmenko	-6663
▁adress	-6664
▁agyamɛ	-6665
▁akyirɛ	-6666
▁baabia	-6667
▁dankyi	-6668
▁defile	-6669
▁kenkan	-6670
▁kentii	-6671
▁redane	-6672
▁redela	-6673
▁redwen	-6674
▁regyae	-6675
▁rehyia	-6676
▁rekyea	-6677
▁resere	-6678
▁resesa	-6679
▁result	-6680
▁retete	-6681
▁retutu	-6682
▁rewash	-6683
▁rights	-6684
▁rubber	-6685
▁saloon	-6686
▁saneno	-6687
▁sapete	-6688
▁seanka	-6689
▁sereyɛ	-6690
▁serɛwo	-6691
▁seɔbaa	-6692
▁shatta	-6693
▁shorts	-6694
▁simpie	-6695
▁sososo	-6696
▁stable	-6697
▁stairs	-6698
▁stoopi	-6699
fy	-6700
hp	-6701
pt	-6702
ul	-6703
ank	-6704
ema	-6705
eyɛ	-6706
hpun	-6707
lete	-6708
nify	-6709
tant	-6710
▁dra	-6711
▁faw	-6712
▁nad	-6713
▁nai	-6714
▁wɔɔ	-6715
ankan	-6716
bible	-6717
gnify	-6718
padeɛ	-6719
wonwa	-6720
ɔhwie	-6721
▁aguu	-6722
▁ayɛw	-6723
▁bath	-6724
▁bubu	-6725
▁bɔkɔ	-6726
▁dase	-6727
▁deme	-6728
▁draw	-6729
▁dufu	-6730
▁fane	-6731
▁guys	-6732
▁hayi	-6733
▁hono	-6734
▁howe	-6735
▁hwɛa	-6736
▁naaa	-6737
▁pain	-6738
▁saul	-6739
▁sɛen	-6740
▁tɔde	-6741
▁yɛba	-6742
wakyew	-6743
▁aɔnam	-6744
▁fabag	-6745
▁memmɔ	-6746
▁motwa	-6747
▁mɛboa	-6748
▁mɛgye	-6749
▁nawia	-6750
▁nhueɛ	-6751
▁nosɛn	-6752
▁nyerɛ	-6753
▁oohwɛ	-6754
▁regya	-6755
▁slept	-6756
▁wuraa	-6757
▁wɔnkɔ	-6758
▁yenpɛ	-6759
▁yɛnna	-6760
rekyerɛ	-6761
▁ahenti	-6762
▁akɔfie	-6763
▁ankane	-6764
▁delete	-6765
▁dufudu	-6766
▁ekumaa	-6767
▁kasawo	-6768
▁metiri	-6769
▁nnɛema	-6770
▁renyin	-6771
▁sunsum	-6772
▁suspen	-6773
▁sweety	-6774
▁sɛafei	-6775
▁sɛbafa	-6776
▁sɛbisɛ	-6777
▁sɛbita	-6778
▁sɛdeɛn	-6779
▁sɛnmpo	-6780
▁sɛɛnyɛ	-6781
▁taking	-6782
▁talent	-6783
▁temper	-6784
▁teɛtea	-6785
▁thinks	-6786
▁timewo	-6787
▁tiriso	-6788
▁toliii	-6789
▁towobo	-6790
▁tutubɔ	-6791
▁twɛdeɛ	-6792
▁waahwɛ	-6793
▁wabɛfa	-6794
▁wagyad	-6795
▁wallet	-6796
▁wanfii	-6797
▁waniso	-6798
▁wannka	-6799
ey	-6800
od	-6801
rh	-6802
shɛ	-6803
yee	-6804
▁ai	-6805
eten	-6806
kɔkɔ	-6807
mayɛ	-6808
rape	-6809
somɛ	-6810
udas	-6811
▁awr	-6812
▁dis	-6813
▁eku	-6814
▁meɛ	-6815
awerɛ	-6816
hanom	-6817
shirt	-6818
sɛdeɛ	-6819
▁apie	-6820
▁awei	-6821
▁ebie	-6822
▁gyai	-6823
▁heal	-6824
▁hɛrh	-6825
▁mood	-6826
▁nekɔ	-6827
▁oona	-6828
▁wasɔ	-6829
▁yiri	-6830
▁yiwo	-6831
▁ɔmaa	-6832
▁ɛnda	-6833
adeɛwo	-6834
etenke	-6835
rapera	-6836
▁afeno	-6837
▁akyem	-6838
▁akɔne	-6839
▁asihe	-6840
▁asɛsi	-6841
▁awrie	-6842
▁bɛsan	-6843
▁deayɛ	-6844
▁dehye	-6845
▁doesn	-6846
▁koobi	-6847
▁kosua	-6848
▁matem	-6849
▁mmame	-6850
▁mposɛ	-6851
▁nanaa	-6852
▁nobaa	-6853
▁piiii	-6854
▁wawoɔ	-6855
▁wobae	-6856
▁woboɔ	-6857
▁wompo	-6858
▁wosan	-6859
▁ɔrepɛ	-6860
▁ɛdabi	-6861
▁ɛdaeɛ	-6862
illegal	-6863
▁adeɛsɛ	-6864
▁agyena	-6865
▁bueeii	-6866
▁health	-6867
▁menshɛ	-6868
▁nhudeɛ	-6869
▁reyɛwɔ	-6870
▁tumikɔ	-6871
▁wantia	-6872
▁wapamo	-6873
▁wayɛno	-6874
▁wedidi	-6875
▁weduro	-6876
▁weekmɛ	-6877
▁werefi	-6878
▁woakyɛ	-6879
▁woberɛ	-6880
▁wobiar	-6881
▁wobusa	-6882
▁wobɛka	-6883
▁wohuno	-6884
▁wohyia	-6885
▁woneno	-6886
▁wonfii	-6887
▁wonnum	-6888
▁wonsɛm	-6889
▁wontem	-6890
▁worede	-6891
▁worepɔ	-6892
▁woretu	-6893
▁woreyi	-6894
▁woreyɛ	-6895
▁wosimu	-6896
▁wososo	-6897
▁wosɔfo	-6898
▁wotime	-6899
??	-6900
ɔw	-6901
fun	-6902
iie	-6903
ɛni	-6904
desɛ	-6905
iier	-6906
nnyɛ	-6907
stan	-6908
ɔnyɛ	-6909
▁mie	-6910
▁oyi	-6911
▁wɔs	-6912
▁ɛku	-6913
abawo	-6914
hrist	-6915
sesɛm	-6916
▁abom	-6917
▁bide	-6918
▁bini	-6919
▁daam	-6920
▁demo	-6921
▁deɛb	-6922
▁dɔme	-6923
▁enye	-6924
▁ewia	-6925
▁fieɛ	-6926
▁gold	-6927
▁hoso	-6928
▁hɔna	-6929
▁hɛɛh	-6930
▁kayi	-6931
▁kuna	-6932
▁mabɛ	-6933
▁nnin	-6934
▁sewo	-6935
▁yesi	-6936
▁yeyɛ	-6937
adware	-6938
animpɛ	-6939
eɛnnyɛ	-6940
kwafoɔ	-6941
umstan	-6942
▁aguso	-6943
▁baree	-6944
▁efiti	-6945
▁hando	-6946
▁kwala	-6947
▁meyie	-6948
▁naayɛ	-6949
▁nanda	-6950
▁nankɔ	-6951
▁nideɛ	-6952
▁nomee	-6953
▁ntimi	-6954
▁toomu	-6955
▁usewo	-6956
▁yerem	-6957
▁yereɛ	-6958
▁ɔmmae	-6959
▁ɛkɔba	-6960
▁ɛresi	-6961
abɔdesɛ	-6962
nanimpɛ	-6963
▁adedeɛ	-6964
▁boiier	-6965
▁eeiide	-6966
▁eɛnnyɛ	-6967
▁kyɛwme	-6968
▁miemia	-6969
▁naagya	-6970
▁nideɛe	-6971
▁saneyɛ	-6972
▁wotire	-6973
▁wowife	-6974
▁wowobe	-6975
▁woyale	-6976
▁wɔkuro	-6977
▁wɔnono	-6978
▁wɔrekɔ	-6979
▁wɔsesa	-6980
▁yabɛti	-6981
▁yankee	-6982
▁yaresa	-6983
▁yereyi	-6984
▁yiemma	-6985
▁yiepaa	-6986
▁yieɛne	-6987
▁yirrrr	-6988
▁yiɛyaa	-6989
▁yɛnhuu	-6990
▁yɛntem	-6991
▁yɛreka	-6992
▁yɛtete	-6993
▁yɛtutu	-6994
▁yɛused	-6995
▁yɛɛnsɔ	-6996
▁ɔbaaeɛ	-6997
▁ɔbenya	-6998
▁ɔbodam	-6999
.?	-7000
ou	-7001
sy	-7002
ɛa	-7003
fuu	-7004
lat	-7005
mba	-7006
neɛ	-7007
ump	-7008
aloo	-7009
olat	-7010
yɛse	-7011
▁ane	-7012
▁bɛb	-7013
▁mep	-7014
▁nho	-7015
▁ogu	-7016
▁whɛ	-7017
anise	-7018
▁antu	-7019
▁ashe	-7020
▁ayoo	-7021
▁boss	-7022
▁busy	-7023
▁bɛtu	-7024
▁emoa	-7025
▁nabɛ	-7026
▁poku	-7027
▁pump	-7028
▁rape	-7029
▁toto	-7030
▁wadi	-7031
▁ɛbra	-7032
abɛhyɛ	-7033
aloose	-7034
gyafoɔ	-7035
ourite	-7036
▁berɛa	-7037
▁brane	-7038
▁brɛno	-7039
▁dinmu	-7040
▁entiw	-7041
▁haɛde	-7042
▁mouth	-7043
▁mpoma	-7044
▁nimna	-7045
▁noabɛ	-7046
▁nokwa	-7047
▁outwɔ	-7048
▁saaka	-7049
▁sɛnɛa	-7050
▁tofuu	-7051
▁yewme	-7052
▁ɔdaso	-7053
▁ɔngya	-7054
▁ɛwɔse	-7055
▁abɔdwa	-7056
▁awiayi	-7057
▁bueiii	-7058
▁deɛama	-7059
▁fosuma	-7060
▁gramoo	-7061
▁gyeeyi	-7062
▁hyemba	-7063
▁hɔakyɛ	-7064
▁mebobɔ	-7065
▁mpredu	-7066
▁obaaeɛ	-7067
▁pokuaa	-7068
▁reyɛma	-7069
▁wankra	-7070
▁ɔbɔtra	-7071
▁ɔbɛwoo	-7072
▁ɔdress	-7073
▁ɔgyena	-7074
▁ɔgyimi	-7075
▁ɔmoasa	-7076
▁ɔmoeni	-7077
▁ɔmonti	-7078
▁ɔmonya	-7079
▁ɔnkyɛn	-7080
▁ɔnpamo	-7081
▁ɔnpene	-7082
▁ɔnsɔre	-7083
▁ɔntimi	-7084
▁ɔnwieɛ	-7085
▁ɔnyare	-7086
▁ɔnyɛwo	-7087
▁ɔpitii	-7088
▁ɔrehaw	-7089
▁ɔrenka	-7090
▁ɔrepaw	-7091
▁ɔretie	-7092
▁ɔretwe	-7093
▁ɔreyɛw	-7094
▁ɔsedii	-7095
▁ɔtaaba	-7096
▁ɔtease	-7097
▁ɔtsena	-7098
▁ɔwaste	-7099
amu	-7100
ire	-7101
ray	-7102
yaf	-7103
buda	-7104
fɛfɛ	-7105
hina	-7106
kaeɛ	-7107
mare	-7108
metu	-7109
uman	-7110
wena	-7111
yɛyɛ	-7112
▁ota	-7113
▁yɛw	-7114
▁ɔdɛ	-7115
abusa	-7116
dwoeɛ	-7117
oming	-7118
▁afra	-7119
▁anti	-7120
▁deɛm	-7121
▁deɛw	-7122
▁empo	-7123
▁hire	-7124
▁hueɛ	-7125
▁krou	-7126
▁kwak	-7127
▁mobi	-7128
▁mɛsi	-7129
▁nose	-7130
▁ntum	-7131
▁tebɛ	-7132
▁town	-7133
▁wawɔ	-7134
▁yafi	-7135
▁yesɛ	-7136
▁ɔmrɛ	-7137
▁ɛnma	-7138
metire	-7139
yafter	-7140
▁abawa	-7141
▁akɔbɔ	-7142
▁brɛna	-7143
▁deɛyɛ	-7144
▁dɛmaa	-7145
▁ebisa	-7146
▁gyafo	-7147
▁human	-7148
▁mabre	-7149
▁meyɛm	-7150
▁obaaa	-7151
▁obiwɔ	-7152
▁otabi	-7153
▁tuabi	-7154
▁yɛmma	-7155
▁yɛnfo	-7156
▁ɔbɛbɔ	-7157
wensani	-7158
▁abrabo	-7159
▁afodeɛ	-7160
▁befiri	-7161
▁brewww	-7162
▁enbuda	-7163
▁hwɛase	-7164
▁mobile	-7165
▁mongye	-7166
▁ndaase	-7167
▁nimboa	-7168
▁otabil	-7169
▁sɛsɛbi	-7170
▁wahusɛ	-7171
▁yɛsore	-7172
▁ɔdebaa	-7173
▁ɔresan	-7174
▁ɔwuieɛ	-7175
▁ɛbɛboa	-7176
▁ɛbɛyea	-7177
▁ɛdomee	-7178
▁ɛdwiri	-7179
▁ɛhyɛmu	-7180
▁ɛkasei	-7181
▁ɛkoraa	-7182
▁ɛmbaso	-7183
▁ɛmmere	-7184
▁ɛmpere	-7185
▁ɛnaano	-7186
▁ɛnaɛnɛ	-7187
▁ɛnaɛyɛ	-7188
▁ɛnbubu	-7189
▁ɛneɛyɛ	-7190
▁ɛngyae	-7191
▁ɛnisoɔ	-7192
▁ɛnnoɔm	-7193
▁ɛnoaaa	-7194
▁ɛnpepa	-7195
▁ɛnsɔwe	-7196
▁ɛntete	-7197
▁ɛnɛnso	-7198
▁ɛsande	-7199
ft	-7200
pm	-7201
ked	-7202
mpɛ	-7203
sse	-7204
ɛkɔ	-7205
▁ay	-7206
dada	-7207
deɛa	-7208
eɛnɛ	-7209
kɔso	-7210
makɔ	-7211
masa	-7212
meka	-7213
nala	-7214
ssue	-7215
tent	-7216
wiee	-7217
wɔne	-7218
▁enɛ	-7219
▁gir	-7220
▁mas	-7221
▁wua	-7222
bebre	-7223
blood	-7224
rosse	-7225
ɛrekɔ	-7226
▁duty	-7227
▁enan	-7228
▁fayɛ	-7229
▁hame	-7230
▁left	-7231
▁mayi	-7232
▁mehɔ	-7233
▁mmia	-7234
▁naka	-7235
▁nine	-7236
▁nnwu	-7237
▁nobo	-7238
▁nsum	-7239
▁pudu	-7240
▁pɛmu	-7241
▁real	-7242
▁rebu	-7243
▁somu	-7244
▁sɛso	-7245
▁ɔmmɔ	-7246
▁ɛtrɛ	-7247
▁ɛyɛa	-7248
abufuo	-7249
▁apere	-7250
▁asowo	-7251
▁girla	-7252
▁moara	-7253
▁monmɛ	-7254
▁nanba	-7255
▁nnwui	-7256
▁nodɛn	-7257
▁nsusu	-7258
▁puduo	-7259
▁yansa	-7260
▁yieii	-7261
▁ɔkunu	-7262
▁ɔwɔhe	-7263
▁ɛnwum	-7264
abɛtena	-7265
bebrebe	-7266
▁adɔfoɔ	-7267
▁akɔkra	-7268
▁akɔkyɛ	-7269
▁amount	-7270
▁daanaa	-7271
▁entino	-7272
▁finala	-7273
▁isssue	-7274
▁masino	-7275
▁mebusa	-7276
▁meserɛ	-7277
▁mmɔfra	-7278
▁nawɔne	-7279
▁nobody	-7280
▁ntideɛ	-7281
▁sporta	-7282
▁wonmpɛ	-7283
▁wowura	-7284
▁yɛwiee	-7285
▁ɔnyale	-7286
▁ɔyiine	-7287
▁ɛnnora	-7288
▁ɛnwane	-7289
▁ɛsomaa	-7290
▁ɛtetee	-7291
▁ɛtumii	-7292
▁ɛyaame	-7293
▁ɛyɛpaa	-7294
abɔdwesɛ	-7295
adaasɔre	-7296
adamfofa	-7297
ahusɛnea	-7298
akyerɛsɛ	-7299
eie	-7300
iel	-7301
nfa	-7302
pse	-7303
wua	-7304
...'	-7305
anfo	-7306
anto	-7307
kele	-7308
tebi	-7309
ught	-7310
yama	-7311
yine	-7312
▁mpe	-7313
▁poa	-7314
▁pɛw	-7315
▁tei	-7316
▁ɔnɔ	-7317
▁ɛfo	-7318
▁ɛwu	-7319
anamm	-7320
iesie	-7321
▁aben	-7322
▁aksa	-7323
▁asɛe	-7324
▁dare	-7325
▁dayɛ	-7326
▁fɛsɛ	-7327
▁goli	-7328
▁mapo	-7329
▁masi	-7330
▁mewu	-7331
▁nadi	-7332
▁nimu	-7333
▁ring	-7334
▁same	-7335
▁twan	-7336
▁yeda	-7337
▁yime	-7338
▁ɔdɔa	-7339
▁ɛnia	-7340
kelewa	-7341
kyerɔw	-7342
llapse	-7343
onsent	-7344
ristie	-7345
▁akono	-7346
▁ammen	-7347
▁asowɔ	-7348
▁kwaye	-7349
▁kyɛrɛ	-7350
▁kɛsɛe	-7351
▁maneɛ	-7352
▁meaba	-7353
▁mpata	-7354
▁mpere	-7355
▁mɛfrɛ	-7356
▁naaba	-7357
▁nkɔyi	-7358
▁nsobɛ	-7359
▁sɛakɔ	-7360
▁sɛɛwɔ	-7361
▁tefie	-7362
▁towen	-7363
▁ɔdene	-7364
▁ɔredu	-7365
▁ɛdano	-7366
anammɔn	-7367
asiesie	-7368
hristie	-7369
manyama	-7370
ollapse	-7371
▁agyawo	-7372
▁asaana	-7373
▁biyare	-7374
▁bought	-7375
▁daniel	-7376
▁kyerɔw	-7377
▁lawyer	-7378
▁manhyɛ	-7379
▁nkyine	-7380
▁ogyimi	-7381
▁wonnfa	-7382
▁ɔredue	-7383
akyiring	-7384
amammerɛ	-7385
andwodwo	-7386
anhwehwɛ	-7387
anikoraa	-7388
animmuee	-7389
ankahwee	-7390
asomaawo	-7391
atuafiri	-7392
ayɛpɔtee	-7393
erything	-7394
erywhere	-7395
ghanafoɔ	-7396
grewuuuu	-7397
harleywo	-7398
hriatian	-7399
ern	-7400
how	-7401
ial	-7402
kle	-7403
kor	-7404
tam	-7405
ure	-7406
ɔho	-7407
apae	-7408
kyee	-7409
mɔho	-7410
wote	-7411
▁bad	-7412
▁dia	-7413
▁dub	-7414
▁eer	-7415
▁mbɔ	-7416
▁per	-7417
▁pia	-7418
▁rek	-7419
▁sɔn	-7420
▁ɛpɛ	-7421
agede	-7422
aplan	-7423
nwene	-7424
▁agyɛ	-7425
▁ahaa	-7426
▁assi	-7427
▁kase	-7428
▁kaye	-7429
▁mmpɛ	-7430
▁nabu	-7431
▁nnia	-7432
▁noho	-7433
▁ooow	-7434
▁sɔɔn	-7435
▁wapɛ	-7436
▁yɛpɛ	-7437
▁yɛti	-7438
▁ɔdii	-7439
▁ɛnbɔ	-7440
akyiri	-7441
▁abame	-7442
▁abɛpa	-7443
▁amame	-7444
▁bloss	-7445
▁dubri	-7446
▁enfii	-7447
▁heern	-7448
▁menbɔ	-7449
▁mewee	-7450
▁nosei	-7451
▁paana	-7452
▁soeeɛ	-7453
▁sɔɔnɔ	-7454
▁wanhɛ	-7455
▁ɔdate	-7456
▁ɔkyee	-7457
▁ɔmene	-7458
▁ɔsere	-7459
▁ɛkofa	-7460
▁ɛname	-7461
agedemu	-7462
kyerɛbi	-7463
▁adeɛfo	-7464
▁adeɛna	-7465
▁adrink	-7466
▁akumaa	-7467
▁assist	-7468
▁efrisɛ	-7469
▁kyeame	-7470
▁nabufo	-7471
▁persia	-7472
▁sɛneaɔ	-7473
▁within	-7474
ingsford	-7475
kankyerɛ	-7476
korɔkorɔ	-7477
kuruwamu	-7478
lparents	-7479
mmakakra	-7480
mpaimfoɔ	-7481
mshishiɛ	-7482
ommotion	-7483
panimfoɔ	-7484
rediewei	-7485
saansɛwo	-7486
supporti	-7487
sɛmetire	-7488
tionship	-7489
yaanteeɛ	-7490
▁aanaasɛ	-7491
▁abandon	-7492
▁abomayɛ	-7493
▁adamfoɔ	-7494
▁adanfoɔ	-7495
▁adaroma	-7496
▁adekorɔ	-7497
▁adeɛasa	-7498
▁adeɛnti	-7499
don	-7500
esi	-7501
nsu	-7502
dene	-7503
ened	-7504
hama	-7505
hase	-7506
omes	-7507
onsu	-7508
ross	-7509
▁lor	-7510
▁osu	-7511
twere	-7512
ɛnbue	-7513
▁boaa	-7514
▁enha	-7515
▁gyon	-7516
▁kano	-7517
▁kwaa	-7518
▁lord	-7519
▁news	-7520
▁onyɛ	-7521
▁pene	-7522
▁prim	-7523
▁seia	-7524
▁suma	-7525
▁teha	-7526
▁woke	-7527
▁wosu	-7528
▁wosɔ	-7529
▁wotɔ	-7530
▁ɔnba	-7531
▁ɛdam	-7532
anamɔn	-7533
onsult	-7534
wewewe	-7535
▁annom	-7536
▁ayɛbe	-7537
▁busuo	-7538
▁bɛkye	-7539
▁fofie	-7540
▁kunsu	-7541
▁makye	-7542
▁mensu	-7543
▁mentɔ	-7544
▁moaye	-7545
▁neafo	-7546
▁neawo	-7547
▁paamo	-7548
▁paawo	-7549
▁wakae	-7550
▁wakye	-7551
▁yieei	-7552
▁ɔbɛma	-7553
▁ɛnnra	-7554
▁amotia	-7555
▁anaase	-7556
▁asɛmka	-7557
▁asɛmne	-7558
▁badwam	-7559
▁boaama	-7560
▁brɛbrɛ	-7561
▁frɛɛno	-7562
▁mahama	-7563
▁nanyin	-7564
▁paamoo	-7565
▁papane	-7566
▁wongye	-7567
▁wosika	-7568
▁yɛdene	-7569
▁ɛnyɛbi	-7570
▁adeɛɛyɛ	-7571
▁adwodwo	-7572
▁adwuman	-7573
▁afotuoa	-7574
▁ahennie	-7575
▁ahinfie	-7576
▁ahwease	-7577
▁akansie	-7578
▁akonnua	-7579
▁akonwna	-7580
▁akyɛyɛn	-7581
▁akɔkasa	-7582
▁akɔmkye	-7583
▁amakyɛm	-7584
▁amanɔne	-7585
▁amirika	-7586
▁anigyeɛ	-7587
▁animono	-7588
▁another	-7589
▁anytime	-7590
▁anyɛwoa	-7591
▁asedana	-7592
▁asedawɔ	-7593
▁asomasi	-7594
▁asumdwe	-7595
▁asɔreba	-7596
▁asɔrehɔ	-7597
▁asɛgwie	-7598
▁asɛmbio	-7599
ky	-7600
est	-7601
lls	-7602
rug	-7603
wru	-7604
esem	-7605
nkyɛ	-7606
tuaa	-7607
unde	-7608
▁diɛ	-7609
▁hea	-7610
▁hee	-7611
▁kok	-7612
boawɔ	-7613
kwame	-7614
▁abad	-7615
▁bɛde	-7616
▁diin	-7617
▁drug	-7618
▁gugu	-7619
▁heat	-7620
▁hefa	-7621
▁koaa	-7622
▁kome	-7623
▁kyeɛ	-7624
▁mɛwo	-7625
▁ndaa	-7626
▁node	-7627
▁tehɔ	-7628
▁ɛnhe	-7629
adaama	-7630
daakye	-7631
▁abaso	-7632
▁abayi	-7633
▁abɔde	-7634
▁akɔye	-7635
▁arayi	-7636
▁bohyɛ	-7637
▁bɛnoa	-7638
▁ebera	-7639
▁entim	-7640
▁guest	-7641
▁heeyy	-7642
▁kokua	-7643
▁kɔhwɛ	-7644
▁mbɛto	-7645
▁medaa	-7646
▁mempa	-7647
▁monku	-7648
▁nesaa	-7649
▁obihɔ	-7650
▁wanba	-7651
▁wodaa	-7652
▁wɔtee	-7653
▁yiɛyɛ	-7654
▁yɛhwɛ	-7655
▁ɔgyaa	-7656
▁ɔnnim	-7657
▁ɔnoaa	-7658
▁ɛnɛme	-7659
▁ɛwɔhe	-7660
▁ɛwɔwo	-7661
▁anibrɛ	-7662
▁asɛmpa	-7663
▁baayɛa	-7664
▁edekan	-7665
▁entikɔ	-7666
▁mboawɔ	-7667
▁nadwen	-7668
▁naɔbaa	-7669
▁nimnso	-7670
▁resɔre	-7671
▁sounde	-7672
▁yɛyere	-7673
▁ɔbaabi	-7674
▁ɔbaana	-7675
▁ɔbaane	-7676
▁ɔbaaye	-7677
▁ɛwɔfie	-7678
penamang	-7679
▁asɛmnti	-7680
▁atasiaw	-7681
▁atleast	-7682
▁atɔadeɛ	-7683
▁awanwan	-7684
▁awrehoɔ	-7685
▁awuduro	-7686
▁awɔsena	-7687
▁ayeforɔ	-7688
▁ayoonea	-7689
▁ayɔkofa	-7690
▁ayɛbese	-7691
▁ayɛmmoa	-7692
▁aɛwɔsɛɛ	-7693
▁baabikɔ	-7694
▁baayewa	-7695
▁bebrebe	-7696
▁bebreea	-7697
▁belgium	-7698
▁biarame	-7699
mmu	-7700
who	-7701
ɛho	-7702
asei	-7703
bede	-7704
hale	-7705
moon	-7706
ribe	-7707
▁yet	-7708
dɛmaa	-7709
mufoɔ	-7710
wagye	-7711
whooo	-7712
yaaya	-7713
▁bɔmu	-7714
▁doko	-7715
▁edɛn	-7716
▁foon	-7717
▁gyen	-7718
▁gyeɛ	-7719
▁hɔme	-7720
▁kyɛɛ	-7721
▁nnum	-7722
▁nyra	-7723
▁yent	-7724
▁yess	-7725
▁ɔgye	-7726
▁ɔsei	-7727
auseme	-7728
nkɛnti	-7729
▁amene	-7730
▁angye	-7731
▁apiti	-7732
▁arabe	-7733
▁basei	-7734
▁brewa	-7735
▁gyeba	-7736
▁gyede	-7737
▁gyeno	-7738
▁kɔmma	-7739
▁magye	-7740
▁mmayɛ	-7741
▁moaba	-7742
▁mogye	-7743
▁mosei	-7744
▁munam	-7745
▁nimno	-7746
▁nimso	-7747
▁resho	-7748
▁retwe	-7749
▁sɛnka	-7750
▁wagye	-7751
▁wasei	-7752
▁wɔnhu	-7753
▁yakyɛ	-7754
▁yenhu	-7755
▁yensa	-7756
▁yensi	-7757
▁yerea	-7758
▁yiema	-7759
▁ɔnona	-7760
▁ɔnono	-7761
▁ɛbaeɛ	-7762
ribiara	-7763
wonnwon	-7764
▁adefoɔ	-7765
▁deɛgye	-7766
▁dokota	-7767
▁mangye	-7768
▁metire	-7769
▁ntɛntɛ	-7770
▁papawɔ	-7771
▁rekayi	-7772
▁sikade	-7773
▁wobɛte	-7774
atɔwagye	-7775
▁aduɔson	-7776
▁akɔduro	-7777
▁amotuom	-7778
▁biarana	-7779
▁biarano	-7780
▁bibiaaa	-7781
▁biblemu	-7782
▁bihyehɛ	-7783
▁birirbi	-7784
▁bomofoɔ	-7785
▁bronibi	-7786
▁broniho	-7787
▁bɔdamfo	-7788
▁bɔdamni	-7789
▁bɔnebɛn	-7790
▁bɛbiara	-7791
▁daabioh	-7792
▁daddyne	-7793
▁delilah	-7794
▁despite	-7795
▁details	-7796
▁deɛadɛn	-7797
▁deɛafie	-7798
▁deɛagye	-7799
fata	-7800
gyie	-7801
onta	-7802
tain	-7803
tawa	-7804
▁buo	-7805
▁gru	-7806
▁nre	-7807
▁obu	-7808
▁oku	-7809
▁ɔku	-7810
▁ɔtɔ	-7811
atien	-7812
ayɛsɛ	-7813
▁ahhh	-7814
▁asɛn	-7815
▁bayɛ	-7816
▁bɔna	-7817
▁eine	-7818
▁ewie	-7819
▁fore	-7820
▁kuta	-7821
▁kɔmo	-7822
▁mpan	-7823
▁mprɛ	-7824
▁retɔ	-7825
▁yale	-7826
▁ɔnka	-7827
▁ɔnpɛ	-7828
▁ɛnok	-7829
▁ɛwie	-7830
▁abɛha	-7831
▁abɛyɛ	-7832
▁adɛnw	-7833
▁brana	-7834
▁eiɛnɛ	-7835
▁gatea	-7836
▁haɛnɛ	-7837
▁hwɛma	-7838
▁manda	-7839
▁moate	-7840
▁muayɛ	-7841
▁nkata	-7842
▁nrela	-7843
▁obedi	-7844
▁oburo	-7845
▁tɔade	-7846
▁whole	-7847
▁wonom	-7848
▁ɔndaa	-7849
▁ɛbɛwo	-7850
▁ɛbɛye	-7851
▁ɛnoyɛ	-7852
tertain	-7853
▁abɛhwɛ	-7854
▁apitii	-7855
▁deɛnka	-7856
▁deɛnna	-7857
▁eeiina	-7858
▁hwɛhwɛ	-7859
▁kunune	-7860
▁memmra	-7861
▁nsendi	-7862
▁rekano	-7863
▁toilet	-7864
abamesrɛ	-7865
anhohoro	-7866
▁akyakya	-7867
▁anigyie	-7868
▁biarabɔ	-7869
▁biarabɛ	-7870
▁busuani	-7871
▁deɛnsɛm	-7872
▁deɛɛnyɛ	-7873
▁domaase	-7874
▁domaasi	-7875
▁dompene	-7876
▁dwoodwo	-7877
▁dɛdɛɛdɛ	-7878
▁dɛmaana	-7879
▁dɛnɛnkɔ	-7880
▁ebeduru	-7881
▁eduruso	-7882
▁eeiisei	-7883
▁eeiiɔte	-7884
▁eeisɔfo	-7885
▁ehuadeɛ	-7886
▁eimassa	-7887
▁einanso	-7888
▁ensuwae	-7889
▁enuafoɔ	-7890
▁eprepra	-7891
▁etwatoɔ	-7892
▁ewuraha	-7893
▁fahodie	-7894
▁fasaman	-7895
▁filiino	-7896
▁fingers	-7897
▁firstno	-7898
▁flowers	-7899
sin	-7900
dodo	-7901
hing	-7902
hman	-7903
llam	-7904
▁hah	-7905
▁mpɔ	-7906
▁nia	-7907
▁sit	-7908
▁ɔfi	-7909
adane	-7910
▁aala	-7911
▁braɔ	-7912
▁enfi	-7913
▁mohu	-7914
▁mpɔn	-7915
▁somi	-7916
▁tɔre	-7917
▁wala	-7918
▁wasɛ	-7919
▁watɔ	-7920
▁wɔmm	-7921
▁ɔbɛn	-7922
▁ɔnte	-7923
▁ɔnwɔ	-7924
▁ɔsee	-7925
wurade	-7926
▁anono	-7927
▁ayina	-7928
▁bɛkyɛ	-7929
▁mediɛ	-7930
▁moabɛ	-7931
▁mɛdam	-7932
▁natwa	-7933
▁naɛwɔ	-7934
▁nsoeɛ	-7935
▁wahyɛ	-7936
▁wanbɛ	-7937
▁wankɔ	-7938
▁wanna	-7939
▁wanom	-7940
▁wanua	-7941
▁wanwa	-7942
▁wobio	-7943
▁yɛpɛn	-7944
▁yɛɛpɛ	-7945
▁ɔbɛte	-7946
▁ɔnsin	-7947
nbisawo	-7948
▁asempa	-7949
▁bɛbiaa	-7950
▁enante	-7951
▁little	-7952
▁mallam	-7953
▁mawoɔa	-7954
▁nkyɛeɛ	-7955
▁wanyin	-7956
▁wotiri	-7957
▁ɔbɛgye	-7958
▁ɔbɛhyɛ	-7959
▁ɔnenam	-7960
▁ɛdware	-7961
▁ɛhanom	-7962
▁abɛwura	-7963
▁akohwie	-7964
▁fokakra	-7965
▁forgeti	-7966
▁freedom	-7967
▁friends	-7968
▁gadgets	-7969
▁genesis	-7970
▁germany	-7971
▁ghanaba	-7972
▁ghanabɛ	-7973
▁girlaba	-7974
▁gyaedeɛ	-7975
▁gyaeɛnɛ	-7976
▁gyenaha	-7977
▁gyenahɔ	-7978
▁gyimifo	-7979
▁heeeiii	-7980
▁hellooo	-7981
▁hofasoɔ	-7982
▁hokoraa	-7983
▁hudwoma	-7984
▁hweeɛme	-7985
▁hwehwee	-7986
▁hwiebra	-7987
▁hwiensa	-7988
▁hwɛenim	-7989
▁hwɛɔbaa	-7990
▁hyehyɛm	-7991
▁imagine	-7992
▁insults	-7993
▁introdu	-7994
▁kahyire	-7995
▁kakaraa	-7996
▁kakrame	-7997
▁kakramɛ	-7998
▁kakrane	-7999
ash	-8000
bow	-8001
hmm	-8002
anoa	-8003
▁lip	-8004
▁pɛo	-8005
▁ɔsɔ	-8006
▁ɛhu	-8007
antoa	-8008
ening	-8009
▁aaah	-8010
▁ahwi	-8011
▁anfi	-8012
▁angu	-8013
▁befi	-8014
▁errn	-8015
▁etaa	-8016
▁etia	-8017
▁kyia	-8018
▁magi	-8019
▁ntee	-8020
▁onsi	-8021
▁owie	-8022
▁rest	-8023
▁waiy	-8024
▁wɔbo	-8025
▁wɔne	-8026
▁ɛhia	-8027
anisuo	-8028
double	-8029
▁abawo	-8030
▁abobo	-8031
▁akaho	-8032
▁berbi	-8033
▁binom	-8034
▁bɔnea	-8035
▁dakro	-8036
▁densɛ	-8037
▁esiyɛ	-8038
▁guess	-8039
▁honkɔ	-8040
▁moano	-8041
▁mosuo	-8042
▁mpamu	-8043
▁mpare	-8044
▁okura	-8045
▁onyae	-8046
▁onyin	-8047
▁soabɛ	-8048
▁sɛsɛɛ	-8049
▁works	-8050
▁wosua	-8051
▁yenni	-8052
▁ɔbɛye	-8053
▁ɛnesɛ	-8054
▁ɛnnom	-8055
kerhwie	-8056
▁aasɔre	-8057
▁asuaye	-8058
▁baakoa	-8059
▁deɛsaa	-8060
▁enimwɔ	-8061
▁etwaho	-8062
▁firieɛ	-8063
▁gyawɔn	-8064
▁hyɛpɛɛ	-8065
▁kinten	-8066
▁kunuyɛ	-8067
▁kyewaa	-8068
▁menkyɛ	-8069
▁mufiri	-8070
▁naadɛn	-8071
▁nanano	-8072
▁nkosua	-8073
▁ontumi	-8074
▁strong	-8075
▁wobɛbɔ	-8076
▁wobɛdi	-8077
▁wobɛto	-8078
▁yɛnnim	-8079
▁ɔsɔfoɔ	-8080
▁adwuane	-8081
▁ahyehye	-8082
▁kamaama	-8083
▁kokotii	-8084
▁koraano	-8085
▁koraawo	-8086
▁korenkɔ	-8087
▁kotokuo	-8088
▁krakraa	-8089
▁kuromkɔ	-8090
▁kuromno	-8091
▁kuromtɔ	-8092
▁kɔtɔkro	-8093
▁lastday	-8094
▁maameme	-8095
▁mabrabɔ	-8096
▁madamfo	-8097
▁madamme	-8098
▁magnify	-8099
asu	-8100
hoke	-8101
lina	-8102
▁foa	-8103
▁pay	-8104
▁tiw	-8105
▁ɔbu	-8106
akɔso	-8107
akɔtɔ	-8108
anyem	-8109
asane	-8110
hyɛni	-8111
▁asiɛ	-8112
▁asoa	-8113
▁atin	-8114
▁dwie	-8115
▁guru	-8116
▁kyim	-8117
▁mamo	-8118
▁medu	-8119
▁mehn	-8120
▁nodu	-8121
▁nsre	-8122
▁ntrɛ	-8123
▁sake	-8124
▁titi	-8125
▁waku	-8126
▁well	-8127
▁wogu	-8128
▁ɛfie	-8129
adagye	-8130
akɔakɔ	-8131
animme	-8132
ebiara	-8133
koshie	-8134
taataa	-8135
▁aburo	-8136
▁abɛdu	-8137
▁adesɛ	-8138
▁afeel	-8139
▁anika	-8140
▁asign	-8141
▁deɛnɛ	-8142
▁frɛwo	-8143
▁hweem	-8144
▁mmreɛ	-8145
▁mɛwie	-8146
▁nsaho	-8147
▁these	-8148
▁wedeɛ	-8149
▁yɛakɔ	-8150
▁yɛnni	-8151
▁afɔreɛ	-8152
▁agware	-8153
▁anware	-8154
▁atinka	-8155
▁depapa	-8156
▁deɛɔre	-8157
▁domfoɔ	-8158
▁ehyira	-8159
▁kasaeɛ	-8160
▁kɔroom	-8161
▁mansɛm	-8162
▁mekyɛn	-8163
▁mpanin	-8164
▁mɛkasa	-8165
▁nkakya	-8166
▁nnyɛbi	-8167
▁reyɛno	-8168
▁seasɛm	-8169
▁tumihu	-8170
▁tumika	-8171
▁wabubu	-8172
▁wonboa	-8173
▁wouldn	-8174
▁ɔbaate	-8175
▁ɔhyɛda	-8176
▁ɔmoakɔ	-8177
▁ɔnfata	-8178
▁adekyen	-8179
▁barimaw	-8180
▁hobiara	-8181
▁mahenie	-8182
▁makokoɔ	-8183
▁makwala	-8184
▁mamemma	-8185
▁mamenfa	-8186
▁manware	-8187
▁matɛmsɛ	-8188
▁mebɛgye	-8189
▁medrink	-8190
▁mehonam	-8191
▁mekoraa	-8192
▁mekwesi	-8193
▁mekɔɔyɛ	-8194
▁mempena	-8195
▁mendaye	-8196
▁menfiri	-8197
▁menkyea	-8198
▁menkyen	-8199
loo	-8200
gure	-8201
▁ntɛ	-8202
▁sam	-8203
akaka	-8204
akata	-8205
euros	-8206
kɔpon	-8207
maafa	-8208
ranee	-8209
▁amaa	-8210
▁ammu	-8211
▁asae	-8212
▁ashi	-8213
▁boma	-8214
▁bɛgu	-8215
▁dɔwo	-8216
▁fake	-8217
▁meoo	-8218
▁mɛko	-8219
▁nooo	-8220
▁ntoa	-8221
▁resa	-8222
▁sehɔ	-8223
▁them	-8224
▁tolo	-8225
▁tɔeɛ	-8226
▁wear	-8227
▁wukɔ	-8228
▁ɛfrɛ	-8229
▁ɛngu	-8230
antena	-8231
asɛmho	-8232
reɛnyɛ	-8233
seisei	-8234
▁aniso	-8235
▁asopa	-8236
▁bless	-8237
▁butna	-8238
▁forgi	-8239
▁heeii	-8240
▁honni	-8241
▁hyɛhɔ	-8242
▁kɔsra	-8243
▁mansa	-8244
▁mondi	-8245
▁monya	-8246
▁monye	-8247
▁noaba	-8248
▁onyaa	-8249
▁rekae	-8250
▁sufrɛ	-8251
▁weine	-8252
▁wokan	-8253
▁ɔdɔye	-8254
▁ɔkraa	-8255
▁ɔmooo	-8256
▁ɔwɔsɛ	-8257
ayɛadeɛ	-8258
▁abɛfrɛ	-8259
▁ayɛfam	-8260
▁ayɛfrɛ	-8261
▁berɛyi	-8262
▁dressi	-8263
▁figure	-8264
▁hoasɛm	-8265
▁krotwa	-8266
▁manhwɛ	-8267
▁moasɛm	-8268
▁nkwala	-8269
▁nuabaa	-8270
▁sɔreme	-8271
▁woseme	-8272
▁yɛadom	-8273
bɔneyɛfo	-8274
▁anopayi	-8275
▁emireka	-8276
▁korabea	-8277
▁menpepa	-8278
▁menpɛsɛ	-8279
▁mensomɛ	-8280
▁mentete	-8281
▁mentoma	-8282
▁menwene	-8283
▁menyale	-8284
▁mepusuu	-8285
▁meretɔn	-8286
▁meyɛɛyɛ	-8287
▁mmaatan	-8288
▁mmakuro	-8289
▁mmerɛbɛ	-8290
▁mmerɛne	-8291
▁mmerɛyi	-8292
▁mmienua	-8293
▁mmienuo	-8294
▁mmirika	-8295
▁mmoasem	-8296
▁mmueeyɛ	-8297
▁moabobɔ	-8298
▁moatumi	-8299
doa	-8300
prɔ	-8301
wiyɛ	-8302
▁nwi	-8303
▁ɛtɛ	-8304
denkɔ	-8305
sanie	-8306
water	-8307
▁beyi	-8308
▁hope	-8309
▁kaaa	-8310
▁niea	-8311
▁nyem	-8312
▁wiaa	-8313
▁yɛme	-8314
▁ɔdɔm	-8315
▁ɔwoo	-8316
▁ɔyɔɔ	-8317
anibrɛ	-8318
entumi	-8319
mekɔte	-8320
▁abɛdi	-8321
▁akwaa	-8322
▁ankwa	-8323
▁antwa	-8324
▁baɛbɛ	-8325
▁danmu	-8326
▁debrɛ	-8327
▁ewoso	-8328
▁hoyie	-8329
▁kaaeɛ	-8330
▁kaase	-8331
▁mebrɛ	-8332
▁mmebu	-8333
▁moden	-8334
▁muama	-8335
▁nnwan	-8336
▁nosaa	-8337
▁nowae	-8338
▁other	-8339
▁twewo	-8340
▁tɔbrɛ	-8341
▁tɔkwa	-8342
▁watwe	-8343
▁wawia	-8344
▁wesua	-8345
▁ɔrefa	-8346
▁ɔresu	-8347
▁ɔrete	-8348
▁ɛkɔsi	-8349
▁ɛkɔye	-8350
▁ɛnsan	-8351
denkɔmɔ	-8352
onfiden	-8353
▁afeina	-8354
▁afeiwo	-8355
▁agyeno	-8356
▁babira	-8357
▁bibiar	-8358
▁breaki	-8359
▁dɛnnie	-8360
▁edwire	-8361
▁gyaena	-8362
▁hwanna	-8363
▁kyewwo	-8364
▁menuso	-8365
▁nakwan	-8366
▁nantwe	-8367
▁nyadoa	-8368
▁rekɔfa	-8369
▁retoto	-8370
▁sikakɔ	-8371
▁toriwa	-8372
▁wonkwa	-8373
▁yɛdeɛn	-8374
▁yɛtena	-8375
▁ɔregye	-8376
▁ɛyɛden	-8377
▁agyegye	-8378
▁anaasaa	-8379
▁mayanka	-8380
▁moaware	-8381
▁mogyina	-8382
▁mommyme	-8383
▁mongyae	-8384
▁monkyɛn	-8385
▁montimi	-8386
▁montumi	-8387
▁moresre	-8388
▁morning	-8389
▁mosɛnea	-8390
▁mothers	-8391
▁mpaeɛbɔ	-8392
▁mpaeɛbɛ	-8393
▁mprensa	-8394
▁mpɔtwem	-8395
▁mubaako	-8396
▁mɔbrowa	-8397
▁mɛwieyɛ	-8398
▁naasɛbi	-8399
uga	-8400
dosa	-8401
▁run	-8402
▁wog	-8403
▁ɔmɔ	-8404
▁ɔni	-8405
aadeɛ	-8406
abɛyɛ	-8407
ghter	-8408
muwaa	-8409
wɛneɛ	-8410
▁ahah	-8411
▁anoɔ	-8412
▁asɛi	-8413
▁duha	-8414
▁duna	-8415
▁song	-8416
▁twaa	-8417
▁woya	-8418
▁woye	-8419
▁ɔkra	-8420
▁ɔyea	-8421
▁ɔyem	-8422
▁ɔyɛɛ	-8423
anisaa	-8424
anyame	-8425
▁abano	-8426
▁agooo	-8427
▁anhah	-8428
▁ankra	-8429
▁asɛbi	-8430
▁asɛma	-8431
▁aɛnsɔ	-8432
▁besia	-8433
▁biona	-8434
▁bisaa	-8435
▁hosaa	-8436
▁kabom	-8437
▁kokra	-8438
▁kusie	-8439
▁mesaa	-8440
▁namno	-8441
▁nenso	-8442
▁ntiaa	-8443
▁peteɛ	-8444
▁ponkɔ	-8445
▁renyɛ	-8446
▁totoo	-8447
▁waboa	-8448
▁woabɛ	-8449
▁wonbu	-8450
▁wopre	-8451
▁wɔnte	-8452
▁yaana	-8453
▁yisaa	-8454
▁ɔsosɔ	-8455
▁ɛbata	-8456
▁ɛdaso	-8457
▁ɛreku	-8458
▁ɛrema	-8459
▁ɛresa	-8460
▁aboano	-8461
▁awurad	-8462
▁bɛyere	-8463
▁enkasa	-8464
▁future	-8465
▁hanpan	-8466
▁nenkwa	-8467
▁rebɛfa	-8468
▁rebɛtu	-8469
▁redosa	-8470
▁wakasa	-8471
▁wonkra	-8472
▁yaadeɛ	-8473
▁yeahne	-8474
▁yɛkasa	-8475
▁ɔmonyɛ	-8476
▁ɛretwe	-8477
▁atwɛneɛ	-8478
▁dɔhwere	-8479
▁fighter	-8480
▁menkasa	-8481
▁naaɔbaa	-8482
▁nabɔkɔɔ	-8483
▁nadaabi	-8484
▁nadwene	-8485
▁nadwuma	-8486
▁naghana	-8487
▁namkwan	-8488
▁namtuaa	-8489
▁nansome	-8490
▁nantepo	-8491
▁nantweɛ	-8492
▁nanyame	-8493
▁nawonso	-8494
▁naɔrede	-8495
▁naɔreyɛ	-8496
▁nbuadeɛ	-8497
▁ndidieɛ	-8498
▁nemaame	-8499
ket	-8500
▁abuo	-8501
▁resom	-8502
▁yɛkaa	-8503
▁akyɛbɛ	-8504
▁twetwe	-8505
▁mmanfoɔ	-8506
▁nenkasa	-8507
▁nepadua	-8508
▁nepagya	-8509
▁neɛntia	-8510
▁ngyegye	-8511
▁ngyindi	-8512
▁nisuona	-8513
▁nkitaho	-8514
▁nkoterɛ	-8515
▁nkoware	-8516
▁nkyerɛɛ	-8517
▁nnamfoɔ	-8518
▁nnimnea	-8519
▁nniɔbaa	-8520
▁nnyaebɔ	-8521
▁nnyenni	-8522
▁noefiri	-8523
▁nohyehɛ	-8524
▁nokoraa	-8525
▁noyɛfrɛ	-8526
▁nsaberɛ	-8527
▁nsosoeɛ	-8528
▁nsumnam	-8529
▁nsutade	-8530
▁nsɛmsɛm	-8531
▁ntesika	-8532
▁ntetemu	-8533
▁ntisɛbi	-8534
▁ntwaaso	-8535
▁nwasena	-8536
▁nwumtoɔ	-8537
▁nyamebɛ	-8538
▁nyamehɔ	-8539
▁nyameso	-8540
▁nyankop	-8541
▁nyinara	-8542
▁nɛkorso	-8543
▁obaanka	-8544
▁oboaboa	-8545
▁oburoni	-8546
▁ohdaabi	-8547
▁ohwonso	-8548
▁okayyoo	-8549
▁ompaebɔ	-8550
▁ongyina	-8551
▁onipano	-8552
▁oohmasa	-8553
▁osimesi	-8554
▁outside	-8555
▁owudini	-8556
▁paanyin	-8557
▁pakyere	-8558
▁papaapa	-8559
▁planned	-8560
▁playman	-8561
▁poolege	-8562
▁portion	-8563
▁prayɛwo	-8564
▁promise	-8565
▁rainbow	-8566
▁redekan	-8567
▁redelay	-8568
▁refeeli	-8569
▁rekaasɛ	-8570
▁rekasɛɛ	-8571
▁rekɔfrɛ	-8572
▁renkɔka	-8573
▁renyini	-8574
▁results	-8575
▁retetee	-8576
▁retueni	-8577
▁reyɛafa	-8578
▁saaasɛm	-8579
▁saaline	-8580
▁saneama	-8581
▁sedaabi	-8582
▁seisiaa	-8583
▁senatus	-8584
▁sikasem	-8585
▁singlet	-8586
▁skelewa	-8587
▁sofasoɔ	-8588
▁soldier	-8589
▁someone	-8590
▁started	-8591
▁station	-8592
▁student	-8593
▁studies	-8594
▁support	-8595
▁sɔfowei	-8596
▁sɔɔsɔɔɔ	-8597
▁sɛbaako	-8598
▁sɛdaabi	-8599
▁sɛennyɛ	-8600
▁sɛkurom	-8601
▁sɛlumba	-8602
▁sɛneame	-8603
▁sɛnyame	-8604
▁sɛɔmmra	-8605
▁talking	-8606
▁tenaase	-8607
▁tetefie	-8608
▁thisage	-8609
▁thwenty	-8610
▁timeaso	-8611
▁towenim	-8612
▁trokaaa	-8613
▁tsooboi	-8614
▁twitwia	-8615
▁wabɔsoɔ	-8616
▁wadamfo	-8617
▁wadanfo	-8618
▁wadwuma	-8619
▁wagadri	-8620
▁wagyina	-8621
▁wakyerɛ	-8622
▁wanbisa	-8623
▁wangyae	-8624
▁wanhɛwɛ	-8625
▁wanigye	-8626
▁wankasa	-8627
▁wapagya	-8628
▁watease	-8629
▁watwene	-8630
▁weekend	-8631
▁whether	-8632
▁wobaaeɛ	-8633
▁wobiara	-8634
▁woboase	-8635
▁wobɛhwɛ	-8636
▁wobɛtea	-8637
▁wobɛtoo	-8638
▁wokurom	-8639
▁wommerɛ	-8640
▁wonanso	-8641
▁wongyae	-8642
▁wonkura	-8643
▁wonkyen	-8644
▁wonsana	-8645
▁wonsoeɛ	-8646
▁wonsona	-8647
▁wontimi	-8648
▁wonyame	-8649
▁worekan	-8650
▁worenyɛ	-8651
▁wosesei	-8652
▁wotease	-8653
▁wɔasɔre	-8654
▁wɔgyena	-8655
▁yarefoɔ	-8656
▁yayaaya	-8657
▁yengyae	-8658
▁yentwen	-8659
▁yeredeɛ	-8660
▁yerenum	-8661
▁yibaako	-8662
▁yirrrrr	-8663
▁yooɛneɛ	-8664
▁yɛbaako	-8665
▁yɛbiara	-8666
▁yɛhonam	-8667
▁yɛɛnnyɛ	-8668
▁ɔbaaayɛ	-8669
▁ɔbaawei	-8670
▁ɔbarima	-8671
▁ɔdehyeɛ	-8672
▁ɔdɔyewu	-8673
▁ɔhwehwɛ	-8674
▁ɔmoyere	-8675
▁ɔmpɛbra	-8676
▁ɔndwane	-8677
▁ɔngyina	-8678
▁ɔnimwei	-8679
▁ɔnnwene	-8680
▁ɔntɔkwa	-8681
▁ɔpanyin	-8682
▁ɔpimfoɔ	-8683
▁ɔseyere	-8684
▁ɔsososo	-8685
▁ɔteaame	-8686
▁ɔtemase	-8687
▁ɔteɛtia	-8688
▁ɛbrɛaba	-8689
▁ɛbɛfata	-8690
▁ɛbɛtete	-8691
▁ɛdeabrɛ	-8692
▁ɛfrefre	-8693
▁ɛfriend	-8694
▁ɛkwanso	-8695
▁ɛmmerma	-8696
▁ɛmomɔmo	-8697
▁ɛnkasei	-8698
▁ɛnkateɛ	-8699
▁ɛnkwala	-8700
▁ɛnniobi	-8701
▁ɛnnoɔma	-8702
▁ɛntɔkwa	-8703
▁ɛnyɛbad	-8704
▁ɛnyɛdam	-8705
▁ɛrebobɔ	-8706
▁ɛrebɛfa	-8707
▁ɛrewoso	-8708
▁ɛsanesɛ	-8709
▁ɛwɔdowɔ	-8710
aduaneɛne	-8711
agyimisaa	-8712
ahuawiase	-8713
akanyinaa	-8714
akyeakyea	-8715
akyekyere	-8716
boyfriend	-8717
etenketen	-8718
frenkyibɔ	-8719
haleykwan	-8720
inderella	-8721
kyekyekye	-8722
ontumpunu	-8723
prrrriiim	-8724
ueennkasa	-8725
ueensesei	-8726
▁abamsoro	-8727
▁abrabɔno	-8728
▁abromeso	-8729
▁abusuane	-8730
▁abusuani	-8731
▁abɔdwesɛ	-8732
▁abɛgyina	-8733
▁abɛkyerɛ	-8734
▁adaagyeɛ	-8735
▁adekyemu	-8736
▁adeɛabrɛ	-8737
▁adeɛanaa	-8738
▁adeɛfofo	-8739
▁adeɛmmrɛ	-8740
▁adwumayi	-8741
▁adwumayɛ	-8742
▁agoprama	-8743
▁aguareyɛ	-8744
▁ahebiara	-8745
▁ahokyere	-8746
▁ahomakyi	-8747
▁ahomasoɔ	-8748
▁ahonhono	-8749
▁ahoɔfɛso	-8750
▁ahwieegu	-8751
▁ahyɛnsoɔ	-8752
▁akabiara	-8753
▁akronfoɔ	-8754
▁akuraase	-8755
▁akwantuo	-8756
▁akyerɛsɛ	-8757
▁akɔneaba	-8758
▁akɔnhoma	-8759
▁amamenua	-8760
▁amoateng	-8761
▁anaasɛyɛ	-8762
▁aniamoho	-8763
▁aniamɔho	-8764
▁anointed	-8765
▁anuonyam	-8766
▁apapafoɔ	-8767
▁asegyerɛ	-8768
▁asekyerɛ	-8769
▁asesafɔm	-8770
▁asoredam	-8771
▁asoredem	-8772
▁asukɛseɛ	-8773
▁asumasea	-8774
▁asɔfodie	-8775
▁asɔfosɛm	-8776
▁asɔredan	-8777
▁atetesem	-8778
▁atitiriw	-8779
▁awerɛhoɔ	-8780
▁awofoɔhɔ	-8781
▁ayerefoɔ	-8782
▁ayeyiama	-8783
▁ayɛhonam	-8784
▁baabɛsia	-8785
▁baanaasɛ	-8786
▁barimabi	-8787
▁barimane	-8788
▁barimawo	-8789
▁bathroom	-8790
▁bebirebe	-8791
▁bebreebe	-8792
▁bebreeno	-8793
▁biabɔdam	-8794
▁bibiarao	-8795
▁bigyimii	-8796
▁biribiso	-8797
▁bisafiri	-8798
▁bitibiti	-8799
▁boamassa	-8800
▁busuofoɔ	-8801
▁butwodeɛ	-8802
▁bɔhwehwɛ	-8803
▁bɔkɔɔdeɛ	-8804
▁bɔɔɛdwom	-8805
▁bɛnnnyae	-8806
▁daakyebi	-8807
▁daakyɛwo	-8808
▁dededede	-8809
▁dempadeɛ	-8810
▁deɛbible	-8811
▁deɛgyimi	-8812
▁deɛsesei	-8813
▁deɛɔreyɛ	-8814
▁deɛɛrekɔ	-8815
▁differen	-8816
▁dinkunim	-8817
▁dodoɔsɛn	-8818
▁drinkbrɛ	-8819
▁dufudufu	-8820
▁dwakɛseɛ	-8821
▁edikanso	-8822
▁edummerɛ	-8823
▁edwirime	-8824
▁eeeeiiii	-8825
▁eeeiiɔdɔ	-8826
▁eeiianka	-8827
▁eeiidear	-8828
▁enfiriwo	-8829
▁ennisɛwo	-8830
▁entoasoɔ	-8831
▁enwumerɛ	-8832
▁etumiakɔ	-8833
▁faadrink	-8834
▁faahodie	-8835
▁football	-8836
▁forgetti	-8837
▁ghanaian	-8838
▁gyebiara	-8839
▁gyenaɛna	-8840
▁gyimiebi	-8841
▁gyingyin	-8842
▁happened	-8843
▁hoedwiri	-8844
▁hweembrɛ	-8845
▁hɔhoɔɛwɔ	-8846
▁hɔobiara	-8847
▁kaakyerɛ	-8848
▁kabiribi	-8849
▁kakraafa	-8850
▁kakraɛyɛ	-8851
▁kekansɛm	-8852
▁kitakita	-8853
▁kohwinii	-8854
▁kokrokoo	-8855
▁konokono	-8856
▁koraaaho	-8857
▁koraanso	-8858
▁korɔmfoɔ	-8859
▁krakyewo	-8860
▁kurokɛse	-8861
▁kurokɛsɛ	-8862
▁kuromakɔ	-8863
▁kuromani	-8864
▁kurɔnfoɔ	-8865
▁kyerɛsɛm	-8866
▁maamedeɛ	-8867
▁maamewei	-8868
▁madanfoɔ	-8869
▁mahwehwɛ	-8870
▁makayerɛ	-8871
▁makyerɛw	-8872
▁manidaso	-8873
▁mayinsɛn	-8874
▁mayɛwild	-8875
▁meankasa	-8876
▁mendwene	-8877
▁mengyina	-8878
▁menhyɛda	-8879
▁mensapan	-8880
▁mentetee	-8881
▁mepakyɛw	-8882
▁merebisa	-8883
▁merekasa	-8884
▁mesiesie	-8885
▁metirimu	-8886
▁metumide	-8887
▁mmaghana	-8888
▁mmerɛaso	-8889
▁mmoframa	-8890
▁mmranteɛ	-8891
▁moasɛdeɛ	-8892
▁mobehunu	-8893
▁montease	-8894
▁mpaeansa	-8895
▁mpenafoɔ	-8896
▁muanaasɛ	-8897
▁mɛhwehwɛ	-8898
▁nahindie	-8899
▁nansoɔse	-8900
▁nawobɛyɛ	-8901
▁nawotwea	-8902
▁nayinsɛn	-8903
▁naɛkyerɛ	-8904
▁neafotuo	-8905
▁nebarima	-8906
▁nekwasea	-8907
▁nennɛama	-8908
▁nentease	-8909
▁nesoɔben	-8910
▁nfigyire	-8911
▁nhyirawo	-8912
▁nkakyerɛ	-8913
▁nkorɔfoɔ	-8914
▁nkwaadaa	-8915
▁nkɔmɔdeɛ	-8916
▁nneɛmabi	-8917
▁nneɛmapa	-8918
▁nnompemu	-8919
▁nobarima	-8920
▁nodaakye	-8921
▁nonkyerɛ	-8922
▁noɛɛadɛn	-8923
▁nsekusɛm	-8924
▁nsemhunu	-8925
▁nsiannyɛ	-8926
▁nyameayɛ	-8927
▁nyamesem	-8928
▁nyameɔbɛ	-8929
▁nyansani	-8930
▁nyinaade	-8931
▁nyinaame	-8932
▁nyinaano	-8933
▁nyinaate	-8934
▁obronibɛ	-8935
▁oduyɛfoɔ	-8936
▁onyinsɛn	-8937
▁osɔfosaa	-8938
▁panyinmu	-8939
▁papaasan	-8940
▁pawakyew	-8941
▁pawokyew	-8942
▁pinamang	-8943
▁prophets	-8944
▁proposal	-8945
▁redaadaa	-8946
▁rehwewhɛ	-8947
▁rekaasɛm	-8948
▁rekekano	-8949
▁rekyekyɛ	-8950
▁resiesie	-8951
▁reteetee	-8952
▁retwesɛn	-8953
▁reyɛdeɛn	-8954
▁reyɛɔbaa	-8955
▁sebɛbiaa	-8956
▁seobiara	-8957
▁seseiame	-8958
▁seseidɛn	-8959
▁sharonma	-8960
▁soakyerɛ	-8961
▁sotietie	-8962
▁spanners	-8963
▁speaking	-8964
▁spiritua	-8965
▁straight	-8966
▁stranded	-8967
▁sympathy	-8968
▁sɔfokaeɛ	-8969
▁sɛneaobi	-8970
▁sɛnneɛma	-8971
▁sɛɔnonso	-8972
▁tenasebɛ	-8973
▁titirewɔ	-8974
▁together	-8975
▁tuabills	-8976
▁tutubɔtɔ	-8977
▁twintwan	-8978
▁wagyadri	-8979
▁wahuɛyaa	-8980
▁wanimase	-8981
▁wastarte	-8982
▁wateaseɛ	-8983
▁watenase	-8984
▁woankasa	-8985
▁wobiaraa	-8986
▁wobɛhunu	-8987
▁wobɛkasa	-8988
▁wodebɔne	-8989
▁woefrisɛ	-8990
▁wohwehwɛ	-8991
▁wonsaone	-8992
▁wonteiti	-8993
▁worekasa	-8994
▁woteedeɛ	-8995
▁woteetee	-8996
▁wowobefa	-8997
▁wɔadwuma	-8998
▁wɔbiribi	-8999
▁yebɛtimi	-9000
▁yibarima	-9001
▁yieadeɛn	-9002
▁yoomaame	-9003
▁yooɛkwan	-9004
▁yɛbosome	-9005
▁ɔhemaawɔ	-9006
▁ɔmoaware	-9007
▁ɔnokoraa	-9008
▁ɔntenase	-9009
▁ɔnyinsɛn	-9010
▁ɛbɛyɛdɛn	-9011
▁ɛdeɛntia	-9012
▁ɛfikyire	-9013
▁ɛhweɛpaa	-9014
▁ɛneebiaa	-9015
▁ɛneɛagya	-9016
▁ɛnkrofoɔ	-9017
▁ɛnkrofuɔ	-9018
▁ɛnmiemia	-9019
▁ɛnneɛmma	-9020
▁ɛnokware	-9021
▁ɛnyɛbɔne	-9022
▁ɛnyɛhwee	-9023
▁ɛnɛnyame	-9024
▁ɛrekyerɛ	-9025
▁ɛsansɛsɛ	-9026
▁ɛwɔsɛɛwo	-9027
▁ɛyɛkakra	-9028
▁ɛyɛnyame	-9029
adamfopapa	-9030
ahyehyɛdeɛ	-9031
akyiridini	-9032
angyaegyae	-9033
anhwehwɛme	-9034
harleyɔbaa	-9035
lassmatebi	-9036
predeprede	-9037
ustomerdeɛ	-9038
▁abigailyɛ	-9039
▁abɔntenna	-9040
▁adeɛbiara	-9041
▁adibarima	-9042
▁adwenkorɔ	-9043
▁agyapadeɛ	-9044
▁agyidifoɔ	-9045
▁agyimifoɔ	-9046
▁ahintasem	-9047
▁ahyiahyia	-9048
▁akwantuom	-9049
▁akyewadeɛ	-9050
▁anadwobre	-9051
▁anadwobrɛ	-9052
▁aniamoɔho	-9053
▁animguase	-9054
▁ankasanie	-9055
▁anwunmerɛ	-9056
▁anyinnyin	-9057
▁anyɛwoaho	-9058
▁apedwafoɔ	-9059
▁apopofono	-9060
▁apportion	-9061
▁aprosifoɔ	-9062
▁asamanfoɔ	-9063
▁asetenamu	-9064
▁aseyafter	-9065
▁asomdwemu	-9066
▁asomdwoeɛ	-9067
▁asomuadeɛ	-9068
▁asugyafoɔ	-9069
▁asɛasɔfoɔ	-9070
▁attention	-9071
▁awanwasɛm	-9072
▁awewewewe	-9073
▁awobɛtumi	-9074
▁ayeyɛyeyɛ	-9075
▁barimaabɛ	-9076
▁barimaɔdɔ	-9077
▁bebreenam	-9078
▁befitting	-9079
▁beribiara	-9080
▁biaraɛnyɛ	-9081
▁boyfriend	-9082
▁brɛɛonipa	-9083
▁dadaadawo	-9084
▁dangerous	-9085
▁deakotene	-9086
▁deɛbarima	-9087
▁entertain	-9088
▁entimmerɛ	-9089
▁enwummere	-9090
▁forgotten	-9091
▁foɔnyinaa	-9092
▁frenkyibɔ	-9093
▁gyegyefoɔ	-9094
▁honeymoon	-9095
▁hwiedrink	-9096
▁important	-9097
▁impressed	-9098
▁initially	-9099
▁kakraabut	-9100
▁katakyire	-9101
▁kingsford	-9102
▁kontomire	-9103
▁krakrakra	-9104
▁kumasifoɔ	-9105
▁kurasenii	-9106
▁kurasesɛm	-9107
▁kurommahu	-9108
▁kwaseasɛm	-9109
▁kɔwensani	-9110
▁maameɔnyɛ	-9111
▁madwenemu	-9112
▁mapaakyɛw	-9113
▁materials	-9114
▁meamɔtoam	-9115
▁mebibiara	-9116
▁menbebisa	-9117
▁menhwehwɛ	-9118
▁menkyerɔw	-9119
▁meproblem	-9120
▁mepwokyew	-9121
▁meregyena	-9122
▁merekaasa	-9123
▁mesupport	-9124
▁mewɔfaase	-9125
▁mfempadeɛ	-9126
▁mfihyiayi	-9127
▁mpanyinfo	-9128
▁mɛnyinsɛn	-9129
▁naabuebue	-9130
▁naawurade	-9131
▁nakyerɛsɛ	-9132
▁nframaafa	-9133
▁nightmare	-9134
▁nipadodoɔ	-9135
▁nkokwaasa	-9136
▁nkumaafoɔ	-9137
▁nkyekyere	-9138
▁nnahɔɔtɔɔ	-9139
▁nnanfofoɔ	-9140
▁nneɛmaegu	-9141
▁nneɛmaɛwɔ	-9142
▁nnibarima	-9143
▁nnimdrink	-9144
▁nnimneɛma	-9145
▁nokwarepa	-9146
▁npaninfoɔ	-9147
▁nsamanfoɔ	-9148
▁nwosowoso	-9149
▁nyameanim	-9150
▁nyamesuro	-9151
▁nyankɔpon	-9152
▁nyinaaayɛ	-9153
▁nyinaawie	-9154
▁nyinaaɛyɛ	-9155
▁obaahemaa	-9156
▁obiaranni	-9157
▁obrempong	-9158
▁ogyimifoɔ	-9159
▁paaadwene	-9160
▁partygirl	-9161
▁promiseno	-9162
▁pɛsɛmenko	-9163
▁redenkɔmɔ	-9164
▁regyagyae	-9165
▁rekasayie	-9166
▁rekɔkurom	-9167
▁reporting	-9168
▁senahonya	-9169
▁seseiberɛ	-9170
▁somewhere	-9171
▁sukɔnomaa	-9172
▁sɛdabiara	-9173
▁sɛmedaase	-9174
▁sɛmenhyia	-9175
▁sɛnbarima	-9176
▁sɛneaɔhyɛ	-9177
▁taaakyire	-9178
▁tebɛbiara	-9179
▁telephone	-9180
▁tobibiara	-9181
▁weinkyerɛ	-9182
▁wieakyire	-9183
▁wirehyɛmu	-9184
▁wofiewura	-9185
▁wohokafoɔ	-9186
▁wonderful	-9187
▁wonkrofoɔ	-9188
▁woregyena	-9189
▁wɔproblem	-9190
▁wɔrekyerɛ	-9191
▁yɛadamfoɔ	-9192
▁yɛkɔkɔnsa	-9193
▁yɛnteaseɛ	-9194
▁yɛtininto	-9195
▁ɔbaapayin	-9196
▁ɔbaaɔrebu	-9197
▁ɔbɔdɔbede	-9198
▁ɔmanghana	-9199
▁ɔmommienu	-9200
▁ɔmonyinaa	-9201
▁ɔnonsoayɛ	-9202
▁ɔpawokyew	-9203
▁ɔrekenkan	-9204
▁ɔretaataa	-9205
▁ɛkomhyɛni	-9206
▁ɛkyekyere	-9207
▁ɛkyewadeɛ	-9208
▁ɛsaansɛwo	-9209
▁ɛsupporti	-9210
▁ɛyɛnokorɛ	-9211
▁ɛyɛnwonwa	-9212
agyimipapaa	-9213
▁aabrokyire	-9214
▁abaayewabi	-9215
▁adwumasini	-9216
▁adɛnbiribi	-9217
▁adɛnkrakye	-9218
▁ahometesem	-9219
▁akwaababio	-9220
▁akyenkyene	-9221
▁akyimonyam	-9222
▁akyɛansana	-9223
▁amabibiara	-9224
▁amanɔneɛne	-9225
▁anaasɛɔbaa	-9226
▁anhwɛkoraa	-9227
▁ansaanaobi	-9228
▁asorepanin	-9229
▁assemblies	-9230
▁asuanneɛma	-9231
▁asɛmketewa	-9232
▁atoawurade	-9233
▁awaresɛnea	-9234
▁barimadodo	-9235
▁barimakɔso	-9236
▁basketball	-9237
▁bibiaraɛbɛ	-9238
▁boniayɛsɛm	-9239
▁borgamaame	-9240
▁breastfeed	-9241
▁daabiarawo	-9242
▁defilement	-9243
▁dislikings	-9244
▁eeerrrrnnn	-9245
▁eeiawurade	-9246
▁eighthours	-9247
▁firiionipa	-9248
▁ghanafoɔmo	-9249
▁gyebabiara	-9250
▁headkakraa	-9251
▁honambaako	-9252
▁househelps	-9253
▁hyiahyiaeɛ	-9254
▁koowakoowa	-9255
▁koraaɛnbue	-9256
▁krakyefiri	-9257
▁kruokɛsɛmu	-9258
▁kuraasenii	-9259
▁maamesesei	-9260
▁mabusuafoɔ	-9261
▁makomkyere	-9262
▁medaasepaa	-9263
▁menantesea	-9264
▁mmabibiara	-9265
▁mpanyinfoɔ	-9266
▁mpɛadamfoɔ	-9267
▁nanakansoa	-9268
▁nkunimdeɛa	-9269
▁nkwaseafoɔ	-9270
▁nniadamfoɔ	-9271
▁nobasabasa	-9272
▁nokwarefoɔ	-9273
▁ntawantawa	-9274
▁nyaaadagye	-9275
▁nyamanyama	-9276
▁nyamehyira	-9277
▁nyankopong	-9278
▁ompanimfoɔ	-9279
▁onimnneɛma	-9280
▁papapapapa	-9281
▁problemwɔn	-9282
▁prohibited	-9283
▁rekanyinaa	-9284
▁rekyekyere	-9285
▁remmakakra	-9286
▁renweenwee	-9287
▁reyɛbiribi	-9288
▁saaɛrenkyɛ	-9289
▁samankoraa	-9290
▁senahenepa	-9291
▁seseighana	-9292
▁suspension	-9293
▁sɛghanafoɔ	-9294
▁tafrakyɛme	-9295
▁teaseɛawuo	-9296
▁titiriwpaa	-9297
▁weiillegal	-9298
▁woayɔnkofa	-9299
▁wonamfofoɔ	-9300
▁wonyinasoɔ	-9301
▁yooansaana	-9302
▁yɛgyegyere	-9303
▁yɛtintinto	-9304
▁ɔpawoakyew	-9305
▁ɔrehyiraaw	-9306
▁ɔsomkwafoɔ	-9307
▁ɛnaamanɔne	-9308
▁ɛnyaanteeɛ	-9309
▁ɛpawoakyew	-9310
▁ɛyaahwehwɛ	-9311
papapapapapa	-9312
▁abrokyireno	-9313
▁adwenedwene	-9314
▁afotuokakra	-9315
▁akakabensɛm	-9316
▁asetenaadeɛ	-9317
▁asobrakyerɛ	-9318
▁asɔreadwuma	-9319
▁atitirewfoɔ	-9320
▁ayɛmshishiɛ	-9321
▁baabibebree	-9322
▁baseafoɔɔmo	-9323
▁biaraɛremma	-9324
▁biribikyerɛ	-9325
▁dabiarametu	-9326
▁eduasabaako	-9327
▁eeiiabigail	-9328
▁established	-9329
▁fɛfɛɛfɛfɛfɛ	-9330
▁ghananyinaa	-9331
▁hoabrokyire	-9332
▁kakraakyerɛ	-9333
▁kakraesansɛ	-9334
▁kuromnneɛma	-9335
▁maamebosome	-9336
▁mayɛbibiara	-9337
▁menkankyerɛ	-9338
▁merekakyerɛ	-9339
▁merenbisawo	-9340
▁moadaworoma	-9341
▁mpanimfoɔbi	-9342
▁mpontumpunu	-9343
▁nketenketen	-9344
▁nkuraasesɛm	-9345
▁nnebɔneyɛfo	-9346
▁nneɛmaɛrekɔ	-9347
▁nsenkyereni	-9348
▁nsɛnkyereni	-9349
▁nyinaaɛnbom	-9350
▁rekyekyekye	-9351
▁renyɛmmienu	-9352
▁resuanneɛma	-9353
▁sɛbianammɔn	-9354
▁tankuruwamu	-9355
▁wodeɛgyimii	-9356
▁ɔrehyiraawo	-9357
▁ɔrekorɔkorɔ	-9358
▁ɛkyerɛkyerɛ	-9359
▁ɛniayonkofa	-9360
nkɛntinkɛntin	-9361
onstitutional	-9362
▁abrokyiredeɛ	-9363
▁agyampaimfoɔ	-9364
▁akwankyerɛbi	-9365
▁animuonyamno	-9366
▁ayɔnkogorɔsɛ	-9367
▁bebreeanaasɛ	-9368
▁bibiaranyame	-9369
▁bitibitibiti	-9370
▁dadaadadrink	-9371
▁deɛmpanimfoɔ	-9372
▁disappointed	-9373
▁doubledouble	-9374
▁hoanimuonyam	-9375
▁maayɔnkogorɔ	-9376
▁narekyekyere	-9377
▁nisuobebrebe	-9378
▁nneɛmabebree	-9379
▁nwonnwonnwon	-9380
▁nyankopɔnmaa	-9381
▁nyankopɔnwei	-9382
▁professional	-9383
▁rekangenesis	-9384
▁relationship	-9385
▁sɛbitafrakyɛ	-9386
▁ɛnampanimfoɔ	-9387
▁abrokyireakyɛ	-9388
▁abrokyireɛnyɛ	-9389
▁ayɔnkogorɔsei	-9390
▁barimatitinto	-9391
▁kyekyerekurom	-9392
▁mmebusɛmetire	-9393
▁nkyerekyeremu	-9394
▁onyankopɔnɛde	-9395
▁reteteebarima	-9396
▁understanding	-9397
▁ɛyɛayɔnkogorɔ	-9398
▁hɔnkakrankakra	-9399
▁nonkakrankakra	-9400
▁pɛsɛmenkomenya	-9401
▁deɛnkakrankakra	-9402
▁nkakrankakraɛbɛ	-9403
▁twitwiarediewei	-9404
atɛ	-9405
flo	-9406
oaw	-9407
ohn	-9408
puu	-9409
rnn	-9410
ulu	-9411
aapɔ	-9412
abua	-9413
afof	-9414
ammɔ	-9415
apem	-9416
atam	-9417
atwi	-9418
awoɔ	-9419
awre	-9420
brew	-9421
byee	-9422
dwee	-9423
dɔkɔ	-9424
dɛsɛ	-9425
erge	-9426
hwii	-9427
kpon	-9428
krok	-9429
meyɔ	-9430
nkɔm	-9431
nnra	-9432
ntan	-9433
ntok	-9434
oboo	-9435
pram	-9436
spis	-9437
taga	-9438
tmuɔ	-9439
toni	-9440
toro	-9441
twon	-9442
twoo	-9443
wamh	-9444
wwee	-9445
wyan	-9446
ɛdan	-9447
ɛnnɛ	-9448
▁etw	-9449
▁hɛd	-9450
▁ngɔ	-9451
▁ɔid	-9452
▁ɔpɔ	-9453
▁ɛpɔ	-9454
abutu	-9455
adawo	-9456
adeda	-9457
agyai	-9458
agyan	-9459
amuna	-9460
annya	-9461
antam	-9462
apomu	-9463
asisi	-9464
asusu	-9465
bankɛ	-9466
dwamu	-9467
dwoye	-9468
endua	-9469
entia	-9470
fantɔ	-9471
femam	-9472
fiisɛ	-9473
flotu	-9474
hahaa	-9475
iamia	-9476
inham	-9477
kaamo	-9478
kanii	-9479
konon	-9480
kuoda	-9481
kyɛdɛ	-9482
kɔyɛɛ	-9483
luulu	-9484
metan	-9485
monfa	-9486
monye	-9487
nemam	-9488
nmmoa	-9489
ntoma	-9490
ntwon	-9491
pɛɛsi	-9492
rtwom	-9493
shieɛ	-9494
sitle	-9495
sukuu	-9496
tamkɔ	-9497
tempt	-9498
tiamu	-9499
pii	-9500
adii	-9501
eteɛ	-9502
imii	-9503
nsam	-9504
poso	-9505
rega	-9506
tmfo	-9507
▁ɛkɛ	-9508
antie	-9509
eduru	-9510
forma	-9511
neasa	-9512
nkwan	-9513
posop	-9514
tteng	-9515
tukor	-9516
tɔɔyɛ	-9517
unyam	-9518
waise	-9519
wobue	-9520
wodea	-9521
wonim	-9522
wonsa	-9523
wonum	-9524
woowo	-9525
wuama	-9526
wumrɛ	-9527
wɔnko	-9528
yansa	-9529
yɛkaa	-9530
yɛnho	-9531
ɔsofo	-9532
ɔwtwe	-9533
ɛkɔbɔ	-9534
ɛkɔhɔ	-9535
ɛnneɛ	-9536
ɛɛfoo	-9537
▁aaaa	-9538
▁adae	-9539
▁aefi	-9540
▁afir	-9541
▁alol	-9542
▁apat	-9543
▁atai	-9544
▁awhe	-9545
▁bodɛ	-9546
▁bonw	-9547
▁diem	-9548
▁dɔdɔ	-9549
▁efis	-9550
▁epue	-9551
▁errh	-9552
▁esum	-9553
▁etwi	-9554
▁funi	-9555
▁futu	-9556
▁gafa	-9557
▁hwre	-9558
▁hyea	-9559
▁loan	-9560
▁meat	-9561
▁medɛ	-9562
▁modɔ	-9563
▁momɛ	-9564
▁ngyɛ	-9565
▁nkuu	-9566
▁npae	-9567
▁nwua	-9568
▁oben	-9569
▁oboɔ	-9570
▁obue	-9571
▁ohuu	-9572
▁omia	-9573
▁onyɔ	-9574
▁opue	-9575
▁otie	-9576
▁pɔne	-9577
▁seni	-9578
▁tann	-9579
▁whee	-9580
▁wokɛ	-9581
▁wumu	-9582
▁yuda	-9583
▁yɔna	-9584
▁ɔtoa	-9585
▁ɔtoo	-9586
▁ɛhaa	-9587
▁ɛhwe	-9588
▁ɛkai	-9589
▁ɛmoa	-9590
▁ɛmpa	-9591
▁ɛmrɛ	-9592
▁ɛrnn	-9593
▁ɛsen	-9594
▁ɛsɔɔ	-9595
▁ɛtwɛ	-9596
abankɛ	-9597
abatwɛ	-9598
abebue	-9599
ams	-9600
▁ut	-9601
amim	-9602
four	-9603
from	-9604
fɛre	-9605
mpaa	-9606
yiee	-9607
▁ɔtw	-9608
aaseɛ	-9609
ahyie	-9610
amene	-9611
anseɛ	-9612
apata	-9613
atimi	-9614
banbɔ	-9615
basem	-9616
ffour	-9617
fidie	-9618
fɛfoɔ	-9619
paaha	-9620
paapa	-9621
paawa	-9622
▁atea	-9623
▁atee	-9624
▁mefɛ	-9625
▁papi	-9626
▁taku	-9627
▁wumi	-9628
abepue	-9629
abirim	-9630
abɔdwe	-9631
adanfo	-9632
adawor	-9633
adesrɛ	-9634
adwena	-9635
afidie	-9636
afofro	-9637
ahwere	-9638
ahyira	-9639
akakai	-9640
akasam	-9641
akɛseɛ	-9642
amenka	-9643
anfɛre	-9644
anitua	-9645
ankoko	-9646
antene	-9647
ataban	-9648
atwamu	-9649
bobɔba	-9650
brasɛm	-9651
dadada	-9652
dowɔdo	-9653
dɛɛfoɔ	-9654
femfam	-9655
gyebea	-9656
gyenaa	-9657
homhom	-9658
inkyen	-9659
iripii	-9660
korowo	-9661
kotome	-9662
kuduro	-9663
kuroko	-9664
kuromo	-9665
kyafoɔ	-9666
kyinaa	-9667
kɔdɔkɔ	-9668
liwyan	-9669
mekɔtɔ	-9670
mmanie	-9671
nakwaa	-9672
nsamfo	-9673
ntidua	-9674
ntukor	-9675
nyinaa	-9676
puesie	-9677
puutɔɔ	-9678
pɛnsoɔ	-9679
resani	-9680
retara	-9681
riston	-9682
rsitle	-9683
sɛdɛsɛ	-9684
tandeɛ	-9685
toromu	-9686
umɔbrɔ	-9687
wereka	-9688
wokwan	-9689
yamfoɔ	-9690
ɔurity	-9691
ɛnhyia	-9692
ɛnkɔsi	-9693
▁abetu	-9694
▁abibi	-9695
▁aboro	-9696
▁adamu	-9697
▁adwom	-9698
▁afisɛ	-9699
diɛ	-9700
fum	-9701
ɔde	-9702
afum	-9703
kɔdi	-9704
otwa	-9705
pgya	-9706
suam	-9707
teto	-9708
tobi	-9709
unti	-9710
▁mde	-9711
▁obo	-9712
abɛsi	-9713
baayɛ	-9714
kente	-9715
omhom	-9716
tofoɔ	-9717
twaso	-9718
▁boso	-9719
▁butu	-9720
▁deɔn	-9721
▁miri	-9722
▁poso	-9723
▁teso	-9724
▁wubu	-9725
▁ɔkyɛ	-9726
busuam	-9727
ntinka	-9728
pgyawo	-9729
▁aforo	-9730
▁afutu	-9731
▁akosu	-9732
▁akowa	-9733
▁akuta	-9734
▁akyin	-9735
▁akyre	-9736
▁alolo	-9737
▁ammam	-9738
▁anamo	-9739
▁anasa	-9740
▁anhyɛ	-9741
▁annaa	-9742
▁apepa	-9743
▁apira	-9744
▁apɔsɔ	-9745
▁asana	-9746
▁asase	-9747
▁asimu	-9748
▁asusu	-9749
▁atifi	-9750
▁atoso	-9751
▁atumu	-9752
▁atwit	-9753
▁atɔme	-9754
▁awany	-9755
▁awawa	-9756
▁awing	-9757
▁ayaka	-9758
▁ayite	-9759
▁babia	-9760
▁beayɛ	-9761
▁bebri	-9762
▁bedie	-9763
▁bekum	-9764
▁bekya	-9765
▁betoo	-9766
▁biabi	-9767
▁bidie	-9768
▁birim	-9769
▁blink	-9770
▁bosea	-9771
▁bremu	-9772
▁brono	-9773
▁bɔsea	-9774
▁bɔɔso	-9775
▁bɛbro	-9776
▁bɛdan	-9777
▁bɛpem	-9778
▁bɛtua	-9779
▁bɛyɛɛ	-9780
▁dapaa	-9781
▁dwomo	-9782
▁edepa	-9783
▁efibo	-9784
▁efunu	-9785
▁ekunu	-9786
▁ekyɛn	-9787
▁emusa	-9788
▁ennua	-9789
▁errnn	-9790
▁esane	-9791
▁esuro	-9792
▁ewase	-9793
▁fitii	-9794
▁fofuo	-9795
▁frige	-9796
▁fɛfɛɛ	-9797
▁hwiwa	-9798
▁hwwee	-9799
gwe	-9800
ɛwu	-9801
damu	-9802
fere	-9803
kɔfa	-9804
kɔsi	-9805
omma	-9806
ourt	-9807
sida	-9808
wera	-9809
yesu	-9810
yumi	-9811
ɛtoa	-9812
▁hwu	-9813
apano	-9814
koron	-9815
rɛfoɔ	-9816
▁baah	-9817
▁bɛko	-9818
▁dano	-9819
▁dwon	-9820
▁edeɛ	-9821
▁enma	-9822
▁gyin	-9823
▁moko	-9824
▁mɛbɛ	-9825
▁mɛda	-9826
▁tiaw	-9827
▁wosi	-9828
▁wowe	-9829
▁wuni	-9830
▁yɛna	-9831
▁ɔdeɛ	-9832
adwera	-9833
anfere	-9834
sidayɛ	-9835
▁abtia	-9836
▁abubu	-9837
▁asera	-9838
▁hwuri	-9839
▁hwɛsɛ	-9840
▁hyeaɛ	-9841
▁hɛdoo	-9842
▁hɛloo	-9843
▁kakae	-9844
▁kanea	-9845
▁kutuu	-9846
▁kɔdeɛ	-9847
▁kɔdii	-9848
▁kɔsii	-9849
▁kɔtoa	-9850
▁kɔyɛɛ	-9851
▁kɔɔyɛ	-9852
▁kɛtɛn	-9853
▁mampɛ	-9854
▁mansi	-9855
▁masum	-9856
▁mbisa	-9857
▁mebro	-9858
▁mebuu	-9859
▁medan	-9860
▁meebɛ	-9861
▁meekɔ	-9862
▁meeme	-9863
▁meepɛ	-9864
▁mefoa	-9865
▁mehaw	-9866
▁mehye	-9867
▁mehyi	-9868
▁mekro	-9869
▁mekrɔ	-9870
▁mekɔn	-9871
▁membɔ	-9872
▁memra	-9873
▁meoaw	-9874
▁mesoo	-9875
▁meteɛ	-9876
▁metuu	-9877
▁metɛn	-9878
▁minkɔ	-9879
▁minni	-9880
▁mmesi	-9881
▁mmobɔ	-9882
▁mmɔka	-9883
▁mmɛyɛ	-9884
▁moafa	-9885
▁moasi	-9886
▁mobue	-9887
▁mokae	-9888
▁mokɔɔ	-9889
▁momfa	-9890
▁mommɛ	-9891
▁mprɛn	-9892
▁mrika	-9893
▁mummu	-9894
▁mɔbrɔ	-9895
▁mɛbro	-9896
▁mɛmmɛ	-9897
▁mɛnto	-9898
▁mɛnya	-9899
aɔ	-9900
ayɔ	-9901
ewo	-9902
nin	-9903
prɛ	-9904
rde	-9905
aɔkɔ	-9906
bɛba	-9907
efie	-9908
inie	-9909
kese	-9910
kuru	-9911
medi	-9912
noyɛ	-9913
wofo	-9914
wose	-9915
yaka	-9916
ɛnfa	-9917
▁bek	-9918
▁gum	-9919
▁koɔ	-9920
▁kɔɛ	-9921
▁nwɛ	-9922
▁oba	-9923
▁sae	-9924
akyɛw	-9925
bɛsen	-9926
egyae	-9927
kwamu	-9928
wefoɔ	-9929
▁akum	-9930
▁anua	-9931
▁anum	-9932
▁bobe	-9933
▁bɛpa	-9934
▁entu	-9935
▁fadi	-9936
▁kyei	-9937
▁mafa	-9938
▁mewo	-9939
▁nhyi	-9940
▁saea	-9941
▁yɛfa	-9942
▁ɛprɔ	-9943
ahinie	-9944
akɔbrɛ	-9945
mentrɔ	-9946
trofoɔ	-9947
woyere	-9948
▁aborɔ	-9949
▁antua	-9950
▁aunty	-9951
▁deɛde	-9952
▁egyaa	-9953
▁emedi	-9954
▁kaprɛ	-9955
▁meeni	-9956
▁mpopa	-9957
▁nabue	-9958
▁nanam	-9959
▁nanti	-9960
▁neboɔ	-9961
▁nfofa	-9962
▁nkete	-9963
▁nkuru	-9964
▁nnope	-9965
▁nnɔso	-9966
▁noami	-9967
▁npena	-9968
▁nsene	-9969
▁nsuma	-9970
▁nsuom	-9971
▁ntasu	-9972
▁nufuo	-9973
▁nyama	-9974
▁nyasa	-9975
▁nyiaa	-9976
▁nyirɛ	-9977
▁obehu	-9978
▁obenu	-9979
▁obesi	-9980
▁obetu	-9981
▁obewu	-9982
▁obira	-9983
▁obiri	-9984
▁obɛto	-9985
▁oduru	-9986
▁ogyae	-9987
▁ohuno	-9988
▁okuta	-9989
▁ontie	-9990
▁onyan	-9991
▁opnin	-9992
▁osimu	-9993
▁otiri	-9994
▁owiyɛ	-9995
▁pafoo	-9996
▁podua	-9997
▁pɔsee	-9998
▁pɔtee	-9999
foɛ	-10000
mɛn	-10001
nan	-10002
nna	-10003
tae	-10004
wmu	-10005
....	-10006
mame	-10007
mɛnu	-10008
teng	-10009
twmu	-10010
wokɔ	-10011
▁bɛm	-10012
▁dwe	-10013
▁mop	-10014
▁mue	-10015
▁muo	-10016
▁ɔke	-10017
akɔpɛ	-10018
beyii	-10019
bɔɔla	-10020
masoɔ	-10021
yisɛm	-10022
▁aken	-10023
▁anna	-10024
▁atan	-10025
▁dura	-10026
▁huru	-10027
▁mehi	-10028
▁mens	-10029
▁mhwɛ	-10030
▁mɛno	-10031
▁onbu	-10032
▁togo	-10033
▁wisa	-10034
▁wopa	-10035
dididi	-10036
sisisi	-10037
ɔwɔtwe	-10038
▁abɛbɛ	-10039
▁adahɔ	-10040
▁adura	-10041
▁ahwan	-10042
▁botae	-10043
▁fidua	-10044
▁kusuu	-10045
▁mense	-10046
▁oteng	-10047
▁owusu	-10048
▁oyumi	-10049
▁roman	-10050
▁saalu	-10051
▁sakuo	-10052
▁sankɔ	-10053
▁sedeɛ	-10054
▁senea	-10055
▁sobre	-10056
▁soron	-10057
▁sraha	-10058
▁sukɔm	-10059
▁sɔnea	-10060
▁teeso	-10061
▁tetɛw	-10062
▁timii	-10063
▁tofoɔ	-10064
▁tuosa	-10065
▁twann	-10066
▁twaso	-10067
▁tɔntɔ	-10068
▁wadie	-10069
▁wanda	-10070
▁wbɛba	-10071
▁whamɔ	-10072
▁wiamu	-10073
▁wiasɛ	-10074
▁wieyɛ	-10075
▁woben	-10076
▁wobuu	-10077
▁wobɔɔ	-10078
▁wodie	-10079
▁wodii	-10080
▁wohua	-10081
▁wohye	-10082
▁wokae	-10083
▁wokrɔ	-10084
▁wokɔm	-10085
▁womim	-10086
▁wommɔ	-10087
▁wonaa	-10088
▁wondi	-10089
▁wonii	-10090
▁wonoa	-10091
▁wonum	-10092
▁wonwe	-10093
▁wonwu	-10094
▁wonye	-10095
▁wookɔ	-10096
▁woprɔ	-10097
▁woseɛ	-10098
▁wosum	-10099
aya	-10100
kam	-10101
sab	-10102
tɛm	-10103
yɛi	-10104
▁hm	-10105
aprɔ	-10106
asam	-10107
hyɛn	-10108
mprɛ	-10109
nade	-10110
oden	-10111
tase	-10112
tohɔ	-10113
twea	-10114
tɛko	-10115
▁fra	-10116
▁oan	-10117
▁sɔm	-10118
asomu	-10119
bɛpem	-10120
saase	-10121
ɔbɛko	-10122
ɛhyɛn	-10123
▁badu	-10124
▁bese	-10125
▁fasɔ	-10126
▁fato	-10127
▁kutu	-10128
▁mill	-10129
▁moba	-10130
▁ɛpre	-10131
▁ɛsom	-10132
afadeɛ	-10133
amafoɔ	-10134
wummrɛ	-10135
yɛyɛyɛ	-10136
▁ahome	-10137
▁akɔhɔ	-10138
▁akɔkɔ	-10139
▁asere	-10140
▁gyere	-10141
▁mepre	-10142
▁milli	-10143
▁neyɛi	-10144
▁neɔma	-10145
▁wofii	-10146
▁wokra	-10147
▁wonin	-10148
▁wosab	-10149
▁wotan	-10150
▁wotie	-10151
▁wotoa	-10152
▁wotuu	-10153
▁wowuo	-10154
▁woyei	-10155
▁wunni	-10156
▁wɔboo	-10157
▁wɔgye	-10158
▁wɔhuu	-10159
▁wɔmmɔ	-10160
▁wɔnie	-10161
▁wɔtɔɔ	-10162
▁yeeku	-10163
▁yeesu	-10164
▁yetie	-10165
▁yetua	-10166
▁yetuu	-10167
▁yyesu	-10168
▁yɛboo	-10169
▁yɛbɔɔ	-10170
▁yɛfie	-10171
▁yɛkae	-10172
▁yɛkɔɔ	-10173
▁yɛyɛɛ	-10174
▁yɛɛfa	-10175
▁ɔbeba	-10176
▁ɔbɛbo	-10177
▁ɔdwoɔ	-10178
▁ɔhwee	-10179
▁ɔkeka	-10180
▁ɔkeye	-10181
▁ɔkɔso	-10182
▁ɔmose	-10183
▁ɔpepa	-10184
▁ɔposa	-10185
▁ɔpɛsɔ	-10186
▁ɔsofo	-10187
▁ɔtena	-10188
▁ɔtesɛ	-10189
▁ɔtwea	-10190
▁ɔwowɔ	-10191
▁ɛbesi	-10192
▁ɛfame	-10193
▁ɛfisɛ	-10194
▁ɛhayɛ	-10195
▁ɛhyee	-10196
▁ɛkano	-10197
▁ɛkasɛ	-10198
▁ɛkeka	-10199
ɛso	-10200
dabo	-10201
enyɛ	-10202
kwam	-10203
▁ewo	-10204
▁med	-10205
▁noh	-10206
▁onu	-10207
▁woh	-10208
akora	-10209
akwam	-10210
antia	-10211
apɔmu	-10212
gyefo	-10213
▁....	-10214
▁anoa	-10215
▁anwo	-10216
▁asre	-10217
▁atɔn	-10218
▁bire	-10219
▁dogo	-10220
▁foro	-10221
▁kari	-10222
▁mɛdi	-10223
▁woko	-10224
▁wonu	-10225
▁wowɛ	-10226
▁yɛdi	-10227
▁yɛsɛ	-10228
ankɔsɔ	-10229
bodabo	-10230
onkyɛn	-10231
▁amena	-10232
▁bemwo	-10233
▁busaa	-10234
▁ewomu	-10235
▁koron	-10236
▁manwu	-10237
▁masan	-10238
▁medɔn	-10239
▁menan	-10240
▁metwe	-10241
▁nesuo	-10242
▁nohwa	-10243
▁ntɔwo	-10244
▁sasra	-10245
▁wosrɛ	-10246
▁wɔnni	-10247
▁yɛnwu	-10248
▁yɛsaa	-10249
▁ɔbayɛ	-10250
▁ɔkɔfo	-10251
▁ɛbɛto	-10252
▁ɛkosi	-10253
▁ɛkyɛw	-10254
▁ɛkɔdi	-10255
▁ɛkɔme	-10256
▁ɛmomu	-10257
▁ɛneyɛ	-10258
▁ɛnkaa	-10259
▁ɛnkoa	-10260
▁ɛsisi	-10261
▁ɛsoso	-10262
▁ɛsɔre	-10263
▁ɛsɛme	-10264
▁ɛtaga	-10265
▁ɛtene	-10266
▁ɛwomu	-10267
▁ɛwowɔ	-10268
▁ɛwɔha	-10269
abɛduru	-10270
adaworo	-10271
agyanan	-10272
akakaka	-10273
akwaaba	-10274
akyerɛw	-10275
anigyeɛ	-10276
apempem	-10277
asoɔden	-10278
brempɔn	-10279
durufoɔ	-10280
figyire	-10281
iamufoɔ	-10282
kakyerɛ	-10283
mentumi	-10284
migyimi	-10285
nananom	-10286
ntukorm	-10287
numɔbrɔ	-10288
oadwuma	-10289
obusuam	-10290
ontempt	-10291
pinkyen	-10292
posopso	-10293
rabiara	-10294
rebeeee	-10295
somdwoe	-10296
tmuɔden	-10297
torofoɔ	-10298
troasɛm	-10299
,?	-10300
ny	-10301
aye	-10302
frɔ	-10303
sri	-10304
sti	-10305
ɛbi	-10306
ɛda	-10307
▁os	-10308
▁ot	-10309
▁wɛ	-10310
asew	-10311
biom	-10312
iams	-10313
tɔmu	-10314
wosɛ	-10315
ɛgye	-10316
▁deɔ	-10317
▁eso	-10318
▁nkr	-10319
ayera	-10320
debea	-10321
metua	-10322
stikɔ	-10323
▁aaye	-10324
▁ebio	-10325
▁moda	-10326
▁nyia	-10327
▁osha	-10328
▁pani	-10329
▁suga	-10330
▁waso	-10331
▁wɔba	-10332
▁wɔtu	-10333
▁abadi	-10334
▁abene	-10335
▁aburu	-10336
▁atorɔ	-10337
▁atugu	-10338
▁awusɛ	-10339
▁baama	-10340
▁banbɔ	-10341
▁betwa	-10342
▁bɛɛbi	-10343
▁kɔkaa	-10344
▁laugh	-10345
▁mammɛ	-10346
▁manno	-10347
▁medea	-10348
▁misri	-10349
▁otwaa	-10350
▁sahwi	-10351
▁wodan	-10352
▁wonse	-10353
▁wonyɔ	-10354
kyerɛni	-10355
werɛfoɔ	-10356
wiridie	-10357
yansafo	-10358
yingena	-10359
ɛtwitwa	-10360
▁abafie	-10361
▁abatwɛ	-10362
▁abeteɛ	-10363
▁abewia	-10364
▁abrofo	-10365
▁abɛbuo	-10366
▁abɛtwa	-10367
▁adamfo	-10368
▁adesoa	-10369
▁adwena	-10370
▁adwumo	-10371
▁afekuo	-10372
▁afoofi	-10373
▁afɔdeɛ	-10374
▁agodie	-10375
▁agofoɔ	-10376
▁agudie	-10377
▁agyire	-10378
▁ahaanu	-10379
▁ahemaa	-10380
▁ahohia	-10381
▁ahwamh	-10382
▁ahwɛso	-10383
▁akasɛm	-10384
▁akorom	-10385
▁akyerɔ	-10386
▁akyrɛw	-10387
▁amanda	-10388
▁amango	-10389
▁ammɛpa	-10390
▁ampadu	-10391
▁ananse	-10392
▁anantu	-10393
▁anifra	-10394
▁animon	-10395
▁ankyea	-10396
▁anobrɛ	-10397
▁ansusu	-10398
▁antoba	-10399
yo	-10400
era	-10401
sim	-10402
sla	-10403
kara	-10404
kuku	-10405
maka	-10406
nono	-10407
onyi	-10408
ɛsan	-10409
▁hwa	-10410
▁mew	-10411
abɛka	-10412
akɔyi	-10413
aneyi	-10414
atetɛ	-10415
bɔfoɔ	-10416
hyere	-10417
witwa	-10418
▁abua	-10419
▁adie	-10420
▁mamɛ	-10421
▁merɛ	-10422
▁msrɛ	-10423
▁nyam	-10424
▁owia	-10425
▁pɛpɛ	-10426
▁yira	-10427
▁yoyo	-10428
▁yɛbu	-10429
▁yɛdɔ	-10430
▁yɛni	-10431
▁ɔfrɛ	-10432
kɔworɔ	-10433
rakara	-10434
▁adede	-10435
▁daado	-10436
▁efise	-10437
▁ekuta	-10438
▁hwamɔ	-10439
▁kaayɛ	-10440
▁makra	-10441
▁mebɛf	-10442
▁meneɛ	-10443
▁mɛtaa	-10444
▁nkɔka	-10445
▁noayɛ	-10446
▁wanye	-10447
▁wonsɛ	-10448
▁woowo	-10449
▁yɛngu	-10450
▁ɛnane	-10451
animfuo	-10452
krokron	-10453
▁akwane	-10454
▁akyɛrɛ	-10455
▁anufoɔ	-10456
▁anwona	-10457
▁anyini	-10458
▁apaawa	-10459
▁apakan	-10460
▁apatre	-10461
▁apegya	-10462
▁asadua	-10463
▁asanna	-10464
▁atease	-10465
▁awereɛ	-10466
▁awheta	-10467
▁awowoɔ	-10468
▁awurde	-10469
▁awɔsee	-10470
▁ayefrɔ	-10471
▁ayeree	-10472
▁ayeyie	-10473
▁ayitey	-10474
▁ayɛsɛn	-10475
▁baabae	-10476
▁baabro	-10477
▁babibi	-10478
▁babyee	-10479
▁babɛto	-10480
▁banfan	-10481
▁bayerɛ	-10482
▁begina	-10483
▁betɔmu	-10484
▁biabia	-10485
▁bimame	-10486
▁bobesa	-10487
▁bonwhi	-10488
▁borega	-10489
▁botwoo	-10490
▁brɛwww	-10491
▁bɔkɔɔk	-10492
▁bɔnefa	-10493
▁bɔɔdeɛ	-10494
▁bɛbene	-10495
▁bɛbtoo	-10496
▁bɛdane	-10497
▁bɛgyee	-10498
▁bɛhwɛɛ	-10499
amo	-10500
pim	-10501
▁eb	-10502
behu	-10503
meyɛ	-10504
muel	-10505
seaa	-10506
shyi	-10507
sosɔ	-10508
tiie	-10509
▁mse	-10510
▁ɛwe	-10511
akasɛ	-10512
omano	-10513
ripri	-10514
▁ahie	-10515
▁anko	-10516
▁atoa	-10517
▁bebu	-10518
▁dora	-10519
▁enhu	-10520
▁ewuo	-10521
▁koom	-10522
▁meya	-10523
▁mɛto	-10524
▁ontu	-10525
▁para	-10526
▁wotu	-10527
▁wɔpɛ	-10528
▁yehu	-10529
▁ɛbaɛ	-10530
▁ɛnbɛ	-10531
pispis	-10532
sɔsosɔ	-10533
taafoɔ	-10534
wiseaa	-10535
▁abɛsa	-10536
▁asɔne	-10537
▁ebene	-10538
▁mebra	-10539
▁mereb	-10540
▁mewen	-10541
▁minta	-10542
▁nyaeɛ	-10543
▁sɔwhɛ	-10544
▁wontu	-10545
▁ɔbebu	-10546
▁ɔnyɛɛ	-10547
▁ɛbɛtu	-10548
▁ɛkɔyɛ	-10549
▁ɛyere	-10550
rimasɛm	-10551
▁akɔpim	-10552
▁aɛhyɛn	-10553
▁bɔboro	-10554
▁bɛkoto	-10555
▁bɛkyɛɛ	-10556
▁bɛmane	-10557
▁bɛnyim	-10558
▁bɛsisi	-10559
▁bɛtene	-10560
▁bɛtoto	-10561
▁bɛtotɔ	-10562
▁bɛyɛsɛ	-10563
▁daadaa	-10564
▁damfoɔ	-10565
▁deɛdeɛ	-10566
▁dindin	-10567
▁drɔɔse	-10568
▁dwonsɔ	-10569
▁dɔdɔmu	-10570
▁dɔkɔkɔ	-10571
▁dɛkono	-10572
▁ebedii	-10573
▁ebɛpem	-10574
▁efiseɔ	-10575
▁efissɛ	-10576
▁egyimi	-10577
▁emomsɛ	-10578
▁enidie	-10579
▁ensisi	-10580
▁esisie	-10581
▁etwasɛ	-10582
▁ewaise	-10583
▁ewieyɛ	-10584
▁fakoto	-10585
▁goerge	-10586
▁gyamaa	-10587
▁gyerɛw	-10588
▁gyideɛ	-10589
▁haahaa	-10590
▁hahaha	-10591
▁hinham	-10592
▁hɛɛloo	-10593
▁kandin	-10594
▁kasapa	-10595
▁kekawo	-10596
▁kohyia	-10597
▁kokota	-10598
▁kokram	-10599
ars	-10600
nho	-10601
rew	-10602
ɛpɛ	-10603
anbɔ	-10604
anpɛ	-10605
rumu	-10606
sebɔ	-10607
sure	-10608
toho	-10609
▁bɛk	-10610
▁htɔ	-10611
▁kuo	-10612
▁nhɛ	-10613
▁yok	-10614
▁ɔho	-10615
behia	-10616
bɔdeɛ	-10617
ntumi	-10618
years	-10619
yinmi	-10620
▁afem	-10621
▁afro	-10622
▁agra	-10623
▁agro	-10624
▁buei	-10625
▁dwan	-10626
▁fono	-10627
▁kena	-10628
▁menn	-10629
▁mopɛ	-10630
▁mɛpa	-10631
▁neso	-10632
▁nnua	-10633
▁yekɔ	-10634
▁yeyi	-10635
▁ɔdeg	-10636
▁ɔnna	-10637
abetie	-10638
adwosɔ	-10639
afutuo	-10640
kurumu	-10641
mobɛto	-10642
nkwasi	-10643
▁akonu	-10644
▁akɔma	-10645
▁krowa	-10646
▁mesɛm	-10647
▁mofrɛ	-10648
▁monti	-10649
▁nsamu	-10650
▁opɛsɛ	-10651
▁pamoo	-10652
▁saawu	-10653
▁wonpɛ	-10654
▁yinti	-10655
▁ɔtwen	-10656
▁ɛtɔda	-10657
▁ɛwɔmu	-10658
agyinmi	-10659
yɛbehia	-10660
▁adeɛyi	-10661
▁adwire	-10662
▁akɔhan	-10663
▁amafoɔ	-10664
▁anaano	-10665
▁bɛkasɛ	-10666
▁entumi	-10667
▁konini	-10668
▁kooraa	-10669
▁kukuku	-10670
▁kukumu	-10671
▁kurumu	-10672
▁kutupa	-10673
▁kwaadu	-10674
▁kwasie	-10675
▁kwerɛk	-10676
▁kyempɛ	-10677
▁kyinaa	-10678
▁kyɛrew	-10679
▁kɔanyɛ	-10680
▁kɔduru	-10681
▁kɔworɔ	-10682
▁maamem	-10683
▁makɔma	-10684
▁masere	-10685
▁matete	-10686
▁matoto	-10687
▁mebayi	-10688
▁mebayɛ	-10689
▁mebofu	-10690
▁medɔfo	-10691
▁mefiti	-10692
▁mefrɛɛ	-10693
▁mehuri	-10694
▁mehyia	-10695
▁mehyiɛ	-10696
▁mekora	-10697
▁mekuni	-10698
▁mekyea	-10699
amm	-10700
asa	-10701
fon	-10702
▁lb	-10703
abɛn	-10704
fefa	-10705
hwɛɛ	-10706
kyeɛ	-10707
kyie	-10708
mbuo	-10709
nipa	-10710
oama	-10711
rani	-10712
wɔse	-10713
wɔyɛ	-10714
▁pea	-10715
▁sɛi	-10716
▁ɛbu	-10717
hwɛyɛ	-10718
oanya	-10719
yɛbea	-10720
▁kani	-10721
▁mesu	-10722
▁mmon	-10723
▁ohwɛ	-10724
▁seiɛ	-10725
▁wuhu	-10726
▁yaka	-10727
▁yeni	-10728
▁yɛnk	-10729
▁ɛdaa	-10730
▁ɛgye	-10731
▁afiai	-10732
▁ahasa	-10733
▁akɔda	-10734
▁akɔto	-10735
▁anaan	-10736
▁bobaa	-10737
▁bɔhwɛ	-10738
▁emuna	-10739
▁manto	-10740
▁menwe	-10741
▁mewɛn	-10742
▁mmɛbɔ	-10743
▁monsi	-10744
▁morek	-10745
▁nsisi	-10746
▁sanyɛ	-10747
▁seise	-10748
▁wobɛb	-10749
▁wokye	-10750
▁yeedi	-10751
▁yɛnsa	-10752
▁yɛnsi	-10753
▁yɛnti	-10754
▁yɛsrɛ	-10755
▁ɔdane	-10756
ateasɛm	-10757
atembuo	-10758
▁abrobɛ	-10759
▁akɔhwɛ	-10760
▁anaanw	-10761
▁ememma	-10762
▁kɔkɔkɔ	-10763
▁mefefa	-10764
▁mekyem	-10765
▁mekɔda	-10766
▁memene	-10767
▁memmae	-10768
▁memmoa	-10769
▁mempam	-10770
▁mempɛn	-10771
▁memɛfa	-10772
▁memɛwu	-10773
▁menkaa	-10774
▁menkwa	-10775
▁mensew	-10776
▁mentan	-10777
▁mentea	-10778
▁mentia	-10779
▁mentɔn	-10780
▁menyai	-10781
▁mesama	-10782
▁mesrew	-10783
▁mesuro	-10784
▁metemu	-10785
▁metoto	-10786
▁meware	-10787
▁mewhia	-10788
▁mireka	-10789
▁mmakuo	-10790
▁mmofra	-10791
▁mmonmɔ	-10792
▁mmrika	-10793
▁mmɛfrɛ	-10794
▁mmɛmma	-10795
▁moamma	-10796
▁moatia	-10797
▁mobedi	-10798
▁mobɛba	-10799
awi	-10800
eed	-10801
moɔ	-10802
ɛpa	-10803
ɛti	-10804
ahen	-10805
anta	-10806
emma	-10807
iena	-10808
reta	-10809
▁buu	-10810
agorɔ	-10811
aneka	-10812
awira	-10813
gyera	-10814
kyiri	-10815
nfiri	-10816
ɛngye	-10817
▁aayi	-10818
▁abɛw	-10819
▁agyi	-10820
▁breɔ	-10821
▁ekuu	-10822
▁fona	-10823
▁gyea	-10824
▁kuru	-10825
▁maya	-10826
▁misa	-10827
▁nkae	-10828
▁nyɛw	-10829
▁teta	-10830
▁wata	-10831
▁yara	-10832
moɔden	-10833
retary	-10834
▁abasa	-10835
▁abɛko	-10836
▁abɛyi	-10837
▁asɔme	-10838
▁baeyɛ	-10839
▁bɛsei	-10840
▁ewiyɛ	-10841
▁feaaa	-10842
▁hasei	-10843
▁kyesɛ	-10844
▁mamma	-10845
▁menyi	-10846
▁mosre	-10847
▁nkɔma	-10848
▁nnsɛm	-10849
▁ohene	-10850
▁sesɛn	-10851
▁woate	-10852
▁woyaa	-10853
▁wɔhwɛ	-10854
▁wɔnam	-10855
▁yewie	-10856
▁yɛtua	-10857
▁ɔdase	-10858
▁ɛnsei	-10859
ahenfie	-10860
▁asotwe	-10861
▁ataban	-10862
▁breɔɔw	-10863
▁bɛkumi	-10864
▁gyerɛɛ	-10865
▁kɔdana	-10866
▁kɔtena	-10867
▁mahunu	-10868
▁mebɛbɔ	-10869
▁medwen	-10870
▁mekuro	-10871
▁mmasɛm	-10872
▁mobɛbɔ	-10873
▁mokasɛ	-10874
▁mokyɛw	-10875
▁moneno	-10876
▁mopene	-10877
▁mpaemu	-10878
▁mpaeyɛ	-10879
▁mprenu	-10880
▁mɛbɔka	-10881
▁mɛguso	-10882
▁mɛkata	-10883
▁mɛkyea	-10884
▁mɛkɔnn	-10885
▁mɛnfii	-10886
▁mɛnyae	-10887
▁mɛpene	-10888
▁naadaa	-10889
▁naaseɛ	-10890
▁nanasa	-10891
▁natmfo	-10892
▁nawoyɛ	-10893
▁ndidiɛ	-10894
▁ndwene	-10895
▁neamma	-10896
▁nehotɔ	-10897
▁nenana	-10898
▁nenkyɛ	-10899
adie	-10900
kume	-10901
masi	-10902
osua	-10903
▁sue	-10904
▁suo	-10905
adwan	-10906
sehyɛ	-10907
ɛnkyɛ	-10908
▁ayɛɛ	-10909
▁beku	-10910
▁bɛbo	-10911
▁hwaa	-10912
▁kyae	-10913
▁mose	-10914
▁mpɛn	-10915
▁mrre	-10916
▁nguu	-10917
▁ntoɔ	-10918
▁tese	-10919
▁totɔ	-10920
▁woku	-10921
▁woyɔ	-10922
▁ɔnsi	-10923
▁ɔnye	-10924
▁ɔnyi	-10925
abɛfrɛ	-10926
anwene	-10927
▁anase	-10928
▁ayɛsɛ	-10929
▁besie	-10930
▁daayɛ	-10931
▁fahyɛ	-10932
▁meetu	-10933
▁mɛkyɛ	-10934
▁nkɔtɔ	-10935
▁teate	-10936
▁wonna	-10937
▁ɔbɛko	-10938
▁ɔbɛpa	-10939
▁ɔbɛsi	-10940
▁ɔbɛto	-10941
▁ɛbɛsa	-10942
▁ɛkayɛ	-10943
▁ɛtoso	-10944
metanfo	-10945
▁abɛkyɛ	-10946
▁adedie	-10947
▁afriri	-10948
▁akakyi	-10949
▁anwene	-10950
▁asɔdan	-10951
▁enbedi	-10952
▁enkume	-10953
▁kyakya	-10954
▁mekɔka	-10955
▁menfoa	-10956
▁meyɛyɛ	-10957
▁netiri	-10958
▁neɛmaa	-10959
▁neɛnti	-10960
▁ngɔtwe	-10961
▁nkakan	-10962
▁nkonua	-10963
▁nkoraa	-10964
▁nkyemu	-10965
▁nkyɛmu	-10966
▁nnaada	-10967
▁nnomen	-10968
▁nnɔnkɔ	-10969
▁nomeka	-10970
▁nonsia	-10971
▁nowhaa	-10972
▁nsaase	-10973
▁nsaman	-10974
▁nsifɔm	-10975
▁nsɛtwe	-10976
▁ntafoɔ	-10977
▁ntakra	-10978
▁ntanta	-10979
▁nteɛso	-10980
▁ntoato	-10981
▁ntɛmpa	-10982
▁nwɔnko	-10983
▁nwɔtwe	-10984
▁nyiraa	-10985
▁nyirɛm	-10986
▁nyɔtwe	-10987
▁nɔnson	-10988
▁obaabe	-10989
▁ofiisɛ	-10990
▁ofitaa	-10991
▁okyerɛ	-10992
▁okyina	-10993
▁onyini	-10994
▁osuaye	-10995
▁otteng	-10996
▁paakyɛ	-10997
▁pakyɛw	-10998
▁pamomi	-10999
abo	-11000
best	-11001
biri	-11002
fisɛ	-11003
kyia	-11004
mmaa	-11005
▁lil	-11006
▁ong	-11007
▁ɛsɔ	-11008
akura	-11009
ankyi	-11010
aseda	-11011
efisɛ	-11012
mansa	-11013
misɛm	-11014
▁akae	-11015
▁atta	-11016
▁atɛn	-11017
▁gyew	-11018
▁mfrɛ	-11019
▁oman	-11020
▁yebu	-11021
▁ɛntɛ	-11022
▁ɛpae	-11023
firimu	-11024
kyenaa	-11025
mufiri	-11026
tenate	-11027
wkyerɛ	-11028
wommaa	-11029
yankwa	-11030
ɛkyerɛ	-11031
▁ahini	-11032
▁eduan	-11033
▁eeeee	-11034
▁fakye	-11035
▁mekya	-11036
▁mentu	-11037
▁monmɔ	-11038
▁naase	-11039
▁nekra	-11040
▁nkyea	-11041
▁nkɔyɛ	-11042
▁odihɔ	-11043
▁wonsɔ	-11044
▁wowoo	-11045
▁wɔsua	-11046
▁yɛnye	-11047
▁ɔdeka	-11048
▁ɛfata	-11049
adawoma	-11050
akurase	-11051
korɔfoɔ	-11052
sɛkyerɛ	-11053
▁akadeɛ	-11054
▁akopue	-11055
▁anfiri	-11056
▁bɔneso	-11057
▁kwadaa	-11058
▁kwanho	-11059
▁makɔyɛ	-11060
▁menkɔɔ	-11061
▁metutu	-11062
▁mmogya	-11063
▁nanaka	-11064
▁nnwuma	-11065
▁ogyina	-11066
▁paning	-11067
▁papaso	-11068
▁pawers	-11069
▁pemfoɔ	-11070
▁pɔtɔɔɔ	-11071
▁samuel	-11072
▁seesei	-11073
▁senior	-11074
▁sensam	-11075
▁shishi	-11076
▁simpoa	-11077
▁spɛɛsi	-11078
▁sɛmeka	-11079
▁teafoɔ	-11080
▁teatea	-11081
▁tenaso	-11082
▁teneho	-11083
▁tetɛtɛ	-11084
▁tiafoɔ	-11085
▁tietia	-11086
▁tietie	-11087
▁totɛko	-11088
▁tweram	-11089
▁wadidi	-11090
▁wampaa	-11091
▁weisei	-11092
▁woasɛm	-11093
▁wobaha	-11094
▁wobebo	-11095
▁wobɔte	-11096
▁wobɛbo	-11097
▁wobɛbu	-11098
▁wobɛsi	-11099
ywa	-11100
akɔm	-11101
ɔmmɛ	-11102
▁wok	-11103
▁ɔdw	-11104
aboro	-11105
akoto	-11106
akɔyɛ	-11107
▁adum	-11108
▁ekɔm	-11109
▁gina	-11110
▁mogu	-11111
▁moni	-11112
▁nhye	-11113
▁ntra	-11114
▁ntwe	-11115
▁nwan	-11116
▁sara	-11117
▁tina	-11118
▁wese	-11119
▁wodɔ	-11120
▁wusu	-11121
abafie	-11122
abɛtwe	-11123
akɔgye	-11124
akɔhwɛ	-11125
atanfo	-11126
brafoɔ	-11127
▁abrɛw	-11128
▁afedi	-11129
▁agyea	-11130
▁akyia	-11131
▁amoah	-11132
▁asori	-11133
▁bogya	-11134
▁brodo	-11135
▁bɔɔla	-11136
▁bɛdaa	-11137
▁bɛgya	-11138
▁bɛtwe	-11139
▁ensuo	-11140
▁kofie	-11141
▁kokoa	-11142
▁kwamu	-11143
▁memaa	-11144
▁mewie	-11145
▁nfaso	-11146
▁nfata	-11147
▁nkokɔ	-11148
▁nkoso	-11149
▁nyɛdɛ	-11150
▁ohyia	-11151
▁onhuu	-11152
▁sumyɛ	-11153
▁wisee	-11154
▁wowie	-11155
▁wɔɔte	-11156
▁yɔnkɔ	-11157
▁yɛhia	-11158
▁yɛyia	-11159
▁ɔkasa	-11160
▁ɔsesa	-11161
ntwonku	-11162
▁abɔmmu	-11163
▁abɛtum	-11164
▁adɛbɛn	-11165
▁akɔsra	-11166
▁birebi	-11167
▁bɛduru	-11168
▁danase	-11169
▁kayerɛ	-11170
▁marima	-11171
▁nkwata	-11172
▁odidie	-11173
▁weseee	-11174
▁wobɛtu	-11175
▁woduru	-11176
▁wogina	-11177
▁wohote	-11178
▁wohuni	-11179
▁wokaho	-11180
▁wokasɛ	-11181
▁wokoaa	-11182
▁wokora	-11183
▁wokɔba	-11184
▁wokɔtɔ	-11185
▁wokɔyɛ	-11186
▁wommen	-11187
▁wommrɛ	-11188
▁wompue	-11189
▁wonane	-11190
▁wonene	-11191
▁wonhia	-11192
▁wonihɔ	-11193
▁wonipa	-11194
▁wonkoa	-11195
▁wonkɔɔ	-11196
▁wonnom	-11197
▁wonsan	-11198
▁wonseɛ	-11199
ɔwɔ	-11200
amin	-11201
lifu	-11202
ɔmaa	-11203
ɛden	-11204
ɛfrɛ	-11205
ɛnna	-11206
▁amɛ	-11207
akyii	-11208
mambo	-11209
yaase	-11210
▁abgu	-11211
▁ampɛ	-11212
▁anty	-11213
▁apam	-11214
▁odie	-11215
▁sɛwi	-11216
▁wuri	-11217
▁yegu	-11218
akadeɛ	-11219
brɛbrɛ	-11220
▁adiso	-11221
▁agyei	-11222
▁akyaa	-11223
▁anfrɛ	-11224
▁bewia	-11225
▁ensan	-11226
▁manso	-11227
▁mehwɔ	-11228
▁mepɛw	-11229
▁monma	-11230
▁monpɛ	-11231
▁monyi	-11232
▁ntreɛ	-11233
▁onihɔ	-11234
▁sɔbrɛ	-11235
▁teraa	-11236
▁twemu	-11237
▁wideɛ	-11238
▁wobra	-11239
▁wodua	-11240
▁yɛtaa	-11241
▁yɛɛto	-11242
▁ɔhamu	-11243
▁ɔmode	-11244
▁ɛbɛha	-11245
▁ɛkɔbɔ	-11246
▁ɛkɔfa	-11247
▁ɛpamo	-11248
omtempt	-11249
▁adesua	-11250
▁adwamu	-11251
▁akɔraa	-11252
▁amɛmma	-11253
▁antena	-11254
▁boadeɛ	-11255
▁ebiara	-11256
▁edwabɔ	-11257
▁keyerɛ	-11258
▁manyin	-11259
▁mekayɛ	-11260
▁menyaa	-11261
▁metena	-11262
▁moakyi	-11263
▁monhwɛ	-11264
▁nyanme	-11265
▁salifu	-11266
▁wobayɛ	-11267
▁wodane	-11268
▁wonsii	-11269
▁wonsim	-11270
▁wonsua	-11271
▁wontee	-11272
▁wontɛm	-11273
▁wonwoo	-11274
▁wonyae	-11275
▁wonyɛɛ	-11276
▁wopena	-11277
▁wosane	-11278
▁wosesa	-11279
▁wotare	-11280
▁woteaa	-11281
▁wotehɔ	-11282
▁wotemi	-11283
▁wotena	-11284
▁wotete	-11285
▁wotetɛ	-11286
▁wotino	-11287
▁wototo	-11288
▁wowerɛ	-11289
▁woyare	-11290
▁woyerɛ	-11291
▁woyeyɛ	-11292
▁woyini	-11293
▁woyumi	-11294
▁woyɛyɛ	-11295
▁wɔbɛfa	-11296
▁wɔbɛkɔ	-11297
▁wɔhene	-11298
▁wɔhoro	-11299
agy	-11300
abɛb	-11301
wofa	-11302
▁dor	-11303
▁fat	-11304
▁odo	-11305
▁ɔwɛ	-11306
abɛhu	-11307
abɛto	-11308
anyim	-11309
daado	-11310
manna	-11311
nyina	-11312
▁ahaw	-11313
▁akra	-11314
▁akya	-11315
▁dufa	-11316
▁metɔ	-11317
▁okye	-11318
▁tema	-11319
▁wɔho	-11320
akyimi	-11321
wɔpamo	-11322
ɔbaako	-11323
▁abunu	-11324
▁abusa	-11325
▁abɔmu	-11326
▁akyɛn	-11327
▁ankan	-11328
▁biose	-11329
▁bɛboa	-11330
▁bɛsom	-11331
▁kataa	-11332
▁mehan	-11333
▁moama	-11334
▁moboa	-11335
▁myere	-11336
▁nenma	-11337
▁sikan	-11338
▁wɔtwe	-11339
▁ɔkɔfa	-11340
▁ɛpram	-11341
▁abosia	-11342
▁ahahan	-11343
▁antimi	-11344
▁ketete	-11345
▁mentwe	-11346
▁mmapɔn	-11347
▁mprɛnu	-11348
▁mɛsɔre	-11349
▁nimpɔn	-11350
▁sensen	-11351
▁tetewa	-11352
▁wohosɛ	-11353
▁wonhye	-11354
▁woyɔko	-11355
▁wɔhuhu	-11356
▁wɔkeka	-11357
▁wɔkɔda	-11358
▁wɔmmfa	-11359
▁wɔnfii	-11360
▁wɔsore	-11361
▁wɔyare	-11362
▁yebedi	-11363
▁yebehu	-11364
▁yeduru	-11365
▁yeeyie	-11366
▁yefiri	-11367
▁yekuta	-11368
▁yentwa	-11369
▁yenyae	-11370
▁yiedie	-11371
▁yɔntia	-11372
▁yɛbetu	-11373
▁yɛbɛbɔ	-11374
▁yɛbɛdi	-11375
▁yɛbɛfa	-11376
▁yɛbɛno	-11377
▁yɛbɛte	-11378
▁yɛbɛtu	-11379
▁yɛfrɛi	-11380
▁yɛguso	-11381
▁yɛgyai	-11382
▁yɛhyia	-11383
▁yɛhyɛɛ	-11384
▁yɛkuta	-11385
▁yɛkyea	-11386
▁yɛmumu	-11387
▁yɛnfom	-11388
▁yɛnfrɛ	-11389
▁yɛnhwɛ	-11390
▁yɛnnom	-11391
▁yɛnnya	-11392
▁yɛnnyɛ	-11393
▁yɛnsan	-11394
▁yɛnyaa	-11395
▁yɛtase	-11396
▁yɛtwmu	-11397
▁yɛtwɛn	-11398
▁yɛware	-11399
▁yɛɛboa	-11400
▁yɛɛhwɛ	-11401
▁yɛɛpre	-11402
▁yɛɛsan	-11403
▁ɔbaafo	-11404
▁ɔbɛnom	-11405
▁ɔbɛnya	-11406
▁ɔbɛsen	-11407
▁ɔbɛyam	-11408
▁ɔkwani	-11409
▁ɔkɔbɔɔ	-11410
▁ɔkɔdaa	-11411
▁ɔkɔfaa	-11412
▁ɔkɔpem	-11413
▁ɔkɔsɔɔ	-11414
▁ɔmmɛbɔ	-11415
▁ɔmonkɔ	-11416
▁ɔnodeɛ	-11417
▁ɔnpɛsɛ	-11418
▁ɔnsore	-11419
▁ɔntena	-11420
▁ɔtaamu	-11421
▁ɔwɔfie	-11422
▁ɔwɔmmo	-11423
▁ɔyɛɛno	-11424
▁ɔyɛɛyɛ	-11425
▁ɛbaayɛ	-11426
▁ɛbɛdwo	-11427
▁ɛbɛgye	-11428
▁ɛbɛhyɛ	-11429
▁ɛbɛmma	-11430
▁ɛbɛsei	-11431
▁ɛbɛyɛɛ	-11432
▁ɛfasoɔ	-11433
▁ɛkwamu	-11434
▁ɛkyere	-11435
▁ɛmpatu	-11436
▁ɛnanee	-11437
▁ɛnbɛwɔ	-11438
▁ɛneyɛɛ	-11439
▁ɛneɛma	-11440
▁ɛnkaka	-11441
▁ɛnkasɛ	-11442
▁ɛnkɔsi	-11443
▁ɛnnɛma	-11444
▁ɛnsɛsɛ	-11445
▁ɛntena	-11446
▁ɛnunti	-11447
▁ɛsakra	-11448
▁ɛtwamu	-11449
▁ɛtwere	-11450
▁ɛtwɛbo	-11451
▁ɛtɔɔyɛ	-11452
▁ɛwieyɛ	-11453
abaabɛfa	-11454
abaayewa	-11455
abankɛse	-11456
akagyerɛ	-11457
amentena	-11458
anidasoɔ	-11459
anumasɛm	-11460
anyinsɛn	-11461
apomuden	-11462
asikafoɔ	-11463
asomdwoe	-11464
asumasɛm	-11465
ayɛnmmoa	-11466
gyaigyai	-11467
hahahaha	-11468
hyehyɛyɛ	-11469
kyɛdɛkyɛ	-11470
merebusa	-11471
nyebiara	-11472
ristonii	-11473
▁abarima	-11474
▁abebisa	-11475
▁abebusa	-11476
▁abooboo	-11477
▁abotere	-11478
▁abrafoɔ	-11479
▁abrateɛ	-11480
▁abrɔsan	-11481
▁abɛkyea	-11482
▁abɛteto	-11483
▁abɛyeyɛ	-11484
▁adeakye	-11485
▁adeɛbɛn	-11486
▁aduanan	-11487
▁aduason	-11488
▁adwadie	-11489
▁adwuama	-11490
▁afoofie	-11491
▁agradaa	-11492
▁agwaman	-11493
▁agwareɛ	-11494
▁agyareɛ	-11495
▁agyeeii	-11496
▁ahiafoɔ	-11497
▁ahinnie	-11498
▁ahokeka	-11499
▁ahomhom	-11500
▁akasamu	-11501
▁akatohɔ	-11502
▁akomapa	-11503
▁akonnwa	-11504
▁akonywa	-11505
▁akotene	-11506
▁akwaboa	-11507
▁akyinyɛ	-11508
▁akyɛwpa	-11509
▁akɔaɔkɔ	-11510
▁akɔduru	-11511
▁akɔware	-11512
▁amaakuo	-11513
▁amanieɛ	-11514
▁amanman	-11515
▁amanneɛ	-11516
▁amanone	-11517
▁amiamia	-11518
▁ammaneɛ	-11519
▁anamong	-11520
▁ankonam	-11521
▁ankyere	-11522
▁antobam	-11523
▁anumerɛ	-11524
▁anyiɛyɛ	-11525
▁anyways	-11526
▁anyɛsaa	-11527
▁anɔpano	-11528
▁anɔpayi	-11529
▁apamowo	-11530
▁apatase	-11531
▁apuutɔɔ	-11532
▁apɔnkye	-11533
▁asemasi	-11534
▁asendua	-11535
▁asotere	-11536
▁asuadeɛ	-11537
▁ataadie	-11538
▁ataadiɛ	-11539
▁ateetee	-11540
▁atenase	-11541
▁atuguba	-11542
▁atumpan	-11543
▁awerɛho	-11544
▁awingaa	-11545
▁awiseaa	-11546
▁awresuo	-11547
▁awummrɛ	-11548
▁awuramu	-11549
▁bebiara	-11550
▁bedwamu	-11551
▁begyina	-11552
▁behyira	-11553
▁bekyina	-11554
▁berimah	-11555
▁besiaba	-11556
▁beyifoɔ	-11557
▁biriara	-11558
▁boflotu	-11559
▁bonuayɛ	-11560
▁bɛgware	-11561
▁bɛkyere	-11562
▁dwammra	-11563
▁dɛnkyɛm	-11564
▁ebekume	-11565
▁edinkan	-11566
▁eeeiiii	-11567
▁efitete	-11568
▁enikwan	-11569
▁etirimu	-11570
▁futufoɔ	-11571
▁gyeremo	-11572
▁gyerɛsɛ	-11573
▁homasoɔ	-11574
▁homhomu	-11575
▁hwiwaso	-11576
▁hwɛɛdan	-11577
▁informa	-11578
▁kaahunu	-11579
▁kakrabi	-11580
▁kakrani	-11581
▁kamakam	-11582
▁kasaboa	-11583
▁ketrɛma	-11584
▁kohwini	-11585
▁kokuamu	-11586
▁kotogwe	-11587
▁kuffour	-11588
▁kuluulu	-11589
▁kurommu	-11590
▁kwaamoa	-11591
▁kwamena	-11592
▁kwasiaa	-11593
▁kyɛnsen	-11594
▁kɔkɔgye	-11595
▁kɔkɔhwɛ	-11596
▁kɔmaame	-11597
▁kɔtamkɔ	-11598
▁laughsɔ	-11599
▁mamenka	-11600
▁mamensa	-11601
▁manfiri	-11602
▁mankasa	-11603
▁mantumi	-11604
▁mantwea	-11605
▁manyane	-11606
▁manyare	-11607
▁mayaase	-11608
▁mayɛnkɔ	-11609
▁mayɛnyɛ	-11610
▁mebaabi	-11611
▁mebeyii	-11612
▁medware	-11613
▁megware	-11614
▁megyina	-11615
▁mehyira	-11616
▁mekoara	-11617
▁mekroaa	-11618
▁mekurom	-11619
▁mekyina	-11620
▁mekyiri	-11621
▁mekɔbue	-11622
▁membɛka	-11623
▁memenyɛ	-11624
▁memmɛdi	-11625
▁memogya	-11626
▁menbedi	-11627
▁menenam	-11628
▁menkora	-11629
▁menkɔfa	-11630
▁mennyae	-11631
▁menpena	-11632
▁mensene	-11633
▁mensoso	-11634
▁mentwɛn	-11635
▁menwubɛ	-11636
▁mepakyɛ	-11637
▁mesaman	-11638
▁mesoayi	-11639
▁metirim	-11640
▁mieɛnsa	-11641
▁million	-11642
▁mmayewa	-11643
▁mmerima	-11644
▁mmɔwerɛ	-11645
▁mobaayɛ	-11646
▁mobɛgye	-11647
▁modikan	-11648
▁mogyedi	-11649
▁mokoraa	-11650
▁montena	-11651
▁montwɛn	-11652
▁monwane	-11653
▁monyina	-11654
▁mpanfoɔ	-11655
▁mpanieɛ	-11656
▁mpasebɔ	-11657
▁mpofiri	-11658
▁mpripri	-11659
▁mranteɛ	-11660
▁mrɛnkɛn	-11661
▁mɛnante	-11662
▁mɛyɛdɛn	-11663
▁nanibrɛ	-11664
▁nansoso	-11665
▁nasɛnea	-11666
▁nayifoɔ	-11667
▁nenkyɛn	-11668
▁nfatoho	-11669
▁nfonoyɛ	-11670
▁nhyinaa	-11671
▁nimpong	-11672
▁nkokɔkɔ	-11673
▁nkontok	-11674
▁nkradaa	-11675
▁nkrakra	-11676
▁nkranee	-11677
▁nkranin	-11678
▁nkratoɔ	-11679
▁nkunimi	-11680
▁nkyiamu	-11681
▁nkɔtena	-11682
▁nnieɛma	-11683
▁nnubɔne	-11684
▁nnwɔtwe	-11685
▁nohwere	-11686
▁nokwarɛ	-11687
▁nsankuo	-11688
▁nsuonam	-11689
▁ntaadeɛ	-11690
▁ntentia	-11691
▁ntintan	-11692
▁ntoatoa	-11693
▁ntomago	-11694
▁ntomano	-11695
▁ntotoyɛ	-11696
▁ntwitwa	-11697
▁nwomtoɔ	-11698
▁nyianna	-11699
▁obetumi	-11700
▁obuebue	-11701
▁odiifoɔ	-11702
▁ofirisɛ	-11703
▁owusuom	-11704
▁oyinsɛn	-11705
▁paakyɛw	-11706
▁patapaa	-11707
▁piripii	-11708
▁prosini	-11709
▁puefiri	-11710
▁santene	-11711
▁sekyere	-11712
▁sekyerɛ	-11713
▁serefoɔ	-11714
▁sesafoɔ	-11715
▁sikanii	-11716
▁sofopɔn	-11717
▁soronko	-11718
▁tetefon	-11719
▁tuosafi	-11720
▁twetere	-11721
▁wobenya	-11722
▁wobetia	-11723
▁wobetie	-11724
▁wobɔdam	-11725
▁wobɛbrɛ	-11726
▁wobɛfrɛ	-11727
▁wobɛsua	-11728
▁wodwane	-11729
▁wodware	-11730
▁wogyedi	-11731
▁wogyidi	-11732
▁wohwene	-11733
▁wohyira	-11734
▁wokoraa	-11735
▁wokuoda	-11736
▁wokɔhwɛ	-11737
▁wokɔtaa	-11738
▁wokɔtoo	-11739
▁wokɔtɔɔ	-11740
▁wokɔyɛɛ	-11741
▁wommame	-11742
▁wommati	-11743
▁wompena	-11744
▁wondidi	-11745
▁wonenam	-11746
▁woneɛma	-11747
▁wonhunu	-11748
▁wonkɔwo	-11749
▁wonpena	-11750
▁wonsesa	-11751
▁wonsuro	-11752
▁wonyini	-11753
▁wopekya	-11754
▁worepre	-11755
▁woretwe	-11756
▁wotiamu	-11757
▁wotwamu	-11758
▁wowobue	-11759
▁woyɛdɛn	-11760
▁wugyina	-11761
▁wuntumi	-11762
▁wɔdware	-11763
▁wɔteete	-11764
▁wɔwoowo	-11765
▁yaayɛse	-11766
▁yebenya	-11767
▁yeeeeee	-11768
▁yegyire	-11769
▁yentena	-11770
▁yentumi	-11771
▁yenyina	-11772
▁yieeeee	-11773
▁yɛbaasɛ	-11774
▁yɛbaayɛ	-11775
▁yɛbɛhwɛ	-11776
▁yɛbɛmma	-11777
▁yɛdaase	-11778
▁yɛkɔfaa	-11779
▁yɛmaame	-11780
▁yɛnbiom	-11781
▁yɛnhyia	-11782
▁yɛnware	-11783
▁yɛnyere	-11784
▁yɛpaaha	-11785
▁yɛpɛnso	-11786
▁yɛɛbɛyi	-11787
▁ɔbebaha	-11788
▁ɔbɛbɔme	-11789
▁ɔbɛhwɛɛ	-11790
▁ɔbɛkasɛ	-11791
▁ɔbɛsore	-11792
▁ɔdasani	-11793
▁ɔdegyaa	-11794
▁ɔdeɛfoɔ	-11795
▁ɔdɛɛfoo	-11796
▁ɔfemfam	-11797
▁ɔkayerɛ	-11798
▁ɔkeyena	-11799
▁ɔkwasia	-11800
▁ɔkɔforo	-11801
▁ɔkɔmfoɔ	-11802
▁ɔkɔsomu	-11803
▁ɔmoakye	-11804
▁ɔyereme	-11805
▁ɛbobɔba	-11806
▁ɛbɛdamu	-11807
▁ɛbɛsidɛ	-11808
▁ɛbɛwodɛ	-11809
▁ɛdɛnbɛn	-11810
▁ɛfameho	-11811
▁ɛhyehye	-11812
▁ɛhyɛnwo	-11813
▁ɛnawode	-11814
▁ɛnfasoa	-11815
▁ɛnkyere	-11816
▁ɛnkyerɛ	-11817
▁ɛsensaa	-11818
▁ɛtɔdabi	-11819
▁ɛyɛmeya	-11820
▁ɛyɛwosɛ	-11821
▁ɛyɛɛdeɛ	-11822
abatiriso	-11823
abusabusa	-11824
adwumasɛm	-11825
anamontuo	-11826
anumonyam	-11827
asomdwoye	-11828
kaamotobi	-11829
kuromotie	-11830
mepaakyɛw	-11831
wankuruwa	-11832
werekakro	-11833
wkyerɛfoɔ	-11834
▁aaseisei	-11835
▁ababaɛfa	-11836
▁abakɔsɛm	-11837
▁abankese	-11838
▁abankoko	-11839
▁abedware	-11840
▁abeyisɛm	-11841
▁abibifoɔ	-11842
▁abufusɛm	-11843
▁abɛbirim	-11844
▁abɛgyerɛ	-11845
▁abɛhyɛmu	-11846
▁adeshieɛ	-11847
▁adeɛakye	-11848
▁adusifoɔ	-11849
▁afafantɔ	-11850
▁agodebea	-11851
▁agorɔdie	-11852
▁agwareyɛ	-11853
▁agyeiwaa	-11854
▁agyepong	-11855
▁ahobanbɔ	-11856
▁ahogyerɛ	-11857
▁ahohodan	-11858
▁ahomagye	-11859
▁ahumɔbrɔ	-11860
▁akakaben	-11861
▁akntinka	-11862
▁akonhoma	-11863
▁akonwaso	-11864
▁aksakasa	-11865
▁akwaadaa	-11866
▁akyerɛma	-11867
▁akɔgyina	-11868
▁akɔhyere	-11869
▁akɔhyɛmu	-11870
▁akɛsefoɔ	-11871
▁anibrefo	-11872
▁ankwadaa	-11873
▁anwumerɛ	-11874
▁asigyere	-11875
▁asikafoɔ	-11876
▁asoredan	-11877
▁asorefoɔ	-11878
▁asorefuo	-11879
▁asumasɛm	-11880
▁ateasefo	-11881
▁atetɛatɛ	-11882
▁atonkyɛn	-11883
▁awanyane	-11884
▁awudifoɔ	-11885
▁ayarefoɔ	-11886
▁babibira	-11887
▁bebriree	-11888
▁bonwhire	-11889
▁busabusa	-11890
▁bɔdamsɛm	-11891
▁bɔmmɔden	-11892
▁bɛkotoko	-11893
▁bɛkyekyɛ	-11894
▁dabodabo	-11895
▁deɛɛdeɛn	-11896
▁dwomtoni	-11897
▁dɔkɔdɔkɔ	-11898
▁dɛsɛdɛsɛ	-11899
▁ebegyina	-11900
▁ebehyira	-11901
▁efiboboa	-11902
▁ensisiso	-11903
▁fiamufoɔ	-11904
▁fromfrom	-11905
▁ghanafuɔ	-11906
▁gidididi	-11907
▁goliathi	-11908
▁gyamaase	-11909
▁hwɛsofoɔ	-11910
▁kagyerɛɛ	-11911
▁kakrakaa	-11912
▁kandinii	-11913
▁katakyie	-11914
▁keterɛma	-11915
▁ketetete	-11916
▁kokotako	-11917
▁kwanshyi	-11918
▁kyerɛwsɛ	-11919
▁kyikyire	-11920
▁liliwyan	-11921
▁maamuwaa	-11922
▁mahyehyɛ	-11923
▁mamemisa	-11924
▁mamenfrɛ	-11925
▁mapgyawo	-11926
▁masodwoe	-11927
▁mayɛntie	-11928
▁mebɛfano	-11929
▁mederekɔ	-11930
▁mehwehwɛ	-11931
▁mehyehyɛ	-11932
▁mekrɔkrɔ	-11933
▁memanfoɔ	-11934
▁memmɛgye	-11935
▁meneɛmma	-11936
▁mentoase	-11937
▁menuabaa	-11938
▁menuanom	-11939
▁merebedi	-11940
▁merebusa	-11941
▁mesɔreyɛ	-11942
▁metetegu	-11943
▁metiatia	-11944
▁mifirimu	-11945
▁mmaayewa	-11946
▁mmamuwaa	-11947
▁mmɛhwɛyɛ	-11948
▁moadwane	-11949
▁moagyimi	-11950
▁mobetumi	-11951
▁mobɛtumi	-11952
▁mɛhyehyɛ	-11953
▁naamafoɔ	-11954
▁nfikyire	-11955
▁nipakorɔ	-11956
▁nkaseɛbɔ	-11957
▁nkwantia	-11958
▁nkɔtwere	-11959
▁nokwareɛ	-11960
▁nsagyera	-11961
▁nsakrayɛ	-11962
▁nsɛmmisa	-11963
▁ntiantia	-11964
▁nyamesɛm	-11965
▁nyankpon	-11966
▁nyartwom	-11967
▁oanwumrɛ	-11968
▁obaasima	-11969
▁obibiara	-11970
▁otumifoɔ	-11971
▁papaaapa	-11972
▁pawokyɛw	-11973
▁perapera	-11974
▁pressure	-11975
▁saawunya	-11976
▁seɔurity	-11977
▁suntidua	-11978
▁tensofoɔ	-11979
▁theresah	-11980
▁weimesrɛ	-11981
▁williams	-11982
▁wobedidi	-11983
▁wobeduru	-11984
▁wobegyae	-11985
▁wobehusɛ	-11986
▁wobɛbano	-11987
▁wobɛboro	-11988
▁wobɛdwen	-11989
▁wobɛtena	-11990
▁wofirisɛ	-11991
▁wokayerɛ	-11992
▁wokuruwa	-11993
▁wonfɛfoɔ	-11994
▁wontɔkwa	-11995
▁wonuabaa	-11996
▁wopuesie	-11997
▁wotirimu	-11998
▁wotwetwe	-11999
▁wɔdɛɛfoɔ	-12000
▁wɔkɔdidi	-12001
▁yaresani	-12002
▁yɛbeduru	-12003
▁yɛbetumi	-12004
▁yɛbɛhyia	-12005
▁yɛbɛkasa	-12006
▁yɛbɛtena	-12007
▁yɛbɛtumi	-12008
▁yɛngyefo	-12009
▁yɛnkoraa	-12010
▁yɛtuwofo	-12011
▁yɛɛgyimi	-12012
▁ɔbaasima	-12013
▁ɔbrempɔn	-12014
▁ɔbɛbafɔm	-12015
▁ɔhenepɔn	-12016
▁ɔkaakɔsi	-12017
▁ɔyɛɛdeɛn	-12018
▁ɛdebasem	-12019
▁ɛdeɛnade	-12020
▁ɛkakyerɛ	-12021
▁ɛkyerɛsɛ	-12022
▁ɛkɔgyina	-12023
▁ɛkɔnkɔdi	-12024
▁ɛnhyehyɛ	-12025
▁ɛsakyera	-12026
▁ɛyɛɛdeɛn	-12027
adaworomma	-12028
agymigyimi	-12029
nkwasiasɛm	-12030
odwamanfoɔ	-12031
▁abaayewai	-12032
▁ababawayi	-12033
▁abrantiie	-12034
▁abrempong	-12035
▁adanedane	-12036
▁adaworoma	-12037
▁adokorowo	-12038
▁adukurumu	-12039
▁aduokonon	-12040
▁aduoɔwtwe	-12041
▁aduɔwɔtwe	-12042
▁adwarewoɔ	-12043
▁adwumakuo	-12044
▁afirihyia	-12045
▁agyerɛwoɔ	-12046
▁agyingena	-12047
▁ahintasɛm	-12048
▁ahohyehyɛ	-12049
▁ahwamhwam	-12050
▁ahwansena	-12051
▁akekakeka	-12052
▁akokuduro	-12053
▁akokuroko	-12054
▁akokɔdwee	-12055
▁akoromfoɔ	-12056
▁akwaneasa	-12057
▁akwankyia	-12058
▁akyimisɛm	-12059
▁anibrefoɔ	-12060
▁ankwahyia	-12061
▁aperapera	-12062
▁asaasedeɛ	-12063
▁asafohene	-12064
▁asonakwaa	-12065
▁asɔneyɛso	-12066
▁ateasefoɔ	-12067
▁atikyafoɔ	-12068
▁ayakayaka	-12069
▁berimatan	-12070
▁birabiara	-12071
▁biribiama	-12072
▁boatemaah	-12073
▁bronsamfo	-12074
▁bɔnefakyɛ	-12075
▁bɛgyeansa	-12076
▁dabiarada	-12077
▁ebefirimu	-12078
▁ebekukuru	-12079
▁esisisisi	-12080
▁firimefie	-12081
▁gyengyena	-12082
▁hweakakai	-12083
▁hwɛhwɛhwɛ	-12084
▁ketewaabi	-12085
▁kwankyerɛ	-12086
▁kwasiafoɔ	-12087
▁kwasiasɛm	-12088
▁kyerɛsɛmu	-12089
▁manteetee	-12090
▁masomdwoe	-12091
▁mayɛntena	-12092
▁medemansa	-12093
▁megyedisɛ	-12094
▁mentenase	-12095
▁meoawkyɛw	-12096
▁mepawokyɛ	-12097
▁merekyerɛ	-12098
▁mesebɛsen	-12099
▁misrimfoɔ	-12100
▁mmesiriwa	-12101
▁moabɛhyia	-12102
▁montenase	-12103
▁mpanimfuo	-12104
▁mpaninfuo	-12105
▁mɛkayɛnho	-12106
▁mɛpinkyen	-12107
▁nantenate	-12108
▁neɛmmanie	-12109
▁nfutoromu	-12110
▁nhyehyɛyɛ	-12111
▁nimdeɛfoɔ	-12112
▁nkrasifoɔ	-12113
▁nkunimdie	-12114
▁nkwanhyia	-12115
▁npaninfoɛ	-12116
▁ntakraboa	-12117
▁ntɔkwadeɛ	-12118
▁nyameasɛm	-12119
▁nyansasɛm	-12120
▁obaabesia	-12121
▁omanpayin	-12122
▁onyansafo	-12123
▁onyansani	-12124
▁osiwokwan	-12125
▁panpanpan	-12126
▁tenewonsa	-12127
▁titmuɔden	-12128
▁twitwideɛ	-12129
▁wobenyini	-12130
▁wobɛgyerɛ	-12131
▁wobɛgyina	-12132
▁wobɛkyerɛ	-12133
▁wohotesɛn	-12134
▁wokaseɛbɔ	-12135
▁wokɛtrɛma	-12136
▁worawodea	-12137
▁worekyerɛ	-12138
▁wosomaame	-12139
▁wɔkakyerɛ	-12140
▁wɔkɔdware	-12141
▁yɛnnyinaa	-12142
▁ɔhwɛsofoɔ	-12143
▁ɔmanbɔfoɔ	-12144
▁ɔteasefoɔ	-12145
▁ɛbɛboaboa	-12146
▁ɛkakyerɛɛ	-12147
▁ɛnoaanono	-12148
▁abasobɔdeɛ	-12149
▁abotaredeɛ	-12150
▁abrokyiman	-12151
▁adwomtofoɔ	-12152
▁ahohoyɛbea	-12153
▁ahunumɔbrɔ	-12154
▁ahyɛnsodeɛ	-12155
▁akenkansɛm	-12156
▁akwaaneasa	-12157
▁akwasidayɛ	-12158
▁akyitaafoɔ	-12159
▁amamenpena	-12160
▁animounyam	-12161
▁anumuonyam	-12162
▁asobrakyeɛ	-12163
▁atantandeɛ	-12164
▁atetɛatetɛ	-12165
▁atutroasɛm	-12166
▁atuturafoɔ	-12167
▁bebirebeyi	-12168
▁dadadadada	-12169
▁dɛkyɛdɛkyɛ	-12170
▁firimufiri	-12171
▁gwaregware	-12172
▁gyengyenaa	-12173
▁gyerɛgyerɛ	-12174
▁kakabensɛm	-12175
▁kataasehyɛ	-12176
▁koronkoron	-12177
▁kurommafoɔ	-12178
▁kyenkyenaa	-12179
▁kyinkyinaa	-12180
▁mekorakora	-12181
▁menihomhom	-12182
▁metirihwii	-12183
▁mmayɛnkwan	-12184
▁mmɛrimasɛm	-12185
▁nankawefoɔ	-12186
▁nenfigyire	-12187
▁nsɛmsɛmsɛm	-12188
▁ntuntukorm	-12189
▁obenyankwa	-12190
▁okristonii	-12191
▁twontwonku	-12192
▁tɔntɔkurom	-12193
▁wobɛhwehwɛ	-12194
▁wobɛkotome	-12195
▁wogyegyere	-12196
▁wokakyerɛɛ	-12197
▁wokekakeka	-12198
▁wokyekyere	-12199
▁wotumirika	-12200
▁wowrɛnfiri	-12201
▁woyɛyɛyɛyɛ	-12202
▁wɔsosɔsosɔ	-12203
▁yɛnkorɔfoɔ	-12204
▁yɛnkotwaso	-12205
▁ɔhenempong	-12206
tetɛwutetɛwu	-12207
▁abɔtensofoɔ	-12208
▁agwerekakro	-12209
▁ahohogyebea	-12210
▁ahomatrofoɔ	-12211
▁akosuankɔsɔ	-12212
▁anifrayɛfoɔ	-12213
▁anuonyamhyɛ	-12214
▁anyambrasɛm	-12215
▁beberebeeee	-12216
▁biribibiara	-12217
▁biribikɔyɛɛ	-12218
▁etirimuoden	-12219
▁gyimigyimii	-12220
▁hahahahahaa	-12221
▁information	-12222
▁kokuromotie	-12223
▁mekuromufoɔ	-12224
▁mempaninfoɔ	-12225
▁mengyaigyai	-12226
▁menyankopɔn	-12227
▁mɛkɔnnaaseɛ	-12228
▁nkonuasofoɔ	-12229
▁nkrɔfoɔbɛto	-12230
▁nkunimdifoɔ	-12231
▁nsɛmpakanii	-12232
▁nsɛtwerɛfoɔ	-12233
▁nyambransɛm	-12234
▁otirimoɔden	-12235
▁posoposopso	-12236
▁wompaninfoɔ	-12237
▁wotwamentrɔ	-12238
▁ɛnenamnemam	-12239
▁ahomatorofoɔ	-12240
▁akukudurufoɔ	-12241
▁akɛseɛakɛseɛ	-12242
▁amanpaninfoɔ	-12243
▁animonyamfoɔ	-12244
▁anyambransɛm	-12245
▁anyenyebiara	-12246
▁atwitwiridie	-12247
▁brɛbrɛbrɛbrɛ	-12248
▁bɛgwaregware	-12249
▁bɛkyerɛkyerɛ	-12250
▁hyehyɛhyehyɛ	-12251
▁kaakaamotobi	-12252
▁kyekyɛkyekyɛ	-12253
▁kɔworɔkɔworɔ	-12254
▁mempɛnpɛnsoɔ	-12255
▁mewɔfaasefoɔ	-12256
▁mogyinagyina	-12257
▁nkontokranee	-12258
▁wopekyapekya	-12259
▁yɛkyekyereyɛ	-12260
▁ɔfemfamfemam	-12261
▁etwitwatwitwa	-12262
▁kakrakarakara	-12263
▁kwerɛkwerɛfoɔ	-12264
▁kyerɔwkrokron	-12265
▁ɔkyerɛkyerɛni	-12266
▁ɛwɔdowɔdowɔdo	-12267
▁nkuruwankuruwa	-12268
▁papapapapapapa	-12269
▁ɔkyerɛwkyerɛfoɔ	-12270
akɛ	-12271
als	-12272
blo	-12273
edw	-12274
ekm	-12275
esn	-12276
gai	-12277
irg	-12278
ldn	-12279
lpo	-12280
okɛ	-12281
opi	-12282
oss	-12283
pis	-12284
pop	-12285
rrn	-12286
rrr	-12287
ukɛ	-12288
yɔɔ	-12289
afee	-12290
alpo	-12291
atan	-12292
beee	-12293
beny	-12294
biga	-12295
boni	-12296
dwod	-12297
dɔbe	-12298
dɔfo	-12299
dɛɛ	-12300
iii	-12301
tɛɛ	-12302
boii	-12303
eboo	-12304
eken	-12305
ekmɛ	-12306
ekuo	-12307
enii	-12308
errn	-12309
eryl	-12310
euro	-12311
firm	-12312
fref	-12313
fren	-12314
gare	-12315
gina	-12316
gnan	-12317
gyɔn	-12318
help	-12319
homh	-12320
homu	-12321
hort	-12322
ight	-12323
ihom	-12324
iiii	-12325
ilyɛ	-12326
inat	-12327
ioni	-12328
isoɔ	-12329
itia	-12330
kaaa	-12331
kron	-12332
krɔk	-12333
kumu	-12334
kɛsɛ	-12335
ldre	-12336
leep	-12337
lege	-12338
lies	-12339
lood	-12340
lotu	-12341
lowe	-12342
mdwo	-12343
menp	-12344
mfam	-12345
mooh	-12346
mpon	-12347
mpso	-12348
mpue	-12349
nhom	-12350
nneɛ	-12351
nnom	-12352
noɔm	-12353
nsoɔ	-12354
ntid	-12355
ntuo	-12356
numɔ	-12357
odwa	-12358
ooww	-12359
opra	-12360
orry	-12361
oson	-12362
panp	-12363
pita	-12364
pite	-12365
piti	-12366
plan	-12367
prep	-12368
pres	-12369
pɔmu	-12370
pɔsɔ	-12371
pɛnp	-12372
rder	-12373
rity	-12374
rley	-12375
romf	-12376
sent	-12377
sidɛ	-12378
srew	-12379
ssma	-12380
tail	-12381
temp	-12382
tepo	-12383
tink	-12384
tual	-12385
tudy	-12386
tygi	-12387
tɔɔɔ	-12388
tɛtɛ	-12389
tɛwu	-12390
ufuo	-12391
ukuo	-12392
untr	-12393
unty	-12394
usuu	-12395
utwɔ	-12396
utɔɔ	-12397
wini	-12398
wkro	-12399
ets	-12400
ety	-12401
ply	-12402
ppo	-12403
ppy	-12404
tɛt	-12405
aban	-12406
amfo	-12407
anam	-12408
dolf	-12409
dwom	-12410
etre	-12411
etti	-12412
hopp	-12413
hwew	-12414
hyeh	-12415
hyew	-12416
hyie	-12417
itak	-12418
kbɛn	-12419
mbra	-12420
ntie	-12421
ppen	-12422
pply	-12423
ppor	-12424
rmah	-12425
sban	-12426
tump	-12427
wodɛ	-12428
woro	-12429
wumm	-12430
wyer	-12431
yamb	-12432
yfri	-12433
yiga	-12434
yɛnk	-12435
ɔdin	-12436
ɔtee	-12437
ɔuri	-12438
ɔɛwɔ	-12439
ɛoni	-12440
ɛɛfo	-12441
▁apu	-12442
▁hɛl	-12443
▁int	-12444
▁lau	-12445
▁mɔb	-12446
▁omp	-12447
▁plo	-12448
▁rai	-12449
▁rou	-12450
▁sty	-12451
▁ɛhw	-12452
▁ɛpu	-12453
adies	-12454
adres	-12455
amfoɔ	-12456
ampon	-12457
anamo	-12458
anhwe	-12459
anpan	-12460
anteɛ	-12461
anumo	-12462
arefu	-12463
asana	-12464
aseɛa	-12465
bebue	-12466
bepue	-12467
betia	-12468
betie	-12469
buebu	-12470
ddyne	-12471
depre	-12472
derfu	-12473
didea	-12474
didiɛ	-12475
dwife	-12476
dwiri	-12477
ebisa	-12478
ebɔne	-12479
eiiii	-12480
ekend	-12481
emfoɔ	-12482
enfam	-12483
ensam	-12484
ensen	-12485
eping	-12486
eryth	-12487
fempa	-12488
fteen	-12489
funum	-12490
futor	-12491
futuo	-12492
getti	-12493
ghtho	-12494
ghtma	-12495
gyidi	-12496
haban	-12497
haron	-12498
henem	-12499
big	-12500
eɛm	-12501
fɛf	-12502
fɛɛ	-12503
got	-12504
afra	-12505
awan	-12506
diew	-12507
hour	-12508
idie	-12509
kɛse	-12510
ldie	-12511
moye	-12512
nnwo	-12513
odie	-12514
ollo	-12515
rand	-12516
rang	-12517
tran	-12518
tutu	-12519
uwan	-12520
wann	-12521
wanw	-12522
wpaa	-12523
ɔfra	-12524
ɛseɛ	-12525
▁ide	-12526
▁nur	-12527
▁ɛmp	-12528
eɛpaa	-12529
fodie	-12530
hanai	-12531
hodan	-12532
hoɔfɛ	-12533
hwini	-12534
ikwan	-12535
illag	-12536
imdie	-12537
impie	-12538
impoa	-12539
inite	-12540
ister	-12541
kaakɔ	-12542
kaase	-12543
kaayɛ	-12544
kahwe	-12545
kakro	-12546
kaseɛ	-12547
kopon	-12548
korso	-12549
krane	-12550
krofu	-12551
kroko	-12552
kumaa	-12553
kwani	-12554
kyape	-12555
kɔfaa	-12556
lapaa	-12557
ldren	-12558
leywo	-12559
lking	-12560
llooo	-12561
mbran	-12562
menfa	-12563
menka	-12564
mensa	-12565
menua	-12566
mepaa	-12567
merma	-12568
merɛa	-12569
merɛw	-12570
mhomu	-12571
misen	-12572
mmɛbɔ	-12573
mmɛdi	-12574
mmɛpa	-12575
motia	-12576
mpaim	-12577
nante	-12578
naobi	-12579
neame	-12580
neymo	-12581
nhoma	-12582
nkbrɛ	-12583
nkbɛn	-12584
nkyen	-12585
nmerɛ	-12586
nnwon	-12587
noɔma	-12588
ointe	-12589
okono	-12590
omire	-12591
ompan	-12592
ongra	-12593
onhom	-12594
orowo	-12595
ountr	-12596
ousbo	-12597
paemu	-12598
pampa	-12599
esa	-12600
fid	-12601
fut	-12602
lon	-12603
msh	-12604
mto	-12605
onk	-12606
ont	-12607
rey	-12608
tel	-12609
tob	-12610
unu	-12611
ɛto	-12612
▁eu	-12613
abat	-12614
baab	-12615
baaw	-12616
baaɔ	-12617
bewu	-12618
dwam	-12619
ente	-12620
eɛfi	-12621
fato	-12622
fotu	-12623
gena	-12624
irif	-12625
irim	-12626
mena	-12627
nefa	-12628
nema	-12629
neso	-12630
onkɔ	-12631
onwa	-12632
orga	-12633
rebɛ	-12634
rofu	-12635
sabo	-12636
saka	-12637
sing	-12638
srɛw	-12639
suan	-12640
toko	-12641
toyɛ	-12642
umto	-12643
wani	-12644
▁ayɔ	-12645
▁enp	-12646
▁nig	-12647
▁pɛp	-12648
▁sto	-12649
▁tol	-12650
▁yef	-12651
▁ɔnt	-12652
▁ɛfe	-12653
▁ɛnd	-12654
anwan	-12655
arame	-12656
baaeɛ	-12657
baate	-12658
baawa	-12659
baayi	-12660
bafie	-12661
enaso	-12662
hanan	-12663
irieɛ	-12664
irime	-12665
iriso	-12666
pedwa	-12667
pempe	-12668
pense	-12669
pispi	-12670
pital	-12671
ppene	-12672
pɛbra	-12673
pɛnso	-12674
rabea	-12675
rande	-12676
rapra	-12677
rasen	-12678
rateɛ	-12679
reeno	-12680
rehoɔ	-12681
rehwe	-12682
ressi	-12683
ressu	-12684
riati	-12685
ridin	-12686
rmati	-12687
rokaa	-12688
rough	-12689
rɔkrɔ	-12690
rɔɔso	-12691
rɛhoɔ	-12692
sabaa	-12693
sayie	-12694
sekuo	-12695
sembl	-12696
semhu	-12697
sendi	-12698
sesae	-12699
au	-12700
ud	-12701
anm	-12702
aɛn	-12703
bɛg	-12704
dik	-12705
dis	-12706
inh	-12707
kɛt	-12708
mob	-12709
ndi	-12710
nne	-12711
oɛn	-12712
tɛw	-12713
wal	-12714
wɛa	-12715
wɛɛ	-12716
yew	-12717
ɛng	-12718
ɛnk	-12719
ɛnt	-12720
aane	-12721
aaɛn	-12722
baye	-12723
bɛyi	-12724
diti	-12725
feel	-12726
home	-12727
hyin	-12728
iayɛ	-12729
kaho	-12730
kɔne	-12731
lent	-12732
nera	-12733
nkro	-12734
omin	-12735
rabe	-12736
tasi	-12737
tome	-12738
tɔkɔ	-12739
wudi	-12740
yene	-12741
yɛne	-12742
ɔdeɛ	-12743
ɛnbɛ	-12744
ɛnɛn	-12745
▁ahw	-12746
▁bɔa	-12747
▁mef	-12748
▁npa	-12749
▁ooy	-12750
▁red	-12751
▁sah	-12752
▁tef	-12753
▁wah	-12754
▁yɛf	-12755
aadie	-12756
baabi	-12757
debaa	-12758
enyin	-12759
iriwo	-12760
kyibɔ	-12761
nefoɔ	-12762
reena	-12763
ribia	-12764
ronma	-12765
siano	-12766
siona	-12767
sione	-12768
sions	-12769
soayi	-12770
sroma	-12771
stoni	-12772
sɛkuo	-12773
sɛmka	-12774
taban	-12775
tasem	-12776
teete	-12777
tesea	-12778
teɛti	-12779
thday	-12780
thers	-12781
thout	-12782
tiati	-12783
tieti	-12784
tiful	-12785
tikya	-12786
tirih	-12787
tirim	-12788
titin	-12789
toaso	-12790
tudie	-12791
tufoɔ	-12792
tumpu	-12793
tuoka	-12794
tɛate	-12795
uansa	-12796
uaseɛ	-12797
uason	-12798
umpan	-12799
af	-12800
yl	-12801
bes	-12802
dio	-12803
enk	-12804
erg	-12805
hot	-12806
ite	-12807
iwu	-12808
kat	-12809
kwe	-12810
nsi	-12811
nwe	-12812
oad	-12813
ony	-12814
ori	-12815
pte	-12816
raɛ	-12817
ria	-12818
rsi	-12819
rti	-12820
sid	-12821
siɛ	-12822
sɛd	-12823
tsi	-12824
usi	-12825
wem	-12826
wud	-12827
wun	-12828
wuu	-12829
yen	-12830
yif	-12831
yne	-12832
ɔsi	-12833
ɔwe	-12834
▁ky	-12835
▁sy	-12836
▁ɔr	-12837
afoɔ	-12838
baan	-12839
erba	-12840
eɛyɛ	-12841
gyin	-12842
ints	-12843
mate	-12844
onte	-12845
sifo	-12846
sime	-12847
tese	-12848
uaye	-12849
ufoɔ	-12850
wate	-12851
wede	-12852
weeɛ	-12853
wubi	-12854
wume	-12855
wumo	-12856
wusɛ	-12857
wute	-12858
yind	-12859
yink	-12860
yinm	-12861
▁dwu	-12862
▁kof	-12863
▁kɔr	-12864
▁mal	-12865
▁sɛg	-12866
▁wed	-12867
▁wɔb	-12868
▁ɛke	-12869
enfoɔ	-12870
foɔmo	-12871
infoɔ	-12872
kakyi	-12873
maawo	-12874
namfo	-12875
sigye	-12876
sɛmne	-12877
teeba	-12878
tinti	-12879
umifo	-12880
umiri	-12881
under	-12882
wakoo	-12883
wanna	-12884
wanso	-12885
weety	-12886
werɛk	-12887
witwi	-12888
wobre	-12889
wodwo	-12890
wonku	-12891
wtetɛ	-12892
wudin	-12893
wuieɛ	-12894
wumto	-12895
wɛyie	-12896
yaena	-12897
yanan	-12898
yefoɔ	-12899
gw	-12900
ws	-12901
yb	-12902
dab	-12903
dad	-12904
das	-12905
enw	-12906
hda	-12907
hwɔ	-12908
les	-12909
mwɔ	-12910
nba	-12911
onn	-12912
pɛw	-12913
rso	-12914
ske	-12915
sod	-12916
uom	-12917
wɔd	-12918
wɔm	-12919
wɔt	-12920
aabɛ	-12921
aada	-12922
aadi	-12923
aned	-12924
aset	-12925
btoo	-12926
dabɛ	-12927
daro	-12928
dase	-12929
dawɔ	-12930
deda	-12931
ghts	-12932
iawa	-12933
imwɔ	-12934
irip	-12935
isɛm	-12936
menh	-12937
neaɔ	-12938
oman	-12939
resɛ	-12940
seda	-12941
sɛmn	-12942
uani	-12943
unum	-12944
wans	-12945
weaa	-12946
ween	-12947
wsɛm	-12948
wɔwo	-12949
yawɔ	-12950
yimo	-12951
yɛmu	-12952
ɛbɛn	-12953
▁aab	-12954
▁bet	-12955
▁bin	-12956
▁end	-12957
▁ens	-12958
▁fad	-12959
▁fak	-12960
▁faɔ	-12961
▁muf	-12962
▁pah	-12963
▁wen	-12964
▁wou	-12965
▁ɛsu	-12966
ansɛm	-12967
anuma	-12968
bɛfrɛ	-12969
eneho	-12970
fieha	-12971
fosɛm	-12972
sɛmpa	-12973
tesem	-12974
wasɛm	-12975
wieeɛ	-12976
yeman	-12977
yenye	-12978
yewai	-12979
yiame	-12980
yidiɛ	-12981
yimig	-12982
yimin	-12983
yisɛn	-12984
yiɛyɛ	-12985
yɔbaa	-12986
yɛdɛn	-12987
ɔntia	-12988
ɛfɛfɛ	-12989
ɛnbɛn	-12990
ɛnsoɔ	-12991
ɛntin	-12992
▁abet	-12993
▁abɔm	-12994
▁adaw	-12995
▁adok	-12996
▁afaf	-12997
▁afan	-12998
▁afee	-12999
wd	-13000
eit	-13001
iwo	-13002
kog	-13003
kon	-13004
mar	-13005
noɔ	-13006
nyi	-13007
oko	-13008
she	-13009
sio	-13010
sup	-13011
uaf	-13012
ɔko	-13013
ɛko	-13014
ɛon	-13015
ɛɛɛ	-13016
▁br	-13017
▁yu	-13018
anfɛ	-13019
bere	-13020
bɛhu	-13021
bɛko	-13022
edeɛ	-13023
fɛso	-13024
huno	-13025
iewu	-13026
ieyɛ	-13027
kona	-13028
korm	-13029
mmam	-13030
moen	-13031
mɔmo	-13032
ndeɛ	-13033
omaa	-13034
omfo	-13035
rako	-13036
reha	-13037
reko	-13038
rohi	-13039
rous	-13040
rshi	-13041
rɛno	-13042
sian	-13043
tiko	-13044
toto	-13045
wako	-13046
yabɔ	-13047
▁dab	-13048
▁hai	-13049
▁hud	-13050
▁mɛd	-13051
▁mɛs	-13052
▁naf	-13053
▁wum	-13054
▁ɛnp	-13055
anisu	-13056
baano	-13057
bɛsei	-13058
deɛbɛ	-13059
deɛfo	-13060
deɛwo	-13061
imdeɛ	-13062
kadeɛ	-13063
kodeɛ	-13064
medeɛ	-13065
mesɛm	-13066
sɛmbi	-13067
twerɛ	-13068
wanti	-13069
yerɛk	-13070
yideɛ	-13071
yɛdeɛ	-13072
▁afof	-13073
▁agor	-13074
▁ahan	-13075
▁akop	-13076
▁akot	-13077
▁akɔk	-13078
▁alri	-13079
▁alwa	-13080
▁amoa	-13081
▁anam	-13082
▁anɔp	-13083
▁apaa	-13084
▁asad	-13085
▁aseg	-13086
▁atut	-13087
▁awɔs	-13088
▁baaa	-13089
▁banf	-13090
▁beau	-13091
▁beti	-13092
▁bloo	-13093
▁bore	-13094
▁boyf	-13095
▁brem	-13096
▁bron	-13097
▁busu	-13098
▁bɔat	-13099
ai	-13100
ph	-13101
ɔl	-13102
ɛh	-13103
bal	-13104
bif	-13105
bua	-13106
iɛn	-13107
mno	-13108
nou	-13109
oba	-13110
tmu	-13111
uab	-13112
uad	-13113
uag	-13114
uak	-13115
uam	-13116
wit	-13117
wos	-13118
yɛf	-13119
yɛh	-13120
▁og	-13121
aano	-13122
anba	-13123
arad	-13124
baeɛ	-13125
baso	-13126
bayɛ	-13127
bɔso	-13128
daye	-13129
ensi	-13130
enyi	-13131
geti	-13132
maeɛ	-13133
mapa	-13134
miri	-13135
nona	-13136
onii	-13137
popo	-13138
radi	-13139
reyɛ	-13140
saba	-13141
soba	-13142
thro	-13143
tiaa	-13144
tino	-13145
uaba	-13146
uabi	-13147
uare	-13148
umba	-13149
wamo	-13150
yeno	-13151
yiah	-13152
ɔneɛ	-13153
ɛfoɔ	-13154
▁kɔh	-13155
▁sea	-13156
▁seh	-13157
▁seo	-13158
▁sop	-13159
▁yye	-13160
arabɛ	-13161
enkye	-13162
fadeɛ	-13163
fodeɛ	-13164
lanne	-13165
rafoɔ	-13166
romma	-13167
rotwa	-13168
samfo	-13169
taaba	-13170
waadu	-13171
wanho	-13172
▁abɛɛ	-13173
▁ased	-13174
▁bɔmo	-13175
▁bɔse	-13176
▁bɛdu	-13177
▁dayo	-13178
▁deta	-13179
▁doub	-13180
▁dwab	-13181
▁dɛsɛ	-13182
▁edwi	-13183
▁eeee	-13184
▁eeia	-13185
▁efri	-13186
▁enou	-13187
▁enpo	-13188
▁enwu	-13189
▁esra	-13190
▁faad	-13191
▁fako	-13192
▁foɔa	-13193
▁fren	-13194
▁fufo	-13195
▁gent	-13196
▁glor	-13197
▁gues	-13198
▁haah	-13199
bah	-13200
bih	-13201
deg	-13202
efa	-13203
eid	-13204
eis	-13205
eiɛ	-13206
ger	-13207
hin	-13208
inm	-13209
mhu	-13210
min	-13211
mɔn	-13212
nbi	-13213
ner	-13214
non	-13215
omh	-13216
oɔn	-13217
pin	-13218
roa	-13219
rof	-13220
roh	-13221
rok	-13222
roo	-13223
row	-13224
roɔ	-13225
rɛɛ	-13226
shu	-13227
udi	-13228
ɔnt	-13229
▁pr	-13230
aaye	-13231
afie	-13232
anne	-13233
bawa	-13234
bibi	-13235
dera	-13236
eiiɔ	-13237
enhu	-13238
enua	-13239
enwɔ	-13240
fame	-13241
heth	-13242
hubi	-13243
hueɛ	-13244
huhu	-13245
husɛ	-13246
huwo	-13247
hwam	-13248
ifoɔ	-13249
inte	-13250
kode	-13251
lame	-13252
nara	-13253
nibɛ	-13254
nyɛm	-13255
peak	-13256
raba	-13257
reti	-13258
rieɛ	-13259
robɛ	-13260
rome	-13261
suwa	-13262
tesi	-13263
tiwo	-13264
wefo	-13265
yaeɛ	-13266
yede	-13267
yiin	-13268
▁mor	-13269
▁nki	-13270
▁shu	-13271
▁sig	-13272
▁sob	-13273
▁teh	-13274
▁wod	-13275
▁ɛdo	-13276
bɛhyɛ	-13277
manie	-13278
oonea	-13279
tinin	-13280
▁hofa	-13281
▁hwea	-13282
▁hwɛɔ	-13283
▁hɛɛl	-13284
▁info	-13285
▁insi	-13286
▁kill	-13287
▁kont	-13288
▁kris	-13289
▁kron	-13290
▁kɔro	-13291
▁kɔɔd	-13292
▁leag	-13293
▁maad	-13294
▁marr	-13295
▁menf	-13296
▁meɛn	-13297
▁mfra	-13298
▁miam	-13299
ip	-13300
ɔo	-13301
bum	-13302
deh	-13303
dek	-13304
dum	-13305
ede	-13306
eɛɔ	-13307
ifa	-13308
inu	-13309
mfa	-13310
omb	-13311
owo	-13312
pap	-13313
pwo	-13314
rst	-13315
ruo	-13316
tim	-13317
tuk	-13318
umd	-13319
wea	-13320
wme	-13321
wof	-13322
wok	-13323
wwo	-13324
yti	-13325
yɛd	-13326
ɔto	-13327
ɔwo	-13328
ɛat	-13329
ɛnw	-13330
ɛwo	-13331
▁ht	-13332
aawo	-13333
ande	-13334
daad	-13335
deka	-13336
eiwo	-13337
enfa	-13338
faso	-13339
guwo	-13340
hono	-13341
iasɛ	-13342
kade	-13343
manm	-13344
mawo	-13345
mowo	-13346
nɛra	-13347
odwo	-13348
pawo	-13349
rade	-13350
rawo	-13351
rede	-13352
rehɔ	-13353
rewo	-13354
riwo	-13355
umie	-13356
umme	-13357
umyɛ	-13358
waku	-13359
wobɛ	-13360
wode	-13361
▁enf	-13362
▁fan	-13363
▁gif	-13364
▁hɔo	-13365
▁kap	-13366
▁mos	-13367
▁mpu	-13368
▁nnw	-13369
▁nny	-13370
▁sub	-13371
▁ɛny	-13372
asika	-13373
bifoɔ	-13374
droom	-13375
enkan	-13376
irisɛ	-13377
kofoɔ	-13378
kroaa	-13379
onini	-13380
prosi	-13381
reean	-13382
yinag	-13383
▁beto	-13384
▁mman	-13385
▁mmmh	-13386
▁mooh	-13387
▁mran	-13388
▁naom	-13389
▁nbrɔ	-13390
▁nfig	-13391
▁nnoɔ	-13392
▁nnwo	-13393
▁nnwɔ	-13394
▁noko	-13395
▁nokw	-13396
▁nowh	-13397
▁noɛɛ	-13398
▁nsif	-13399
sb	-13400
eor	-13401
gor	-13402
hok	-13403
iag	-13404
imd	-13405
img	-13406
imn	-13407
kol	-13408
mim	-13409
mod	-13410
mof	-13411
mog	-13412
mou	-13413
mow	-13414
oll	-13415
oom	-13416
org	-13417
orr	-13418
sos	-13419
tiw	-13420
tot	-13421
ufa	-13422
umo	-13423
woe	-13424
wɛb	-13425
yɛt	-13426
yɛu	-13427
ansi	-13428
araɛ	-13429
boso	-13430
bɛma	-13431
ense	-13432
imsɛ	-13433
lone	-13434
manp	-13435
mofo	-13436
mono	-13437
paim	-13438
piri	-13439
rant	-13440
rewu	-13441
rimo	-13442
rimu	-13443
roso	-13444
rɔfo	-13445
semb	-13446
timo	-13447
toso	-13448
tuen	-13449
tuoa	-13450
uako	-13451
uati	-13452
wana	-13453
wɛen	-13454
wɛma	-13455
▁att	-13456
▁fig	-13457
▁fro	-13458
▁nes	-13459
▁rel	-13460
▁ret	-13461
▁rew	-13462
▁twɛ	-13463
▁yan	-13464
▁yir	-13465
▁ɔsi	-13466
▁ɛnw	-13467
andwo	-13468
dafla	-13469
eideɛ	-13470
ensɛm	-13471
ketba	-13472
kɔfrɛ	-13473
tafra	-13474
tanfo	-13475
tiall	-13476
umerɛ	-13477
yafoɔ	-13478
yanka	-13479
▁beri	-13480
▁deɛɔ	-13481
▁kɔbi	-13482
▁mewɛ	-13483
▁neti	-13484
▁nfla	-13485
▁nsɔa	-13486
▁ntin	-13487
▁ntɛn	-13488
▁numb	-13489
▁nwas	-13490
▁nwor	-13491
▁nwui	-13492
▁nwɔn	-13493
▁nyen	-13494
▁obro	-13495
▁odwa	-13496
▁ofii	-13497
▁okri	-13498
▁olum	-13499
lw	-13500
beh	-13501
bɛb	-13502
bɛf	-13503
bɛm	-13504
bɛs	-13505
bɛt	-13506
bɛy	-13507
fad	-13508
ibo	-13509
ibɛ	-13510
lpa	-13511
mbɛ	-13512
mwo	-13513
nbɛ	-13514
nma	-13515
npa	-13516
nwo	-13517
obɛ	-13518
odi	-13519
oyi	-13520
pab	-13521
pad	-13522
pak	-13523
pat	-13524
pau	-13525
pot	-13526
tug	-13527
two	-13528
usu	-13529
wɛd	-13530
wɛw	-13531
ɛbo	-13532
aaeɛ	-13533
aako	-13534
aapa	-13535
ahyi	-13536
bɔsi	-13537
bɛkɔ	-13538
bɛsa	-13539
bɛso	-13540
bɛte	-13541
bɛye	-13542
dieɛ	-13543
fopa	-13544
imno	-13545
info	-13546
mabi	-13547
mabɛ	-13548
momu	-13549
paeɛ	-13550
paso	-13551
pion	-13552
port	-13553
punu	-13554
rayi	-13555
seid	-13556
sisɛ	-13557
siwo	-13558
sopa	-13559
wubɛ	-13560
wɛwo	-13561
yabɛ	-13562
yapa	-13563
yman	-13564
yɛbɛ	-13565
yɛfa	-13566
▁akw	-13567
▁dou	-13568
▁epa	-13569
▁fin	-13570
▁mɛh	-13571
▁sap	-13572
▁tot	-13573
▁waw	-13574
anida	-13575
fɛɛfɛ	-13576
kasɛm	-13577
mafoɔ	-13578
rɔdeɛ	-13579
wanku	-13580
▁ahun	-13581
▁ammo	-13582
▁baab	-13583
▁maam	-13584
▁ompa	-13585
▁opra	-13586
▁pafo	-13587
▁pera	-13588
▁poin	-13589
▁pɔse	-13590
▁reno	-13591
▁reti	-13592
▁saan	-13593
▁saas	-13594
▁saaw	-13595
▁salo	-13596
▁sant	-13597
▁sean	-13598
▁seem	-13599
ht	-13600
bub	-13601
eag	-13602
ffo	-13603
fof	-13604
fop	-13605
for	-13606
fos	-13607
fot	-13608
gaa	-13609
hol	-13610
iim	-13611
lit	-13612
mah	-13613
mua	-13614
oor	-13615
rig	-13616
rɛk	-13617
ufo	-13618
ums	-13619
wfo	-13620
yat	-13621
ɔfo	-13622
aafo	-13623
abɔd	-13624
biwɔ	-13625
bɛdi	-13626
bɛsi	-13627
ende	-13628
eryw	-13629
feri	-13630
foka	-13631
fore	-13632
fosɛ	-13633
foɔɔ	-13634
hotɔ	-13635
mdwe	-13636
mobɔ	-13637
moti	-13638
moto	-13639
refo	-13640
refu	-13641
rɛfo	-13642
rɛyɛ	-13643
safo	-13644
wafo	-13645
wany	-13646
yefo	-13647
yifo	-13648
▁ans	-13649
▁bab	-13650
▁baɛ	-13651
▁deb	-13652
▁ded	-13653
▁def	-13654
▁deh	-13655
▁dek	-13656
▁dep	-13657
▁enb	-13658
▁haɛ	-13659
▁kno	-13660
▁mob	-13661
▁nem	-13662
▁sup	-13663
▁wak	-13664
▁war	-13665
blemu	-13666
eyerɛ	-13667
iagye	-13668
manbɔ	-13669
rɔsan	-13670
sɛmmi	-13671
yerɛg	-13672
▁ammɔ	-13673
▁bare	-13674
▁base	-13675
▁fing	-13676
▁kand	-13677
▁kulu	-13678
▁mefo	-13679
▁seri	-13680
▁solo	-13681
▁sorr	-13682
▁soɛn	-13683
▁spri	-13684
▁spɛɛ	-13685
▁stoo	-13686
▁stor	-13687
▁stro	-13688
▁stup	-13689
▁surp	-13690
▁sɛda	-13691
▁sɛɛn	-13692
▁term	-13693
▁thin	-13694
▁till	-13695
▁toda	-13696
▁toom	-13697
▁unti	-13698
▁wang	-13699
sm	-13700
epa	-13701
hya	-13702
ihu	-13703
ium	-13704
kag	-13705
luu	-13706
mna	-13707
nag	-13708
nah	-13709
nda	-13710
nde	-13711
sɛi	-13712
tna	-13713
yet	-13714
ɔna	-13715
▁ɛp	-13716
aabi	-13717
arao	-13718
baat	-13719
bawo	-13720
eeee	-13721
eina	-13722
enna	-13723
eɛna	-13724
eɛti	-13725
kato	-13726
kɔko	-13727
masɛ	-13728
momɔ	-13729
msɛm	-13730
niho	-13731
ofoɔ	-13732
pase	-13733
rabɛ	-13734
refa	-13735
resa	-13736
rɛna	-13737
rɛne	-13738
sona	-13739
twan	-13740
uase	-13741
unya	-13742
warɛ	-13743
womo	-13744
wɛyɛ	-13745
ɔɔso	-13746
▁bod	-13747
▁hin	-13748
▁hof	-13749
▁hok	-13750
▁hol	-13751
▁hom	-13752
▁hos	-13753
▁hɔn	-13754
▁kɔd	-13755
▁kɔe	-13756
▁kɔf	-13757
▁kɔp	-13758
▁kɔt	-13759
▁kɛs	-13760
▁mum	-13761
▁mus	-13762
▁muw	-13763
▁niɔ	-13764
▁soe	-13765
▁sol	-13766
▁son	-13767
▁tim	-13768
▁yɛe	-13769
▁ɔna	-13770
aafoɔ	-13771
baana	-13772
foɔkɔ	-13773
hyɛhɔ	-13774
kɔtaa	-13775
makyi	-13776
sakye	-13777
torom	-13778
▁bran	-13779
▁eima	-13780
▁forg	-13781
▁hona	-13782
▁hoyi	-13783
▁kona	-13784
▁kɔan	-13785
▁mmri	-13786
▁soyi	-13787
▁wapa	-13788
▁wati	-13789
▁waya	-13790
▁wedd	-13791
▁weii	-13792
▁womm	-13793
▁womp	-13794
▁wonb	-13795
▁wonf	-13796
▁worr	-13797
▁wɔna	-13798
▁yeng	-13799
py	-13800
ado	-13801
ang	-13802
eye	-13803
hak	-13804
hne	-13805
isa	-13806
kah	-13807
kɔb	-13808
mis	-13809
rek	-13810
rih	-13811
sad	-13812
sae	-13813
saf	-13814
saw	-13815
tai	-13816
tio	-13817
umt	-13818
uon	-13819
uru	-13820
wer	-13821
yid	-13822
yit	-13823
yɛp	-13824
ɛsa	-13825
ɛwɛ	-13826
▁gl	-13827
▁ms	-13828
▁oy	-13829
▁ri	-13830
▁sr	-13831
▁ɛb	-13832
aasa	-13833
bati	-13834
bedu	-13835
debe	-13836
disɛ	-13837
enem	-13838
eɛyi	-13839
hodi	-13840
inde	-13841
oshu	-13842
riso	-13843
ryin	-13844
saeɛ	-13845
sare	-13846
sase	-13847
saso	-13848
soma	-13849
somd	-13850
sɛyɛ	-13851
usan	-13852
wayi	-13853
woeɛ	-13854
▁boh	-13855
▁gen	-13856
▁kah	-13857
▁kob	-13858
▁mad	-13859
▁met	-13860
▁nef	-13861
▁nek	-13862
▁pak	-13863
▁pɛm	-13864
▁sof	-13865
▁tes	-13866
▁tre	-13867
▁wab	-13868
▁ɔpo	-13869
bodam	-13870
fofie	-13871
moase	-13872
tenso	-13873
yɛkye	-13874
▁abɛf	-13875
▁dabɛ	-13876
▁menb	-13877
▁menh	-13878
▁menp	-13879
▁menw	-13880
▁meny	-13881
▁noyi	-13882
▁wosa	-13883
▁yoom	-13884
▁yooɛ	-13885
▁yɛad	-13886
▁yɛnf	-13887
▁yɛwa	-13888
▁yɛɛg	-13889
▁yɛɛp	-13890
▁ɔben	-13891
▁ɔbɔt	-13892
▁ɔdas	-13893
▁ɔdɛɛ	-13894
▁ɔhwe	-13895
▁ɔntɔ	-13896
▁ɔpim	-13897
▁ɔres	-13898
▁ɔtei	-13899
dk	-13900
dr	-13901
my	-13902
ɛi	-13903
anɔ	-13904
hte	-13905
hwo	-13906
ida	-13907
ile	-13908
ind	-13909
kab	-13910
mey	-13911
mot	-13912
mpe	-13913
nad	-13914
nra	-13915
orn	-13916
yef	-13917
ɔan	-13918
ɔnm	-13919
ɔyɛ	-13920
ɛsɛ	-13921
▁mb	-13922
▁md	-13923
▁mh	-13924
▁sw	-13925
▁ɔb	-13926
▁ɔɔ	-13927
aare	-13928
benu	-13929
boas	-13930
eine	-13931
hese	-13932
irit	-13933
kosi	-13934
kɔɔk	-13935
omen	-13936
oron	-13937
pira	-13938
read	-13939
sayi	-13940
sera	-13941
sɛsɛ	-13942
uasa	-13943
woyɛ	-13944
yean	-13945
yɛsɛ	-13946
ɔyaa	-13947
▁bib	-13948
▁dre	-13949
▁gug	-13950
▁hor	-13951
▁kam	-13952
▁map	-13953
▁mɛm	-13954
▁neh	-13955
▁neɔ	-13956
▁wɔh	-13957
anibe	-13958
baaye	-13959
daasɔ	-13960
duane	-13961
kɔsɛm	-13962
ranka	-13963
unimi	-13964
yaado	-13965
yɛsaa	-13966
▁ahum	-13967
▁anib	-13968
▁brea	-13969
▁brew	-13970
▁dɛko	-13971
▁enua	-13972
▁kono	-13973
▁lili	-13974
▁mebi	-13975
▁moad	-13976
▁muan	-13977
▁mumm	-13978
▁naas	-13979
▁rena	-13980
▁wabo	-13981
▁ɔnpa	-13982
▁ɔtet	-13983
▁ɔtɛɛ	-13984
▁ɛmpe	-13985
▁ɛnon	-13986
▁ɛnpe	-13987
▁ɛpra	-13988
▁ɛyɛd	-13989
aagyeɛ	-13990
abaabɛ	-13991
amaame	-13992
ampong	-13993
anhwie	-13994
anibre	-13995
ansafo	-13996
apampa	-13997
beduru	-13998
begyae	-13999
hs	-14000
kn	-14001
wm	-14002
ɛd	-14003
aeɛ	-14004
amp	-14005
ans	-14006
any	-14007
eɛa	-14008
iye	-14009
myɛ	-14010
noo	-14011
onh	-14012
raf	-14013
reɔ	-14014
sal	-14015
sap	-14016
seh	-14017
sɛg	-14018
tes	-14019
tib	-14020
tre	-14021
trɛ	-14022
uan	-14023
ubɛ	-14024
waf	-14025
yeg	-14026
yem	-14027
yey	-14028
ɔda	-14029
ɔka	-14030
ɔye	-14031
▁hy	-14032
▁ɛf	-14033
▁ɛr	-14034
aasɛ	-14035
aayi	-14036
anyi	-14037
bayi	-14038
besa	-14039
enin	-14040
eɛme	-14041
hats	-14042
ieti	-14043
ieyi	-14044
lash	-14045
mafo	-14046
msoɔ	-14047
orta	-14048
pare	-14049
rayɛ	-14050
sone	-14051
suom	-14052
tɔme	-14053
yeeɛ	-14054
▁des	-14055
▁kaf	-14056
▁kus	-14057
▁mmr	-14058
▁mot	-14059
▁mun	-14060
▁nab	-14061
▁nob	-14062
▁reh	-14063
▁yek	-14064
araɛn	-14065
deman	-14066
kusɛm	-14067
onyin	-14068
pitii	-14069
wurad	-14070
ɛwɔsɛ	-14071
▁abɛk	-14072
▁anad	-14073
▁aset	-14074
▁feaa	-14075
▁hwɛh	-14076
▁meha	-14077
▁meko	-14078
▁mend	-14079
▁mewa	-14080
▁naan	-14081
▁samp	-14082
▁tori	-14083
▁wonp	-14084
▁wɔke	-14085
▁yenn	-14086
aaakyi	-14087
behunu	-14088
benyan	-14089
benyin	-14090
berebe	-14091
betumi	-14092
biarao	-14093
bisawo	-14094
blemwɔ	-14095
boaseɛ	-14096
bonsam	-14097
boyfri	-14098
brakye	-14099
ao	-14100
hr	-14101
oɛ	-14102
yn	-14103
yt	-14104
ɔr	-14105
aag	-14106
aak	-14107
aan	-14108
aap	-14109
aro	-14110
des	-14111
ebɛ	-14112
eɛe	-14113
gyɛ	-14114
iyɛ	-14115
kaw	-14116
kɔg	-14117
lyɛ	-14118
ors	-14119
sol	-14120
tid	-14121
ubi	-14122
wye	-14123
yiw	-14124
yɛb	-14125
yɛy	-14126
ɔya	-14127
ɛan	-14128
ɛeɛ	-14129
▁ar	-14130
▁dr	-14131
▁kn	-14132
▁kw	-14133
▁ts	-14134
▁ɔi	-14135
abro	-14136
adka	-14137
aran	-14138
bera	-14139
bigu	-14140
bɔeɛ	-14141
daso	-14142
deɛg	-14143
eyie	-14144
eɛsa	-14145
fiti	-14146
immu	-14147
kabi	-14148
kake	-14149
kayy	-14150
kɔfo	-14151
pɛsɔ	-14152
reto	-14153
tefo	-14154
wata	-14155
wesɛ	-14156
wewo	-14157
wɔsɛ	-14158
yeba	-14159
yeti	-14160
yɛho	-14161
▁bɛp	-14162
▁hap	-14163
▁haɔ	-14164
▁kɔk	-14165
▁mub	-14166
▁mɛg	-14167
▁nod	-14168
▁oow	-14169
▁opn	-14170
▁waf	-14171
▁wɔt	-14172
baane	-14173
bɛgye	-14174
magye	-14175
sagye	-14176
tiona	-14177
uabaa	-14178
umihu	-14179
useme	-14180
yekye	-14181
ɔmmra	-14182
▁akɔt	-14183
▁asha	-14184
▁dɔko	-14185
▁faba	-14186
▁nadu	-14187
▁neba	-14188
▁nyar	-14189
▁ɔnfi	-14190
▁ɛnko	-14191
brefoɔ	-14192
bɛtumi	-14193
denden	-14194
deɛfoɔ	-14195
didieɛ	-14196
dɛnbɛn	-14197
edwiri	-14198
eisɔfo	-14199
bt	-14200
dg	-14201
mf	-14202
wk	-14203
ɛy	-14204
aah	-14205
bti	-14206
daf	-14207
dih	-14208
emo	-14209
imw	-14210
kɔs	-14211
mab	-14212
mea	-14213
moh	-14214
mtɔ	-14215
nwu	-14216
owɔ	-14217
phe	-14218
sek	-14219
sig	-14220
sɛɔ	-14221
tew	-14222
ume	-14223
wɔh	-14224
yɛe	-14225
yɛr	-14226
ɛɛd	-14227
▁gr	-14228
▁sk	-14229
▁sm	-14230
▁ɛw	-14231
anku	-14232
anwa	-14233
deba	-14234
duam	-14235
eɛso	-14236
eɛsɛ	-14237
hell	-14238
ille	-14239
koti	-14240
kɔyɛ	-14241
mayi	-14242
naso	-14243
nebɛ	-14244
orti	-14245
orɔk	-14246
reme	-14247
ruom	-14248
yaen	-14249
yɛno	-14250
yɛwo	-14251
▁dak	-14252
▁det	-14253
▁ebɛ	-14254
▁kri	-14255
▁nag	-14256
▁nat	-14257
▁nsh	-14258
▁reb	-14259
▁woe	-14260
ansan	-14261
aseɛn	-14262
ifiri	-14263
refoɔ	-14264
rodeɛ	-14265
wadie	-14266
yeree	-14267
ɔnkye	-14268
▁adri	-14269
▁atwɛ	-14270
▁haɛn	-14271
▁mawa	-14272
▁monk	-14273
▁nimn	-14274
▁ntid	-14275
▁sofa	-14276
▁tobi	-14277
▁yiba	-14278
▁yɛnn	-14279
bitibi	-14280
enaase	-14281
enafoɔ	-14282
enamne	-14283
enatus	-14284
ension	-14285
fering	-14286
fihyia	-14287
fopapa	-14288
framaa	-14289
frefre	-14290
gorɔsɛ	-14291
guaseɛ	-14292
gwareg	-14293
gyefoɔ	-14294
gyerɛɛ	-14295
gyinag	-14296
hahaha	-14297
hanafu	-14298
hether	-14299
dw	-14300
fl	-14301
gl	-14302
km	-14303
ls	-14304
mb	-14305
og	-14306
ok	-14307
tn	-14308
uw	-14309
wr	-14310
ys	-14311
yw	-14312
ɛl	-14313
aaɔ	-14314
daw	-14315
dim	-14316
dka	-14317
ean	-14318
eng	-14319
ens	-14320
fen	-14321
ide	-14322
ior	-14323
iya	-14324
nko	-14325
sah	-14326
sao	-14327
sro	-14328
tis	-14329
yeh	-14330
yeɛ	-14331
ɛte	-14332
▁tw	-14333
▁ɔk	-14334
▁ɛe	-14335
anbɛ	-14336
bɔte	-14337
ekye	-14338
fawo	-14339
hata	-14340
imso	-14341
kase	-14342
koso	-14343
kɔda	-14344
reho	-14345
rena	-14346
rɛeɛ	-14347
teeɛ	-14348
tobo	-14349
topa	-14350
wasɛ	-14351
wied	-14352
womt	-14353
yedi	-14354
yibi	-14355
ɔnkɔ	-14356
ɛtwi	-14357
▁bar	-14358
▁dap	-14359
▁maf	-14360
▁noy	-14361
▁wop	-14362
▁wɔg	-14363
▁yeb	-14364
▁yɛt	-14365
▁yɛu	-14366
animɛ	-14367
ateas	-14368
kunim	-14369
kyewo	-14370
mofra	-14371
omsoɔ	-14372
rakyɛ	-14373
ranti	-14374
redeɛ	-14375
retwe	-14376
wideɛ	-14377
▁abor	-14378
▁ahog	-14379
▁anif	-14380
▁arab	-14381
▁kaab	-14382
▁kaka	-14383
▁mari	-14384
▁nanɛ	-14385
▁saaɛ	-14386
▁ɛbɛb	-14387
▁ɛnse	-14388
housan	-14389
huadeɛ	-14390
hwɛhwɛ	-14391
hyiaeɛ	-14392
hyɛhye	-14393
hɔɔtɔɔ	-14394
igaret	-14395
ingers	-14396
intwan	-14397
iritua	-14398
kaasɛm	-14399
gr	-14400
tb	-14401
td	-14402
tf	-14403
tt	-14404
ug	-14405
wy	-14406
ɔp	-14407
ɔy	-14408
ɔɛ	-14409
ɛs	-14410
aas	-14411
doo	-14412
ebo	-14413
kno	-14414
kɔd	-14415
lli	-14416
lwa	-14417
mek	-14418
nal	-14419
nhu	-14420
pam	-14421
ref	-14422
run	-14423
sak	-14424
sob	-14425
sɔm	-14426
sɛa	-14427
tet	-14428
tir	-14429
tma	-14430
tok	-14431
usɛ	-14432
yɛk	-14433
ɔba	-14434
ɔbi	-14435
ɛme	-14436
ɛri	-14437
ɛsi	-14438
▁nw	-14439
▁wb	-14440
▁ɔf	-14441
aram	-14442
base	-14443
bian	-14444
butu	-14445
dwan	-14446
ilet	-14447
insu	-14448
irih	-14449
koko	-14450
maah	-14451
pafo	-14452
riri	-14453
sama	-14454
sebo	-14455
serɛ	-14456
stie	-14457
yape	-14458
ɔfoɔ	-14459
ɛnso	-14460
▁bef	-14461
▁edw	-14462
▁nin	-14463
▁sɛd	-14464
▁tin	-14465
▁tor	-14466
▁wos	-14467
▁wot	-14468
▁woɛ	-14469
▁yis	-14470
▁yɛb	-14471
andeɛ	-14472
mefie	-14473
rɔɔse	-14474
yareɛ	-14475
▁akro	-14476
▁biya	-14477
▁deɛd	-14478
▁fasa	-14479
▁meen	-14480
▁menk	-14481
▁temp	-14482
▁wowu	-14483
▁yɛyi	-14484
denfoɔ	-14485
dwafoɔ	-14486
kakeka	-14487
kakran	-14488
kakraɛ	-14489
kamaka	-14490
kekake	-14491
korako	-14492
kranee	-14493
kwaaba	-14494
kwareɛ	-14495
kɔdidi	-14496
kɔɔdeɛ	-14497
lowers	-14498
maakuo	-14499
ay	-14500
eɔ	-14501
nf	-14502
op	-14503
pn	-14504
rp	-14505
sw	-14506
uo	-14507
uɔ	-14508
uɛ	-14509
ɔk	-14510
ɔt	-14511
ɔu	-14512
▁r	-14513
aad	-14514
ahe	-14515
ain	-14516
anb	-14517
diw	-14518
ian	-14519
kne	-14520
kot	-14521
naɛ	-14522
ofa	-14523
oka	-14524
ork	-14525
oso	-14526
oto	-14527
paw	-14528
pho	-14529
raw	-14530
rip	-14531
rɛw	-14532
sop	-14533
sɛt	-14534
sɛw	-14535
tti	-14536
umɔ	-14537
uwo	-14538
wew	-14539
wɛh	-14540
yme	-14541
ɔbɔ	-14542
▁nd	-14543
▁ɛg	-14544
aanu	-14545
bame	-14546
beyi	-14547
bled	-14548
endi	-14549
eɛfo	-14550
ieha	-14551
kayi	-14552
kayɛ	-14553
kɔka	-14554
mema	-14555
rema	-14556
sapa	-14557
sɛmk	-14558
twet	-14559
uama	-14560
wawa	-14561
wunu	-14562
▁aan	-14563
▁eme	-14564
▁kas	-14565
▁koh	-14566
▁lin	-14567
▁maɛ	-14568
▁mel	-14569
▁meo	-14570
▁nay	-14571
▁tip	-14572
▁wam	-14573
▁ɛnm	-14574
baapa	-14575
beree	-14576
boabo	-14577
manfo	-14578
tenti	-14579
twaho	-14580
▁eigh	-14581
▁fieh	-14582
▁gene	-14583
▁honh	-14584
▁memɛ	-14585
▁ohwa	-14586
▁span	-14587
▁wɔya	-14588
menfrɛ	-14589
merdeɛ	-14590
merebu	-14591
merɛbɛ	-14592
merɛne	-14593
merɛyi	-14594
miemia	-14595
mmɔden	-14596
muadeɛ	-14597
muɔden	-14598
namfoɔ	-14599
br	-14600
gɔ	-14601
ig	-14602
io	-14603
pl	-14604
sp	-14605
up	-14606
ɛw	-14607
aki	-14608
een	-14609
ers	-14610
hit	-14611
iep	-14612
kɔt	-14613
lin	-14614
oon	-14615
osi	-14616
reb	-14617
sɛk	-14618
ton	-14619
uen	-14620
usa	-14621
uso	-14622
utɔ	-14623
war	-14624
wed	-14625
wwe	-14626
yle	-14627
ɛnh	-14628
▁au	-14629
bifo	-14630
dede	-14631
dide	-14632
eneɛ	-14633
koaa	-14634
kofo	-14635
kɔwa	-14636
lati	-14637
mahu	-14638
mbaa	-14639
moho	-14640
onua	-14641
ping	-14642
pono	-14643
raye	-14644
redi	-14645
repa	-14646
rɛbɛ	-14647
sasɛ	-14648
sema	-14649
thou	-14650
tuwo	-14651
wato	-14652
woye	-14653
wɔpa	-14654
ɔnam	-14655
ɔsan	-14656
▁ber	-14657
▁bis	-14658
▁bɛt	-14659
▁dut	-14660
▁eas	-14661
▁kya	-14662
▁maw	-14663
▁mey	-14664
▁mis	-14665
▁nak	-14666
▁nas	-14667
▁por	-14668
▁sor	-14669
▁wur	-14670
brefo	-14671
hudeɛ	-14672
inkye	-14673
korɔk	-14674
manɔn	-14675
yerɛn	-14676
yinfo	-14677
yinmu	-14678
▁akat	-14679
▁biti	-14680
▁bɛpe	-14681
▁faso	-14682
▁hobi	-14683
▁nawa	-14684
▁neɛn	-14685
▁nkok	-14686
▁obih	-14687
▁toge	-14688
▁wonh	-14689
▁ɛkɔg	-14690
ayɔnko	-14691
liking	-14692
neyɛso	-14693
nfitaa	-14694
ngyena	-14695
nsoayɛ	-14696
nsodeɛ	-14697
nyɛmmi	-14698
ointed	-14699
ds	-14700
fɔ	-14701
ib	-14702
nl	-14703
nt	-14704
rd	-14705
sk	-14706
sl	-14707
wt	-14708
ɛɔ	-14709
aae	-14710
anp	-14711
baf	-14712
bid	-14713
bik	-14714
biw	-14715
del	-14716
dɔn	-14717
enp	-14718
gre	-14719
hei	-14720
hog	-14721
ien	-14722
iti	-14723
kar	-14724
kɔw	-14725
med	-14726
mme	-14727
nno	-14728
nsɛ	-14729
omo	-14730
oti	-14731
sbo	-14732
the	-14733
ueɛ	-14734
ukɔ	-14735
ute	-14736
wab	-14737
wsɛ	-14738
yay	-14739
yib	-14740
yɛs	-14741
▁nf	-14742
▁nr	-14743
aate	-14744
boda	-14745
bɛno	-14746
depa	-14747
ghsɔ	-14748
insi	-14749
irid	-14750
nwan	-14751
raaw	-14752
rain	-14753
rame	-14754
rese	-14755
reyi	-14756
rime	-14757
sewo	-14758
sɛma	-14759
toku	-14760
tɔwa	-14761
wehe	-14762
wopɛ	-14763
yada	-14764
yime	-14765
yirɛ	-14766
yɛan	-14767
▁ang	-14768
▁nos	-14769
▁oka	-14770
▁pol	-14771
▁sɛl	-14772
animf	-14773
eiide	-14774
ether	-14775
frayɛ	-14776
riree	-14777
▁babɛ	-14778
▁dwak	-14779
▁nayi	-14780
▁past	-14781
▁sɛan	-14782
▁yiei	-14783
▁yɛny	-14784
ananom	-14785
kayerɛ	-14786
nambaa	-14787
omaase	-14788
ompene	-14789
omtemp	-14790
orɔdie	-14791
paaapa	-14792
paakyɛ	-14793
pakani	-14794
pakyew	-14795
pamowo	-14796
panpan	-14797
panyin	-14798
papapa	-14799
eh	-14800
ew	-14801
iy	-14802
ks	-14803
kw	-14804
mk	-14805
mn	-14806
ps	-14807
tw	-14808
ɔɔ	-14809
aao	-14810
aay	-14811
bɛh	-14812
eda	-14813
enn	-14814
eɛy	-14815
fak	-14816
foh	-14817
hed	-14818
hey	-14819
hna	-14820
ibi	-14821
kru	-14822
met	-14823
nes	-14824
nkɔ	-14825
ofo	-14826
onw	-14827
oow	-14828
orm	-14829
rad	-14830
rif	-14831
rir	-14832
sma	-14833
une	-14834
wow	-14835
wur	-14836
yad	-14837
yag	-14838
ɛha	-14839
▁kr	-14840
▁nb	-14841
▁ɔs	-14842
anii	-14843
eɛwo	-14844
fakɔ	-14845
ideɛ	-14846
kang	-14847
kyɛd	-14848
kɔte	-14849
meya	-14850
noko	-14851
nora	-14852
nsɛm	-14853
oara	-14854
pera	-14855
sere	-14856
sɛne	-14857
teri	-14858
tian	-14859
umrɛ	-14860
yera	-14861
ɔnti	-14862
▁faf	-14863
▁hui	-14864
▁kuk	-14865
▁loo	-14866
▁mag	-14867
▁meb	-14868
▁nao	-14869
▁nee	-14870
▁prɛ	-14871
▁rem	-14872
▁tha	-14873
▁wap	-14874
▁ɛnk	-14875
foɔbɛ	-14876
foɔhɔ	-14877
raase	-14878
rufoɔ	-14879
wanta	-14880
▁abat	-14881
▁dadd	-14882
▁eiɛn	-14883
▁gyeg	-14884
▁mmag	-14885
▁moag	-14886
▁mosɔ	-14887
▁nenn	-14888
▁wase	-14889
▁ɔdwo	-14890
▁ɛtwe	-14891
ansani	-14892
pempem	-14893
pepepe	-14894
pɛadam	-14895
pɛnpɛn	-14896
rantie	-14897
rebeee	-14898
rebeyi	-14899
hh	-14900
ki	-14901
kl	-14902
nb	-14903
ns	-14904
oɔ	-14905
rg	-14906
sf	-14907
ɔe	-14908
ɛt	-14909
aab	-14910
anw	-14911
did	-14912
eɛk	-14913
eɛw	-14914
iaa	-14915
lle	-14916
nse	-14917
okɔ	-14918
osɛ	-14919
oww	-14920
pag	-14921
rea	-14922
rno	-14923
ssi	-14924
sto	-14925
tek	-14926
wad	-14927
yiɛ	-14928
yra	-14929
yɛa	-14930
ɔku	-14931
▁eɛ	-14932
▁ɛs	-14933
aayɛ	-14934
anwu	-14935
dawa	-14936
dawo	-14937
enkɔ	-14938
eɛbɛ	-14939
eɛte	-14940
fema	-14941
gyeg	-14942
igye	-14943
imna	-14944
kokɔ	-14945
kɔba	-14946
mone	-14947
noma	-14948
nows	-14949
nsia	-14950
rdeɛ	-14951
sawo	-14952
seme	-14953
sene	-14954
twed	-14955
wɔha	-14956
yara	-14957
yian	-14958
ɛnbi	-14959
ɛnsɔ	-14960
▁akr	-14961
▁bid	-14962
▁fah	-14963
▁mri	-14964
▁noo	-14965
▁wof	-14966
▁ɔnw	-14967
baabɛ	-14968
foɔbi	-14969
komen	-14970
resre	-14971
siaba	-14972
sɛmho	-14973
tapaa	-14974
▁hean	-14975
▁kɔdu	-14976
▁sesi	-14977
▁tebe	-14978
▁wall	-14979
▁wɔbi	-14980
▁ɔrek	-14981
handan	-14982
kyɛkye	-14983
rebisa	-14984
reedom	-14985
reenam	-14986
rekasa	-14987
renkyɛ	-14988
ribikɔ	-14989
rimakɔ	-14990
rinkno	-14991
roblem	-14992
rother	-14993
rthday	-14994
ruwamu	-14995
rɔnfoɔ	-14996
rɔwkro	-14997
rɛkopɛ	-14998
sankuo	-14999
dl	-15000
eb	-15001
eo	-15002
ff	-15003
iw	-15004
iɔ	-15005
kb	-15006
mh	-15007
nm	-15008
ow	-15009
pg	-15010
sn	-15011
uy	-15012
yd	-15013
ɔa	-15014
ɔg	-15015
ɛo	-15016
aaf	-15017
eir	-15018
eks	-15019
eɛg	-15020
eɛp	-15021
fom	-15022
hma	-15023
inf	-15024
kin	-15025
kom	-15026
kɔr	-15027
nen	-15028
pso	-15029
pti	-15030
rah	-15031
rio	-15032
sed	-15033
uaa	-15034
uwa	-15035
was	-15036
wpa	-15037
yig	-15038
ɛnp	-15039
▁nl	-15040
▁wr	-15041
aamo	-15042
eima	-15043
kɔdɔ	-15044
onia	-15045
oose	-15046
rato	-15047
refi	-15048
ruso	-15049
sefo	-15050
sesɛ	-15051
uafo	-15052
usɛm	-15053
yasa	-15054
yieɛ	-15055
▁gon	-15056
▁mab	-15057
▁moh	-15058
▁mok	-15059
▁mɛb	-15060
▁pum	-15061
▁sɛa	-15062
▁tet	-15063
▁yɛg	-15064
deɛna	-15065
hwɛso	-15066
innie	-15067
omfoɔ	-15068
ortan	-15069
rakye	-15070
sband	-15071
sodeɛ	-15072
suobe	-15073
tewaa	-15074
ughsɔ	-15075
yegye	-15076
yerɛɛ	-15077
▁adre	-15078
▁baan	-15079
▁baat	-15080
▁bino	-15081
▁deɛk	-15082
▁nepa	-15083
▁payi	-15084
▁sese	-15085
▁wong	-15086
▁wɔre	-15087
▁yeti	-15088
ribibi	-15089
seiame	-15090
sensaa	-15091
shishi	-15092
siasem	-15093
siasɛm	-15094
siriwa	-15095
somkwa	-15096
soposo	-15097
sɔadeɛ	-15098
sɔreyɛ	-15099
ae	-15100
ih	-15101
kr	-15102
lr	-15103
mw	-15104
oy	-15105
pw	-15106
rb	-15107
sr	-15108
uk	-15109
wp	-15110
yf	-15111
yk	-15112
yp	-15113
ɔi	-15114
bɛp	-15115
eas	-15116
eso	-15117
eti	-15118
eɛt	-15119
hsɔ	-15120
hud	-15121
imf	-15122
imɛ	-15123
kad	-15124
lie	-15125
mal	-15126
mas	-15127
oaa	-15128
ono	-15129
per	-15130
rap	-15131
rii	-15132
rɔn	-15133
sof	-15134
ubɔ	-15135
yas	-15136
yeb	-15137
yre	-15138
yye	-15139
ɔsɛ	-15140
ɛyi	-15141
▁aɛ	-15142
▁dw	-15143
▁ep	-15144
▁ki	-15145
enye	-15146
hayɛ	-15147
kafo	-15148
maso	-15149
repɛ	-15150
rɛme	-15151
sowo	-15152
sowɔ	-15153
tesɛ	-15154
tɛat	-15155
wasi	-15156
wɛme	-15157
wɛso	-15158
wɛsɛ	-15159
yawo	-15160
ɔnko	-15161
▁abr	-15162
▁bat	-15163
▁dro	-15164
▁dɔɔ	-15165
▁enh	-15166
▁hod	-15167
▁hoe	-15168
▁lon	-15169
▁mog	-15170
▁mou	-15171
▁noɛ	-15172
▁sas	-15173
▁sed	-15174
▁wal	-15175
▁ɛnb	-15176
▁ɛwa	-15177
adget	-15178
anase	-15179
anhyɛ	-15180
antan	-15181
eiina	-15182
hyɛyɛ	-15183
nnyae	-15184
ramaa	-15185
umide	-15186
ɔnson	-15187
▁hoan	-15188
▁oyin	-15189
bɛhyia	-15190
hyɛdeɛ	-15191
nnwonn	-15192
sɛmsɛm	-15193
sɛnkye	-15194
sɛɔbaa	-15195
tation	-15196
teɛtia	-15197
tiatia	-15198
tiedeɛ	-15199
lb	-15200
nr	-15201
wh	-15202
ɔh	-15203
aam	-15204
aaw	-15205
aaɛ	-15206
aen	-15207
bɛw	-15208
efo	-15209
enf	-15210
eny	-15211
ewa	-15212
gen	-15213
iee	-15214
inb	-15215
kok	-15216
kɔf	-15217
maw	-15218
mbi	-15219
oen	-15220
rɛs	-15221
sey	-15222
tef	-15223
toh	-15224
uhu	-15225
yab	-15226
yik	-15227
ɛnb	-15228
▁nɔ	-15229
▁ɔw	-15230
aaah	-15231
aaka	-15232
aara	-15233
anen	-15234
anua	-15235
bite	-15236
bree	-15237
eiɛn	-15238
enaa	-15239
enah	-15240
enko	-15241
enwe	-15242
ethe	-15243
frɛi	-15244
gume	-15245
hyee	-15246
iden	-15247
kɔye	-15248
meso	-15249
nkno	-15250
obuo	-15251
rete	-15252
risɛ	-15253
sehe	-15254
tina	-15255
yata	-15256
yiaa	-15257
yisɛ	-15258
yɛka	-15259
ɔntɔ	-15260
ɔtɔɔ	-15261
ɛnya	-15262
▁adw	-15263
▁beh	-15264
▁bip	-15265
▁hen	-15266
▁pri	-15267
▁yɛk	-15268
▁yɛp	-15269
▁ɔfe	-15270
ayɛpa	-15271
enase	-15272
frien	-15273
iemia	-15274
maaku	-15275
mmahu	-15276
nomaa	-15277
rɛbrɛ	-15278
sɛtwe	-15279
▁bɔmm	-15280
▁nyad	-15281
▁yɛng	-15282
▁ɛnan	-15283
▁ɛnen	-15284
orɔsei	-15285
tiriso	-15286
titire	-15287
titiri	-15288
toasoɔ	-15289
tudent	-15290
tukorm	-15291
tumide	-15292
twatwi	-15293
twedua	-15294
twideɛ	-15295
twonku	-15296
tɔadeɛ	-15297
uation	-15298
ueense	-15299
mt	-15300
ym	-15301
afi	-15302
bam	-15303
eɛb	-15304
fih	-15305
fod	-15306
gra	-15307
ima	-15308
imp	-15309
ira	-15310
kaf	-15311
kai	-15312
kɔa	-15313
kɔp	-15314
mad	-15315
mkɔ	-15316
niɛ	-15317
ote	-15318
ple	-15319
rab	-15320
rai	-15321
raɔ	-15322
rɛg	-15323
sag	-15324
sep	-15325
tod	-15326
ual	-15327
wus	-15328
ɛdi	-15329
ɛra	-15330
▁fr	-15331
aafa	-15332
aneɛ	-15333
ayɔn	-15334
dɔmu	-15335
ensɛ	-15336
eɛan	-15337
foɔh	-15338
iada	-15339
kaka	-15340
kati	-15341
kofa	-15342
kɔsɛ	-15343
maye	-15344
moyɛ	-15345
rama	-15346
sosɛ	-15347
sɛdɛ	-15348
totɔ	-15349
umna	-15350
wati	-15351
wuri	-15352
wusu	-15353
yakɔ	-15354
yɛpa	-15355
yɛwɔ	-15356
▁anh	-15357
▁dad	-15358
▁del	-15359
▁dri	-15360
▁dɛd	-15361
▁gwa	-15362
▁kag	-15363
▁kɔw	-15364
▁mɛk	-15365
▁neb	-15366
▁ses	-15367
▁wug	-15368
▁wɔf	-15369
▁yib	-15370
aasan	-15371
akyew	-15372
bidaa	-15373
busua	-15374
kyewa	-15375
monya	-15376
wakye	-15377
yerɛm	-15378
yinsɛ	-15379
ɔnyin	-15380
▁adik	-15381
▁maak	-15382
▁neku	-15383
▁nesu	-15384
▁nora	-15385
▁wond	-15386
▁yibi	-15387
▁ɛbɛd	-15388
duruso	-15389
umifoɔ	-15390
ummerɛ	-15391
unimdi	-15392
ursing	-15393
waanea	-15394
wantia	-15395
wanwan	-15396
wareyɛ	-15397
wasena	-15398
weethe	-15399
ɛf	-15400
ɛk	-15401
dwu	-15402
eme	-15403
erɛ	-15404
fat	-15405
fro	-15406
hun	-15407
imb	-15408
iso	-15409
kɛn	-15410
maɔ	-15411
mes	-15412
mra	-15413
ntu	-15414
ode	-15415
ofi	-15416
oye	-15417
reg	-15418
rɛa	-15419
rɛb	-15420
rɛh	-15421
rɛi	-15422
rɛm	-15423
rɛn	-15424
seg	-15425
set	-15426
sih	-15427
tep	-15428
upa	-15429
uuu	-15430
wag	-15431
wob	-15432
wod	-15433
yal	-15434
yrɛ	-15435
ɔwa	-15436
ɛse	-15437
▁el	-15438
bita	-15439
bɛya	-15440
dufu	-15441
fter	-15442
gium	-15443
hume	-15444
meme	-15445
nfoɔ	-15446
pofo	-15447
reku	-15448
righ	-15449
rɛyi	-15450
seye	-15451
siyɛ	-15452
sofo	-15453
taat	-15454
waye	-15455
wowɔ	-15456
wtwe	-15457
yeei	-15458
yena	-15459
ɛnti	-15460
▁aro	-15461
▁bos	-15462
▁enk	-15463
▁ewa	-15464
▁fau	-15465
▁hum	-15466
▁hɔh	-15467
▁kne	-15468
▁mye	-15469
▁set	-15470
▁sou	-15471
▁ɛbo	-15472
▁ɛnh	-15473
▁ɛnt	-15474
▁ɛnu	-15475
enate	-15476
pafoɔ	-15477
raman	-15478
rɔfoɔ	-15479
safoɔ	-15480
sɔhwɛ	-15481
▁deɛs	-15482
▁epre	-15483
[...]
